{"<|endoftext|>":0,"<|unk|>":1,"!":2,"\"":3,"#":4,"$":5,"%":6,"&":7,"'":8,"(":9,")":10,"*":11,"+":12,",":13,"-":14,".":15,"/":16,":":17,";":18,"<":19,"=":20,">":21,"?":22,"@":23,"[":24,"\\":25,"]":26,"^":27,"_":28,"`":29,"d":30,"e":31,"f":32,"n":33,"o":34,"t":35,"x":36,"{":37,"|":38,"}":39,"~":40,"ँ":41,"ं":42,"ः":43,"अ":44,"आ":45,"इ":46,"ई":47,"उ":48,"ऊ":49,"ऋ":50,"ऌ":51,"ऍ":52,"ऎ":53,"ए":54,"ऐ":55,"ऑ":56,"ऒ":57,"ओ":58,"औ":59,"क":60,"ख":61,"ग":62,"घ":63,"ङ":64,"च":65,"छ":66,"ज":67,"झ":68,"ञ":69,"ट":70,"ठ":71,"ड":72,"ढ":73,"ण":74,"त":75,"थ":76,"द":77,"ध":78,"न":79,"ऩ":80,"प":81,"फ":82,"ब":83,"भ":84,"म":85,"य":86,"र":87,"ऱ":88,"ल":89,"ळ":90,"ऴ":91,"व":92,"श":93,"ष":94,"स":95,"ह":96,"ऻ":97,"़":98,"ऽ":99,"ा":100,"ि":101,"ी":102,"ु":103,"ू":104,"ृ":105,"ॄ":106,"ॅ":107,"ॆ":108,"े":109,"ै":110,"ॉ":111,"ॊ":112,"ो":113,"ौ":114,"्":115,"ॏ":116,"ॐ":117,"॑":118,"॒":119,"॓":120,"॔":121,"क़":122,"ख़":123,"ग़":124,"ज़":125,"ड़":126,"ढ़":127,"फ़":128,"य़":129,"ॠ":130,"।":131,"॥":132,"०":133,"१":134,"२":135,"३":136,"४":137,"५":138,"६":139,"७":140,"८":141,"९":142,"॰":143,"ॱ":144,"ॲ":145,"ॽ":146,"क</w>":147,"ि</w>":148,"ा</w>":149,"ँ</w>":150,"ई</w>":151,"र</w>":152,"भ</w>":153,"ो</w>":154,"ड</w>":155,"प</w>":156,"०</w>":157,"ु</w>":158,"स</w>":159,"म</w>":160,"े</w>":161,"ट</w>":162,"्</w>":163,"ज</w>":164,"ै</w>":165,"ी</w>":166,"त</w>":167,"५</w>":168,"ञ</w>":169,"छ</w>":170,"ं</w>":171,"व</w>":172,"य</w>":173,"श</w>":174,"ल</w>":175,"४</w>":176,"न</w>":177,"ह</w>":178,"ग</w>":179,"इ</w>":180,"फ</w>":181,"ङ</w>":182,"ू</w>":183,"ः</w>":184,"झ</w>":185,"ठ</w>":186,"ध</w>":187,"द</w>":188,"ण</w>":189,"ष</w>":190,"ब</w>":191,"३</w>":192,"१</w>":193,"ख</w>":194,"२</w>":195,"थ</w>":196,"९</w>":197,"च</w>":198,"आ</w>":199,"ए</w>":200,"८</w>":201,"ऊ</w>":202,"ओ</w>":203,"औ</w>":204,"६</w>":205,"ौ</w>":206,"७</w>":207,"उ</w>":208,"ृ</w>":209,"घ</w>":210,"ढ</w>":211,"अ</w>":212,"ॉ</w>":213,"ॅ</w>":214,"ड़</w>":215,"ऽ</w>":216,"ळ</w>":217,"ढ़</w>":218,"़</w>":219,"ऑ</w>":220,"ऋ</w>":221,"॒</w>":222,"फ़</w>":223,"ऐ</w>":224,"क़</w>":225,"॔</w>":226,"ॊ</w>":227,"ज़</w>":228,"$</w>":229,".</w>":230,"ऱ</w>":231,"य़</w>":232,"॥</w>":233,"ॆ</w>":234,"ॽ</w>":235,"^</w>":236,"`</w>":237,"ऩ</w>":238,"\"</w>":239,"*</w>":240,"<</w>":241,"ग़</w>":242,"ऴ</w>":243,"ऎ</w>":244,"!</w>":245,"%</w>":246,"ऒ</w>":247,"|</w>":248,"ॐ</w>":249,"ॱ</w>":250,"।</w>":251,"ख़</w>":252,"/</w>":253,"ॄ</w>":254,"[</w>":255,";</w>":256,"&</w>":257,"(</w>":258,"]</w>":259,"=</w>":260,"~</w>":261,"-</w>":262,"@</w>":263,")</w>":264,"+</w>":265,"#</w>":266,":</w>":267,"t</w>":268,"ॠ</w>":269,"></w>":270,",</w>":271,"'</w>":272,"{</w>":273,"}</w>":274,"\\</w>":275,"_</w>":276,"॓</w>":277,"॰</w>":278,"?</w>":279,"को</w>":280,"र्":281,"्र":282,"मा</w>":283,"न्":284,"ले</w>":285,"का":286,"का</w>":287,"्य":288,"ला":289,"स्":290,"प्र":291,"मा":292,"ने</w>":293,"क्":294,"पा":295,"गर":296,"वि":297,"एको</w>":298,"रा":299,"नि":300,"ने":301,"बा":302,"वा":303,"सा":304,"ना":305,"ेको</w>":306,"ता":307,"सम":308,"ति":309,"गर्":310,"हा":311,"लाई</w>":312,"त्":313,"या":314,"हर":315,"त्र":316,"न्</w>":317,"दे":318,"हु":319,"नु":320,"्या":321,"स्थ":322,"लि":323,"क्ष":324,"हि":325,"दि":326,"कार":327,"यो</w>":328,"ल्":329,"जा":330,"पन":331,"रि":332,"रह":333,"सं":334,"भा":335,"चा":336,"गा":337,"ता</w>":338,"छन्</w>":339,"न्द":340,"थि":341,"धा":342,"पनि</w>":343,"उन":344,"ष्":345,"ना</w>":346,"क्र":347,"पु":348,"सम्":349,"भएको</w>":350,"लाग":351,"सु":352,"के":353,"म्":354,"नेपा":355,"त्य":356,"दा":357,"सि":358,"यो":359,"ेका</w>":360,"मि":361,"ति</w>":362,"रो":363,"जि":364,"न्त्र":365,"कार्":366,"बाट</w>":367,"एका</w>":368,"रु":369,"पर्":370,"निर्":371,"री</w>":372,"मु":373,"कु":374,"द्":375,"धि":376,"गरि":377,"कि":378,"ला</w>":379,"स्था":380,"ीले</w>":381,"गरेको</w>":382,"मन्त्र":383,"भि":384,"को":385,"नी":386,"मे":387,"दु":388,"पछ":389,"रहेको</w>":390,"दै</w>":391,"चि":392,"लागि</w>":393,"वर्":394,"बता":395,"ले":396,"नेपाल":397,"देख":398,"बि":399,"देश":400,"प्रति":401,"सर":402,"स्त":403,"हो</w>":404,"तथ":405,"उँ":406,"ष्ट":407,"त्र</w>":408,"भने</w>":409,"नै</w>":410,"अनु":411,"री":412,"व्य":413,"तथा</w>":414,"दा</w>":415,"पछि</w>":416,"ध्य":417,"गर्ने</w>":418,"गर्न</w>":419,"उन</w>":420,"श्":421,"नमा</w>":422,"थियो</w>":423,"ग्र":424,"से":425,"ण्":426,"do":427,"en":428,"ex":429,"ft":430,"doft":431,"endoft":432,"ext</w>":433,"endoftext</w>":434,"बै":435,"ीय</w>":436,"उप":437,"सँ":438,"रे":439,"राज":440,"नी</w>":441,"न्त":442,"जना":443,"ङ्":444,"ीको</w>":445,"पू":446,"बढ":447,"ौं</w>":448,"आफ":449,"खे":450,"काठ":451,"उने</w>":452,"लो</w>":453,"की</w>":454,"उनले</w>":455,"काठमा":456,"कार्य":457,"ही</w>":458,"कारी</w>":459,"शा":460,"काठमाड":461,"हरु":462,"रा</w>":463,"सह":464,"नको</w>":465,"प्":466,"रमा</w>":467,"लगा":468,"राष्ट":469,"यस":470,"मन्त्री</w>":471,"बन्":472,"हरू":473,"डि":474,"खा":475,"ली</w>":476,"ञ्":477,"परि":478,"हुने</w>":479,"भए":480,"न्छ</w>":481,"यु":482,"एक</w>":483,"टा":484,"भन्द":485,"अव":486,"वा</w>":487,"था":488,"डा":489,"कर्":490,"कृ":491,"पूर्":492,"बार</w>":493,"जना</w>":494,"पालि":495,"ग्":496,"राष्ट्र":497,"नुपर्":498,"ित</w>":499,"लय":500,"क्रम":501,"पार्":502,"टि":503,"जन":504,"क्षे":505,"अर्":506,"बना":507,"सार</w>":508,"ेर</w>":509,"गरी</w>":510,"व्यव":511,"बु":512,"महा":513,"वे":514,"सरकार":515,"वर्ष":516,"रुप":517,"जार</w>":518,"भन्":519,"्य</w>":520,"लमा</w>":521,"गरेका</w>":522,"क्त</w>":523,"सद":524,"प्रा":525,"प्रहर":526,"बे":527,"रण</w>":528,"थिए</w>":529,"नेपाल</w>":530,"गु":531,"हो":532,"क्ष</w>":533,"धान":534,"सो":535,"कार</w>":536,"ीमा</w>":537,"सँग</w>":538,"सम्म</w>":539,"त्यस":540,"जे":541,"तर</w>":542,"देखि</w>":543,"याँ</w>":544,"रण":545,"समा":546,"गरिएको</w>":547,"ैन</w>":548,"बताए</w>":549,"विद":550,"हजार</w>":551,"काठमाडौं</w>":552,"ती</w>":553,"एर</w>":554,"२०":555,"अध्य":556,"रको</w>":557,"ठा":558,"शि":559,"नगर":560,"लो":561,"हाम":562,"कै</w>":563,"देश</w>":564,"जो":565,"टा</w>":566,"अधि":567,"ती":568,"कार्या":569,"समे":570,"पार्ट":571,"न्न</w>":572,"डा</w>":573,"सक्":574,"्रो</w>":575,"गत</w>":576,"अनुसार</w>":577,"हुँ":578,"या</w>":579,"पो":580,"न्द्र":581,"श्र":582,"विश्":583,"पहि":584,"जिल्":585,"योग":586,"रु</w>":587,"क्षेत्र":588,"काम</w>":589,"काले</w>":590,"प्रधान":591,"रहेका</w>":592,"आफ्":593,"ज्":594,"िय</w>":595,"ण्ड":596,"भएका</w>":597,"पर":598,"बो":599,"सञ्":600,"िक</w>":601,"ट्":602,"्र</w>":603,"समेत</w>":604,"मो":605,"भन्दा</w>":606,"चाल":607,"गर्दै</w>":608,"ल्या":609,"ेर":610,"भयो</w>":611,"उत्":612,"चार</w>":613,"महि":614,"लले</w>":615,"फा":616,"च्":617,"शु":618,"निर्मा":619,"जान":620,"लु":621,"खो":622,"अन्":623,"अघ":624,"स्वा":625,"अहि":626,"जु":627,"गो":628,"लको</w>":629,"नेपाली</w>":630,"स्व":631,"मुख</w>":632,"स्ता":633,"स्प":634,"हे":635,"टे":636,"गत":637,"वाद":638,"हरु</w>":639,"दुई</w>":640,"नो</w>":641,"स्था</w>":642,"भार":643,"निक</w>":644,"योग</w>":645,"राम":646,"हरू</w>":647,"नका</w>":648,"सक":649,"रू":650,"छा":651,"देखि":652,"निर्वा":653,"धि</w>":654,"ेस":655,"स्य":656,"राख":657,"पा</w>":658,"नेछ</w>":659,"जानकारी</w>":660,"इएको</w>":661,"ीलाई</w>":662,"नुपर्ने</w>":663,"कारण</w>":664,"राष्ट्रिय</w>":665,"ीका</w>":666,"मार्":667,"सय</w>":668,"र्व":669,"नगरपालि":670,"तिक</w>":671,"सी</w>":672,"सो</w>":673,"दिन</w>":674,"डे":675,"पि":676,"भे":677,"बी":678,"कमा</w>":679,"लाख</w>":680,"कम्":681,"भाग":682,"लय</w>":683,"हुन्</w>":684,"समि":685,"नु</w>":686,"अन्त":687,"अध्यक्ष</w>":688,"प्रमुख</w>":689,"स्थानी":690,"कां":691,"अघि</w>":692,"ौँ</w>":693,"गाउँ":694,"टो":695,"भन्ने</w>":696,"प्रहरी</w>":697,"तको</w>":698,"निय":699,"ंग":700,"नले</w>":701,"हुन्छ</w>":702,"बैठ":703,"यमा</w>":704,"बन्ध":705,"गरा":706,"कको</w>":707,"रक्ष":708,"्यु":709,"केन्द्र":710,"पमा</w>":711,"सङ्":712,"भइ":713,"विद्या":714,"केही</w>":715,"विष":716,"कम":717,"प्रधानमन्त्री</w>":718,"खु":719,"विका":720,"पुग":721,"सभा":722,"हाँ":723,"घट":724,"ब्":725,"सहि":726,"ड्":727,"छैन</w>":728,"चु":729,"सरकारले</w>":730,"घा":731,"आइ":732,"एक":733,"सू":734,"दर्":735,"ट्र":736,"धान</w>":737,"भने":738,"आफ्नो</w>":739,"सी":740,"स्वास्थ":741,"मुख":742,"हुन</w>":743,"सँग":744,"मान</w>":745,"कले</w>":746,"सकि":747,"न्द्र</w>":748,"आयो":749,"अहिले</w>":750,"स्तै</w>":751,"पे":752,"उनी":753,"ज्ञ":754,"प्रदेश</w>":755,"गठ":756,"क्रि":757,"बहा":758,"सब":759,"अभि":760,"आर्":761,"निर्वाच":762,"पी</w>":763,"िल्":764,"सको</w>":765,"भू":766,"द्ध</w>":767,"मी</w>":768,"ताको</w>":769,"मू":770,"आएको</w>":771,"एमा":772,"टक</w>":773,"क्रममा</w>":774,"ली":775,"मन्त्रा":776,"नयाँ</w>":777,"दो":778,"तर्":779,"जी":780,"र्थ":781,"भाव":782,"सकेको</w>":783,"लगाय":784,"स्तो</w>":785,"गरेर</w>":786,"मह":787,"बार":788,"वर्ष</w>":789,"वन</w>":790,"कांग्र":791,"झा":792,"निर्माण</w>":793,"राजनी":794,"ममा</w>":795,"निर्ण":796,"रुपमा</w>":797,"मात्र</w>":798,"मृ":799,"कुनै</w>":800,"स्थानीय</w>":801,"साउन</w>":802,"कोरो":803,"गरे</w>":804,"आज</w>":805,"भए</w>":806,"दुर</w>":807,"प्रतिश":808,"तया":809,"धेर":810,"सञ्चाल":811,"यन</w>":812,"सबै</w>":813,"टर</w>":814,"रीक्ष":815,"जिल्ला</w>":816,"नुभयो</w>":817,"प्रदेश":818,"मै</w>":819,"फल</w>":820,"दै":821,"आव":822,"रका</w>":823,"इन्":824,"अस्प":825,"दन</w>":826,"यी</w>":827,"जनाएको</w>":828,"अस्पता":829,"क्ति":830,"बैं":831,"शिक्ष":832,"मान":833,"उनको</w>":834,"सड":835,"त्व":836,"तमा</w>":837,"सन्":838,"१०</w>":839,"सचि":840,"वार</w>":841,"पक्ष":842,"जी</w>":843,"तले</w>":844,"बहादुर</w>":845,"वै":846,"वादी</w>":847,"लेको</w>":848,"करो":849,"यस</w>":850,"स्थित</w>":851,"श्य":852,"दिए</w>":853,"शे":854,"भिन्न</w>":855,"सामा":856,"म्मे":857,"म्ब":858,"सूच":859,"णा":860,"अन्तर्":861,"बढी</w>":862,"भन्दै</w>":863,"रुपै":864,"पूर्ण</w>":865,"तका</w>":866,"सहित</w>":867,"तीन</w>":868,"सँगै</w>":869,"नामा</w>":870,"लामा</w>":871,"हरुले</w>":872,"उक्त</w>":873,"कम</w>":874,"पहिलो</w>":875,"दिएको</w>":876,"टी</w>":877,"दान</w>":878,"द्ध":879,"ष्ट</w>":880,"मन्त्रालय":881,"पत्र":882,"समिति":883,"थिक</w>":884,"विभिन्न</w>":885,"गाउँपालि":886,"्यो</w>":887,"स्वास्थ्य</w>":888,"कम्पन":889,"आर्थिक</w>":890,"नो":891,"गरे":892,"नेक":893,"बस्":894,"इन</w>":895,"रूपमा</w>":896,"छि":897,"धेरै</w>":898,"विश्व":899,"पोख":900,"सके":901,"व्या":902,"माथ":903,"पटक</w>":904,"पति</w>":905,"दिने</w>":906,"सन</w>":907,"संघ":908,"मात्र":909,"उद":910,"न्य":911,"फो":912,"डी</w>":913,"हरूले</w>":914,"सा</w>":915,"प्रतिनि":916,"ैले</w>":917,"बाँ":918,"क्रम</w>":919,"रले</w>":920,"करोड</w>":921,"रो</w>":922,"मत</w>":923,"जन</w>":924,"ही":925,"विकास</w>":926,"धन</w>":927,"क्रा":928,"सेवा</w>":929,"भो":930,"कुरा</w>":931,"निर्देश":932,"नागरि":933,"समा</w>":934,"सुरु</w>":935,"मध्य":936,"सले</w>":937,"पार्टी</w>":938,"शर्":939,"पाँ":940,"टमा</w>":941,"गते</w>":942,"बजे":943,"क्षेत्रमा</w>":944,"सबै":945,"चौ":946,"गर्दा</w>":947,"माथि</w>":948,"कार्यालय":949,"चित</w>":950,"उल्":951,"उनी</w>":952,"जा</w>":953,"करण":954,"नन्</w>":955,"प्त</w>":956,"आवश्य":957,"निर्णय</w>":958,"मको</w>":959,"दैन</w>":960,"हाँ</w>":961,"कोरोना</w>":962,"सुरक्ष":963,"उहाँ":964,"चे":965,"यर</w>":966,"सार्व":967,"तीय</w>":968,"कर्म":969,"मृत्य":970,"लका</w>":971,"लीले</w>":972,"स्थाप":973,"मेरि":974,"साथ":975,"वटा</w>":976,"न्या":977,"भु":978,"हरुको</w>":979,"उँदै</w>":980,"सां":981,"करण</w>":982,"एपछि</w>":983,"कुमा":984,"तह":985,"अमेरि":986,"्ने</w>":987,"प्रसा":988,"लन</w>":989,"जित</w>":990,"छो":991,"तृ":992,"पी":993,"आधा":994,"२०७":995,"तामा</w>":996,"ध्या":997,"व्यवस्था</w>":998,"दू":999,"परा":1000,"हरूको</w>":1001,"स्या</w>":1002,"उत्पा":1003,"पर्य":1004,"सार्वज":1005,"सक्ने</w>":1006,"समस्या</w>":1007,"सरकार</w>":1008,"समय</w>":1009,"ेष्":1010,"२०</w>":1011,"नेता</w>":1012,"सार्वजनिक</w>":1013,"तो":1014,"प्रतिशत</w>":1015,"शन</w>":1016,"मात्रै</w>":1017,"युक्त</w>":1018,"कामा</w>":1019,"पुर</w>":1020,"भा</w>":1021,"बीच</w>":1022,"त्यो</w>":1023,"नुपर्छ</w>":1024,"नेकपा</w>":1025,"ठू":1026,"कार्यालय</w>":1027,"स्ता</w>":1028,"अन्य</w>":1029,"वृ":1030,"्यो":1031,"्रो":1032,"्या</w>":1033,"छल":1034,"आफू":1035,"बारे</w>":1036,"नगरपालिका</w>":1037,"गि":1038,"निका":1039,"सम्बन्ध":1040,"भित्र</w>":1041,"पद":1042,"समाज":1043,"के</w>":1044,"कृत</w>":1045,"ेस</w>":1046,"मृत्यु</w>":1047,"एउ":1048,"अवस्था":1049,"वार्":1050,"रिक</w>":1051,"फि":1052,"हुँदा</w>":1053,"जारी</w>":1054,"स्य</w>":1055,"ङ्ग":1056,"मत":1057,"वी":1058,"सम्प":1059,"नेतृ":1060,"बढा":1061,"माओ":1062,"्न</w>":1063,"श्रेष्":1064,"त्</w>":1065,"लेख</w>":1066,"लेख":1067,"ची":1068,"रुपैयाँ</w>":1069,"समू":1070,"भ्र":1071,"बने":1072,"मानि":1073,"भना":1074,"रहे":1075,"भइरहेको</w>":1076,"जिक</w>":1077,"नग":1078,"खर्":1079,"कांग्रेस":1080,"प्रका":1081,"क्या":1082,"क्ति</w>":1083,"परेको</w>":1084,"परीक्ष":1085,"तिमा</w>":1086,"१५</w>":1087,"व्यवसा":1088,"वारी</w>":1089,"लक्ष":1090,"व्यक्ति":1091,"सिं":1092,"ण्ड</w>":1093,"थप</w>":1094,"फर्":1095,"ज्ञा":1096,"दी":1097,"पक्रा":1098,"मित</w>":1099,"पूर्व":1100,"शी":1101,"काको</w>":1102,"ख्या</w>":1103,"न्व":1104,"नाको</w>":1105,"पठा":1106,"निर्वाचन</w>":1107,"राजनीतिक</w>":1108,"धु":1109,"नलाई</w>":1110,"विद्यु":1111,"पक्राउ</w>":1112,"विधि":1113,"शो":1114,"प्रहरीले</w>":1115,"सदस्य</w>":1116,"सभा</w>":1117,"घो":1118,"त्म":1119,"टन</w>":1120,"हाल</w>":1121,"पुग्":1122,"जनाको</w>":1123,"संसद":1124,"घर</w>":1125,"सर्":1126,"प्राप्त</w>":1127,"लोक":1128,"बताएका</w>":1129,"कार्यक्रम</w>":1130,"टर":1131,"टै</w>":1132,"त्व</w>":1133,"उम्मे":1134,"चार":1135,"अदा":1136,"सचिव</w>":1137,"च्च</w>":1138,"छु</w>":1139,"गाड":1140,"अन":1141,"अदाल":1142,"िल्लो</w>":1143,"पर्ने</w>":1144,"गम":1145,"एव":1146,"पुर":1147,"लाको</w>":1148,"टो</w>":1149,"आरो":1150,"अब</w>":1151,"भनेर</w>":1152,"कस":1153,"फु":1154,"उल्लेख</w>":1155,"नेपालमा</w>":1156,"दाय":1157,"पत्र</w>":1158,"माग</w>":1159,"लिएको</w>":1160,"उद्":1161,"दिन":1162,"विषयमा</w>":1163,"त्का":1164,"बी</w>":1165,"संवि":1166,"विरु":1167,"आवश्यक</w>":1168,"पुगेको</w>":1169,"विश्वा":1170,"सर्व":1171,"न्य</w>":1172,"अनुसन्":1173,"हरुलाई</w>":1174,"बेला</w>":1175,"णमा</w>":1176,"कुमार</w>":1177,"मौ":1178,"पाँच</w>":1179,"उम्मेद":1180,"मार्फ":1181,"प्रसाद</w>":1182,"पौ":1183,"सहभाग":1184,"सञ्चालन</w>":1185,"स्थि":1186,"११</w>":1187,"आएका</w>":1188,"सडक</w>":1189,"पै":1190,"त्ता</w>":1191,"प्रयोग</w>":1192,"१२</w>":1193,"संस्था":1194,"भनि":1195,"म्या":1196,"साम":1197,"पुन":1198,"मुलु":1199,"ल्ने</w>":1200,"सदस्य":1201,"ग्रा":1202,"भएकाले</w>":1203,"दश":1204,"क्रमण</w>":1205,"धार</w>":1206,"न्त्र</w>":1207,"अवस्था</w>":1208,"नेपालको</w>":1209,"कता</w>":1210,"योजना</w>":1211,"५०</w>":1212,"१९</w>":1213,"सहयोग</w>":1214,"हामी</w>":1215,"दोस":1216,"पाइ":1217,"तु":1218,"एउटा</w>":1219,"भी":1220,"हुनेछ</w>":1221,"रीको</w>":1222,"अवस्थामा</w>":1223,"भएर</w>":1224,"एस":1225,"तर्फ</w>":1226,"भएपछि</w>":1227,"काम":1228,"उद्यो":1229,"अधिकार":1230,"नुभएको</w>":1231,"गी":1232,"पश्":1233,"विध":1234,"फे":1235,"उपा":1236,"भनाइ</w>":1237,"प्रच":1238,"प्रतिनिधि":1239,"त्रि":1240,"सम्झ":1241,"मध्ये</w>":1242,"नेता":1243,"वी</w>":1244,"यात्र":1245,"वाद</w>":1246,"राज</w>":1247,"ते":1248,"लागेको</w>":1249,"सामाजिक</w>":1250,"करि":1251,"वर्त":1252,"विशे":1253,"आयोजना</w>":1254,"टको</w>":1255,"खि":1256,"शर्मा</w>":1257,"्रा":1258,"महिला</w>":1259,"सर</w>":1260,"साथ</w>":1261,"लेका</w>":1262,"दोस्रो</w>":1263,"छलफल</w>":1264,"चो":1265,"कृष":1266,"जाने</w>":1267,"ँदा</w>":1268,"छु":1269,"एमाले</w>":1270,"केन्द्रीय</w>":1271,"बताउ":1272,"सका</w>":1273,"हुँदै</w>":1274,"लाइ":1275,"मार्फत</w>":1276,"दुर्":1277,"साथै</w>":1278,"तत्का":1279,"भर</w>":1280,"नियन्त्र":1281,"आयोग":1282,"फाइ":1283,"क्षेत्र</w>":1284,"बिहा":1285,"दिएका</w>":1286,"लगायत</w>":1287,"हरूलाई</w>":1288,"बन्द":1289,"कर्मचा":1290,"क्ता</w>":1291,"देखिएको</w>":1292,"राय":1293,"सद</w>":1294,"हामीले</w>":1295,"भाइ":1296,"टु":1297,"ँदै</w>":1298,"बजा":1299,"गएको</w>":1300,"इन्</w>":1301,"ौं":1302,"बाल":1303,"बाहि":1304,"बल</w>":1305,"सूचना</w>":1306,"ठूलो</w>":1307,"स्</w>":1308,"रीमा</w>":1309,"हाम्रो</w>":1310,"ब्या":1311,"स्थानमा</w>":1312,"स्तु":1313,"बर्":1314,"माओवादी</w>":1315,"गाडि</w>":1316,"बस":1317,"बनाउन</w>":1318,"णा</w>":1319,"एवं</w>":1320,"विद्यार्थ":1321,"णको</w>":1322,"घोष":1323,"तिको</w>":1324,"अगाडि</w>":1325,"सन्</w>":1326,"केपी</w>":1327,"तन्त्र</w>":1328,"उपल":1329,"समु":1330,"कका</w>":1331,"मुद्":1332,"३०</w>":1333,"पौडे":1334,"गर्नुपर्ने</w>":1335,"अर्ब</w>":1336,"कार्य</w>":1337,"कलाई</w>":1338,"पार":1339,"कानु":1340,"२५</w>":1341,"यक</w>":1342,"बनाउने</w>":1343,"छै":1344,"कर</w>":1345,"प्रभा":1346,"काठमाडौँ</w>":1347,"सम्बन्":1348,"तयार</w>":1349,"सम्पन्न</w>":1350,"उपलब्":1351,"गौ":1352,"गृ":1353,"बैठक</w>":1354,"उनु</w>":1355,"खेलमा</w>":1356,"स्या":1357,"ेक</w>":1358,"छौं</w>":1359,"दी</w>":1360,"प्रस्ता":1361,"जगा":1362,"सोम":1363,"ढा":1364,"चुना":1365,"उनका</w>":1366,"ण्डा":1367,"प्रशा":1368,"कि</w>":1369,"ताले</w>":1370,"भर्":1371,"गठबन्ध":1372,"समूह":1373,"न्ड":1374,"घर":1375,"त्या":1376,"ताका</w>":1377,"आइत":1378,"खा</w>":1379,"पश्चि":1380,"देउ":1381,"विद्यालय":1382,"नेपालले</w>":1383,"णका</w>":1384,"स्थापन":1385,"यस्तै</w>":1386,"चर्":1387,"पछिल्लो</w>":1388,"गाउँपालिका</w>":1389,"पानी</w>":1390,"आउने</w>":1391,"उहाँले</w>":1392,"समयमा</w>":1393,"मति</w>":1394,"त्यस्तै</w>":1395,"नम्ब":1396,"साइ":1397,"सरकारको</w>":1398,"वडा</w>":1399,"नेतृत्व":1400,"विदेश":1401,"श्रेष्ठ":1402,"उत्पादन</w>":1403,"अर्थ":1404,"यस्तो</w>":1405,"लाम":1406,"डो":1407,"त्मक</w>":1408,"प्रव":1409,"होइन</w>":1410,"लिन</w>":1411,"ल्य</w>":1412,"स्थापन</w>":1413,"समय":1414,"कार्यक्रममा</w>":1415,"खेल</w>":1416,"सम्बन्धी</w>":1417,"राम्रो</w>":1418,"गामी</w>":1419,"प्रे":1420,"तयारी</w>":1421,"शुक्र":1422,"१४</w>":1423,"धी":1424,"फिल्":1425,"बढ्":1426,"करिब</w>":1427,"विभाग":1428,"परिष":1429,"उँछन्</w>":1430,"मुख्य":1431,"नीति</w>":1432,"मै":1433,"यम</w>":1434,"रकम</w>":1435,"ठाउँ":1436,"रोजगा":1437,"सरकारी</w>":1438,"स्वी":1439,"केट</w>":1440,"देखा":1441,"हार</w>":1442,"ग्रह</w>":1443,"िएको</w>":1444,"श्री":1445,"संख्या</w>":1446,"रीले</w>":1447,"सम्झौ":1448,"राष्ट्रपति</w>":1449,"जे</w>":1450,"रलाई</w>":1451,"काका</w>":1452,"दल":1453,"नाले</w>":1454,"बरा":1455,"हाल":1456,"अनुसन्धान</w>":1457,"आज":1458,"याँ":1459,"वर्षीय</w>":1460,"भूमि":1461,"लाग्":1462,"कल</w>":1463,"सफल</w>":1464,"त्त":1465,"न्थ":1466,"मूल्य</w>":1467,"विरुद्ध</w>":1468,"कांग्रेस</w>":1469,"नेमा</w>":1470,"ताव":1471,"प्रक्रि":1472,"बजेट</w>":1473,"लगायतका</w>":1474,"रोध</w>":1475,"बुध":1476,"दर</w>":1477,"गा</w>":1478,"गण":1479,"स्रो":1480,"भित्र":1481,"मिक</w>":1482,"केन्द्र</w>":1483,"प्रति</w>":1484,"ट्ट":1485,"आई":1486,"अर्को</w>":1487,"वृद्":1488,"आगामी</w>":1489,"भण्डा":1490,"१३</w>":1491,"चार्":1492,"उच्च</w>":1493,"एन</w>":1494,"गुरु":1495,"१६</w>":1496,"रित</w>":1497,"वर्षको</w>":1498,"अन्तर्गत</w>":1499,"भारतीय</w>":1500,"कार्यान्व":1501,"एम":1502,"बैठकमा</w>":1503,"राई":1504,"यता</w>":1505,"परेका</w>":1506,"यात</w>":1507,"मलाई</w>":1508,"कै":1509,"श्व":1510,"नगर</w>":1511,"यसअघि</w>":1512,"च्या":1513,"क्त":1514,"२४</w>":1515,"नबाट</w>":1516,"भर":1517,"समिति</w>":1518,"गठन</w>":1519,"कुरा":1520,"संस्":1521,"हेर्":1522,"बढेको</w>":1523,"प्रकाश":1524,"न्दो":1525,"भाइर":1526,"लीको</w>":1527,"प्रतियोग":1528,"राष्ट्र</w>":1529,"जग्":1530,"ज्या":1531,"निर":1532,"नाम</w>":1533,"मन्त्रालयले</w>":1534,"स्क":1535,"अन्तर्राष्ट्रिय</w>":1536,"नभएको</w>":1537,"खेला":1538,"आधारमा</w>":1539,"वडा":1540,"बिहान</w>":1541,"परिवा":1542,"खर्च</w>":1543,"सकेका</w>":1544,"वित":1545,"१८</w>":1546,"गरिने</w>":1547,"सुरक्षा</w>":1548,"आन्दो":1549,"न्त</w>":1550,"तन्त्र":1551,"ल्न</w>":1552,"शी</w>":1553,"ओलीले</w>":1554,"छौँ</w>":1555,"रै</w>":1556,"अं":1557,"सबैभन्दा</w>":1558,"ट्या":1559,"आग्रह</w>":1560,"फै":1561,"ङको</w>":1562,"र्या":1563,"प्रतियोगि":1564,"संक्र":1565,"तालाई</w>":1566,"लिएर</w>":1567,"मंग":1568,"व्यवस्थापन</w>":1569,"सात</w>":1570,"सेवा":1571,"षण</w>":1572,"चाह":1573,"बाँकी</w>":1574,"घोषणा</w>":1575,"दर्ता</w>":1576,"वेश</w>":1577,"न्छन्</w>":1578,"थापा":1579,"अभिया":1580,"यसको</w>":1581,"उपलब्ध</w>":1582,"बिही":1583,"उनलाई</w>":1584,"न्यू":1585,"द्र":1586,"न्स</w>":1587,"ते</w>":1588,"वेद":1589,"मका</w>":1590,"हा</w>":1591,"धारण":1592,"सांसद</w>":1593,"विशेष</w>":1594,"भावना</w>":1595,"याद":1596,"पदा":1597,"न्ट</w>":1598,"लीन</w>":1599,"आइतबार</w>":1600,"तिहा":1601,"बिक्र":1602,"लाका</w>":1603,"जस्तो</w>":1604,"एन":1605,"यले</w>":1606,"गरिरहेको</w>":1607,"अस्पताल</w>":1608,"टी":1609,"बनेको</w>":1610,"लगानी</w>":1611,"ामा</w>":1612,"मन":1613,"प्रधानमन्त्र":1614,"काे</w>":1615,"दल</w>":1616,"बताउनुभयो</w>":1617,"व्यापा":1618,"गर्नु</w>":1619,"सक्छ</w>":1620,"राम</w>":1621,"कारो":1622,"वेदन</w>":1623,"नेछन्</w>":1624,"वित</w>":1625,"कृष्":1626,"१७</w>":1627,"अन्ति":1628,"बहु":1629,"क्षा</w>":1630,"वि</w>":1631,"परिवर्त":1632,"मंगल":1633,"काठमाडौं":1634,"शनि":1635,"दाबी</w>":1636,"लामो</w>":1637,"क्षि":1638,"नपा":1639,"वै</w>":1640,"स्ट</w>":1641,"प्रदान</w>":1642,"किसा":1643,"परे":1644,"यही</w>":1645,"सहभागी</w>":1646,"बन्द</w>":1647,"कल्":1648,"उँदा</w>":1649,"ल्य":1650,"नाका</w>":1651,"क्ल":1652,"जल":1653,"कार्यक्रम":1654,"स्त</w>":1655,"मना":1656,"निर्देशक</w>":1657,"मुख्य</w>":1658,"पूरा</w>":1659,"फा</w>":1660,"नव":1661,"जिम्मे":1662,"प्रश्":1663,"विधि</w>":1664,"म्प":1665,"शिक्षा</w>":1666,"होला</w>":1667,"डी":1668,"चा</w>":1669,"तपा":1670,"गोल</w>":1671,"बालि":1672,"छिन्</w>":1673,"गर्नु":1674,"मान्":1675,"खेल":1676,"नीको</w>":1677,"प्रदर्":1678,"ढु":1679,"घटना</w>":1680,"राज्य":1681,"घु":1682,"उँ</w>":1683,"नाराय":1684,"चमा</w>":1685,"टल</w>":1686,"तर्फ":1687,"सोमबार</w>":1688,"माले</w>":1689,"चला":1690,"कृषि</w>":1691,"खड्":1692,"सश":1693,"ष्टि</w>":1694,"सुझा":1695,"छैनन्</w>":1696,"प्राधि":1697,"अमेरिकी</w>":1698,"कोभि":1699,"व्यवसाय":1700,"मैले</w>":1701,"खरि":1702,"न्याया":1703,"प्या":1704,"मले</w>":1705,"सै":1706,"गे":1707,"भट्ट":1708,"चित":1709,"उपचार</w>":1710,"भई</w>":1711,"२१</w>":1712,"दो</w>":1713,"ध्यक्ष</w>":1714,"मल":1715,"मन</w>":1716,"८०</w>":1717,"आउ":1718,"प्रत्य":1719,"साँ":1720,"२२</w>":1721,"नागरिक</w>":1722,"प्रभाव":1723,"बर</w>":1724,"मध":1725,"झै</w>":1726,"नं</w>":1727,"अन्तिम</w>":1728,"माध्य":1729,"बिराम":1730,"सामग्र":1731,"बुझ":1732,"रीक्षक</w>":1733,"दक्षि":1734,"लि</w>":1735,"पर्यट":1736,"विश्वास</w>":1737,"तेस":1738,"नेपालका</w>":1739,"रच":1740,"दृ":1741,"प्रतिनिधि</w>":1742,"विस्ता":1743,"निकै</w>":1744,"सकिने</w>":1745,"अधिकारी</w>":1746,"कायम</w>":1747,"स्त्र</w>":1748,"वित्":1749,"शुक्रबार</w>":1750,"ओली</w>":1751,"सत्":1752,"सङ्घ":1753,"घाइ":1754,"संक्रमण</w>":1755,"पैसा</w>":1756,"लित</w>":1757,"चरण":1758,"लेर</w>":1759,"तिर</w>":1760,"पूर्व</w>":1761,"कट</w>":1762,"दुवै</w>":1763,"णाली</w>":1764,"दर":1765,"पूर्वा":1766,"जोखि":1767,"लग":1768,"ाको</w>":1769,"बुधबार</w>":1770,"सुरु":1771,"लिने</w>":1772,"जस":1773,"तर":1774,"प्रवक्ता</w>":1775,"किएको</w>":1776,"नल</w>":1777,"एमाले":1778,"रहने</w>":1779,"रू</w>":1780,"सर्वो":1781,"भारत</w>":1782,"सोही</w>":1783,"सिंह</w>":1784,"धित</w>":1785,"२७</w>":1786,"जनामा</w>":1787,"राख्":1788,"प्रस्ताव</w>":1789,"तपाई":1790,"भनेको</w>":1791,"इरा":1792,"मेरो</w>":1793,"संसदीय</w>":1794,"नम्बर</w>":1795,"४०</w>":1796,"रत</w>":1797,"मी":1798,"लीमा</w>":1799,"प्रया":1800,"गण्ड":1801,"लाले</w>":1802,"ङले</w>":1803,"००</w>":1804,"नौ":1805,"रन</w>":1806,"त्यसको</w>":1807,"्रि":1808,"गते":1809,"हरुमा</w>":1810,"बुझा":1811,"लै":1812,"पुरु":1813,"जिल्लामा</w>":1814,"मेल":1815,"वाताव":1816,"सन्त":1817,"जुन</w>":1818,"भ्रम":1819,"शुल्":1820,"औष":1821,"की":1822,"यको</w>":1823,"विषय</w>":1824,"आफ्ना</w>":1825,"जस्ता</w>":1826,"हुनु":1827,"नहुने</w>":1828,"ैगरी</w>":1829,"देखिन्छ</w>":1830,"तेस्रो</w>":1831,"धा</w>":1832,"ललाई</w>":1833,"मर्":1834,"विज":1835,"संरक्ष":1836,"रेमा</w>":1837,"भ्या":1838,"पर्यटन</w>":1839,"यसले</w>":1840,"ठाउँमा</w>":1841,"बस्ने</w>":1842,"सम्भावना</w>":1843,"आन्त":1844,"घण्":1845,"उद्योग</w>":1846,"अस्पतालमा</w>":1847,"शै":1848,"मिटर</w>":1849,"कृति</w>":1850,"प्रस्तु":1851,"हरूमा</w>":1852,"सहमति</w>":1853,"बताउँछन्</w>":1854,"अझै</w>":1855,"खेर</w>":1856,"बैठकले</w>":1857,"विद्युत्</w>":1858,"कुल</w>":1859,"निर्देशन</w>":1860,"असार</w>":1861,"पोर्":1862,"हले</w>":1863,"आँ":1864,"समाजवादी</w>":1865,"सकिन्छ</w>":1866,"विवाद</w>":1867,"स्थापना</w>":1868,"अहिले":1869,"विश्व</w>":1870,"ञ्च":1871,"्युनि":1872,"रीका</w>":1873,"व्यक्त</w>":1874,"एसि":1875,"उम्मेदवार</w>":1876,"प्राधिकरण":1877,"सामान्य</w>":1878,"विमान":1879,"अप":1880,"आन्तरिक</w>":1881,"सभापति</w>":1882,"कमि":1883,"उठा":1884,"बिहीबार</w>":1885,"घरमा</w>":1886,"निरन्त":1887,"जीव":1888,"गरेपछि</w>":1889,"गम्":1890,"जान</w>":1891,"घि":1892,"वमा</w>":1893,"विधे":1894,"कारबा":1895,"त्यसपछि</w>":1896,"बारेमा</w>":1897,"वितरण</w>":1898,"तालि":1899,"देशमा</w>":1900,"शं":1901,"त्यसैले</w>":1902,"चै":1903,"पुरा":1904,"सम्झौता</w>":1905,"क्षम":1906,"मनो":1907,"हरा":1908,"परीक्षण</w>":1909,"लाइन</w>":1910,"चल":1911,"व्यक्ति</w>":1912,"मन्":1913,"औं</w>":1914,"मुख्यमन्त्री</w>":1915,"फ्":1916,"वृद्धि</w>":1917,"पार्टीको</w>":1918,"सिक</w>":1919,"एकी</w>":1920,"आरोप</w>":1921,"भाष":1922,"गुना":1923,"मिने":1924,"किन</w>":1925,"सांसद":1926,"अध्ययन</w>":1927,"बनाएको</w>":1928,"२३</w>":1929,"बाहे":1930,"दार</w>":1931,"स्वास्थ्य":1932,"खोप</w>":1933,"बसेको</w>":1934,"भौ":1935,"स्पर्":1936,"बजे</w>":1937,"कम्युनि":1938,"विद्यालय</w>":1939,"डान</w>":1940,"फल":1941,"नसक्ने</w>":1942,"बाहिर</w>":1943,"तम</w>":1944,"गको</w>":1945,"राई</w>":1946,"अग्र":1947,"कारा":1948,"बजार</w>":1949,"रक</w>":1950,"मंगलबार</w>":1951,"बिक्री</w>":1952,"बजारमा</w>":1953,"उन्":1954,"तिका</w>":1955,"वास":1956,"यहाँ</w>":1957,"अध्यक्ष":1958,"निर्वाचित</w>":1959,"कित्":1960,"कोभिड</w>":1961,"पाउने</w>":1962,"शनिबार</w>":1963,"देशको</w>":1964,"हरेक</w>":1965,"म्बि":1966,"शुल्क</w>":1967,"गर्ने":1968,"वेश":1969,"जन्":1970,"अवसर":1971,"प्रचण्ड":1972,"विमानस्थ":1973,"वरि":1974,"त्वपूर्ण</w>":1975,"कालाई</w>":1976,"न्यायाधी":1977,"थु":1978,"सशस्त्र</w>":1979,"ठे":1980,"ख्या":1981,"णी</w>":1982,"गै":1983,"देउवा":1984,"कू":1985,"वको</w>":1986,"शेर":1987,"मुद्दा</w>":1988,"चको</w>":1989,"ष्ठ</w>":1990,"एकी":1991,"१९":1992,"सुझाव</w>":1993,"पीडि":1994,"संयुक्त</w>":1995,"योज":1996,"हुँदैन</w>":1997,"कम्पनीले</w>":1998,"पुष्":1999,"कोमा</w>":2000,"पार्टीका</w>":2001,"ह्":2002,"गम्भी":2003,"सहयोग":2004,"नबि":2005,"निजी</w>":2006,"बलि":2007,"सहज</w>":2008,"पक</w>":2009,"न्द</w>":2010,"प्रदेशका</w>":2011,"घाइते</w>":2012,"कला":2013,"राति</w>":2014,"जित":2015,"हित</w>":2016,"केको</w>":2017,"अधिकार</w>":2018,"णि":2019,"विज्ञ":2020,"पक्षमा</w>":2021,"थापा</w>":2022,"कसरी</w>":2023,"लु</w>":2024,"कांग्रेसका</w>":2025,"जग्गा</w>":2026,"समितिको</w>":2027,"णले</w>":2028,"महिना":2029,"कलन</w>":2030,"अवधि":2031,"नीमा</w>":2032,"गर्द":2033,"शान्":2034,"कति":2035,"गरिरहेका</w>":2036,"जेठ</w>":2037,"संविधान</w>":2038,"त्ति</w>":2039,"गण्डकी</w>":2040,"बैंक</w>":2041,"म्मा</w>":2042,"धर्":2043,"निर्वाचनमा</w>":2044,"प्रतिस्पर्":2045,"द्वा":2046,"गुनासो</w>":2047,"सम्बो":2048,"समितिले</w>":2049,"भेट":2050,"गृह":2051,"वाह</w>":2052,"भाग</w>":2053,"प्राविधि":2054,"त्यही</w>":2055,"एसपी</w>":2056,"पश्चिम</w>":2057,"देव":2058,"२८</w>":2059,"पोखरा</w>":2060,"धिक</w>":2061,"रबाट</w>":2062,"ट्रा":2063,"पत्रकार</w>":2064,"प्रि":2065,"उमे":2066,"उपचा":2067,"श्रेष्ठले</w>":2068,"र्थ</w>":2069,"इज":2070,"आफ्नै</w>":2071,"नेको</w>":2072,"गमा</w>":2073,"अपरा":2074,"प्रवेश</w>":2075,"उत्पाद":2076,"उँछ</w>":2077,"सम्बन्धित</w>":2078,"गुमा":2079,"दशमल":2080,"पुष्टि</w>":2081,"एक्":2082,"त्य</w>":2083,"नि</w>":2084,"क्ता":2085,"भव</w>":2086,"कारोबार</w>":2087,"चौध":2088,"वास</w>":2089,"चीन</w>":2090,"बराब":2091,"रीलाई</w>":2092,"हिमा":2093,"जमा</w>":2094,"कहि":2095,"नाथ</w>":2096,"६०</w>":2097,"यामा</w>":2098,"संघीय</w>":2099,"थालेको</w>":2100,"चाहि":2101,"आफू</w>":2102,"क्षेत्रको</w>":2103,"समस्या":2104,"प्रक्रिया</w>":2105,"प्रकाशित</w>":2106,"विक</w>":2107,"निष्":2108,"सहा":2109,"३१</w>":2110,"तुल":2111,"कार्यकारी</w>":2112,"प्राथ":2113,"उपत्य":2114,"फेर":2115,"चिकित्":2116,"हस्ता":2117,"गो</w>":2118,"फिर्":2119,"मन्दि":2120,"लग्":2121,"जो</w>":2122,"गति":2123,"रे</w>":2124,"बैंकले</w>":2125,"संरच":2126,"धारण</w>":2127,"चिनि":2128,"दिव":2129,"प्रस्तुत</w>":2130,"कमल</w>":2131,"जवा":2132,"पुगेका</w>":2133,"गम्भीर</w>":2134,"निश्":2135,"ङमा</w>":2136,"२६</w>":2137,"पराजित</w>":2138,"जनालाई</w>":2139,"प्रमा":2140,"बालबालि":2141,"उद्देश":2142,"शाखा":2143,"लक":2144,"रेर</w>":2145,"ष्टा":2146,"पाण्ड":2147,"नै":2148,"संशो":2149,"मिला":2150,"सवारी</w>":2151,"काँ":2152,"राजधा":2153,"त्यहाँ</w>":2154,"फुट":2155,"मन्त्रि":2156,"छे":2157,"रुपैयाँ":2158,"ढी</w>":2159,"स्थायी</w>":2160,"सुना":2161,"अहिलेसम्म</w>":2162,"पार्टी":2163,"भारत":2164,"दशमलव</w>":2165,"यहाँ":2166,"धन":2167,"कार्यालयमा</w>":2168,"घटना":2169,"बाहेक</w>":2170,"चित्र":2171,"प्रयोग":2172,"जीवन</w>":2173,"क्का</w>":2174,"कन</w>":2175,"उनुपर्ने</w>":2176,"तिया":2177,"आन्दोल":2178,"खरिद</w>":2179,"सचे":2180,"दक्षिण</w>":2181,"सलाई</w>":2182,"श्रेष्ठ</w>":2183,"क्टर</w>":2184,"थापाले</w>":2185,"पको</w>":2186,"भइसकेको</w>":2187,"हटा":2188,"ध्यान</w>":2189,"नगरपालिकाले</w>":2190,"र्ष</w>":2191,"सम्बोधन</w>":2192,"रामा</w>":2193,"बताइएको</w>":2194,"कोट</w>":2195,"कर्मचारी</w>":2196,"नेतृत्व</w>":2197,"दूर":2198,"जनताको</w>":2199,"बाइ":2200,"पाँच":2201,"नसकेको</w>":2202,"कमजो":2203,"कार्यान्वयन</w>":2204,"वर्षमा</w>":2205,"नाममा</w>":2206,"सीले</w>":2207,"वैशा":2208,"फारि":2209,"भव":2210,"दलको</w>":2211,"दिइ":2212,"महिना</w>":2213,"भूमिका</w>":2214,"बनाएर</w>":2215,"संयोज":2216,"अधिकृत</w>":2217,"्रे":2218,"भक्त":2219,"परिवर्तन</w>":2220,"थो":2221,"टोली</w>":2222,"त्या</w>":2223,"लक्ष्य</w>":2224,"गराउने</w>":2225,"गर्छ</w>":2226,"जोड</w>":2227,"प्राविधिक</w>":2228,"नक्":2229,"सिफारि":2230,"आयोगले</w>":2231,"लाग्ने</w>":2232,"समन्व":2233,"प्रशिक्ष":2234,"हजा":2235,"आर":2236,"अफ":2237,"तान्त्र":2238,"आयो</w>":2239,"द्धा":2240,"पोखरे":2241,"दैनिक</w>":2242,"तामा":2243,"गीत</w>":2244,"पौडेलले</w>":2245,"ीकरण</w>":2246,"सीमा</w>":2247,"प्रतिष्":2248,"यद":2249,"साझ":2250,"दाहाल</w>":2251,"तथ्या":2252,"तो</w>":2253,"ग्राह":2254,"राह":2255,"लामि":2256,"आठ</w>":2257,"फिर्ता</w>":2258,"महामा":2259,"स्थिति</w>":2260,"स्ट":2261,"इन्टर":2262,"एका":2263,"गर</w>":2264,"आफूले</w>":2265,"सम्मको</w>":2266,"याको</w>":2267,"साय":2268,"पहा":2269,"थाहा</w>":2270,"विदेशी</w>":2271,"जस्तै</w>":2272,"जनता</w>":2273,"ज्ञान</w>":2274,"देशिक</w>":2275,"प्ता":2276,"कतिप":2277,"सन्द":2278,"हल</w>":2279,"पुग्ने</w>":2280,"डु":2281,"लामिछा":2282,"पर्छ</w>":2283,"हामीलाई</w>":2284,"प्रदेशमा</w>":2285,"माइ":2286,"वान</w>":2287,"ड्ने</w>":2288,"आफै":2289,"अवसरमा</w>":2290,"बोर्":2291,"जिम्मेवारी</w>":2292,"न्थ्यो</w>":2293,"हरि":2294,"समुदाय":2295,"प्रो":2296,"प्रभाव</w>":2297,"डको</w>":2298,"विव":2299,"विप":2300,"विश्वासको</w>":2301,"फेरि</w>":2302,"उपभो":2303,"मन्त्रिपरिष":2304,"शक्ति</w>":2305,"संक्रमित</w>":2306,"समर्थ":2307,"फरक</w>":2308,"तान्त्रिक</w>":2309,"कृतिक</w>":2310,"एन्":2311,"पुष्प":2312,"२९</w>":2313,"यर":2314,"लर</w>":2315,"कोइरा":2316,"सञ्चालनमा</w>":2317,"सँगको</w>":2318,"एकीकृत</w>":2319,"पढ":2320,"भाव</w>":2321,"महाधि":2322,"युवा</w>":2323,"पति":2324,"भन्छन्</w>":2325,"३५</w>":2326,"ज्यान</w>":2327,"भवन</w>":2328,"दैछ</w>":2329,"संघ</w>":2330,"माध":2331,"रेन्":2332,"प्रश्न</w>":2333,"वले</w>":2334,"याता":2335,"प्रयास</w>":2336,"ल्दै</w>":2337,"राईले</w>":2338,"राखेको</w>":2339,"क्वा":2340,"दुई":2341,"प्रभावित</w>":2342,"ऐन</w>":2343,"शील</w>":2344,"छानबि":2345,"अर्था":2346,"संलग्":2347,"राख्ने</w>":2348,"ौँ":2349,"तार</w>":2350,"राखेर</w>":2351,"तर्फबाट</w>":2352,"शक्ति":2353,"द्वारा</w>":2354,"नजि":2355,"घटनामा</w>":2356,"सुधार</w>":2357,"थिएन</w>":2358,"कोष":2359,"स्टे":2360,"पशु":2361,"कार्यालयले</w>":2362,"तत्काल</w>":2363,"भेटि":2364,"चन</w>":2365,"गमन</w>":2366,"धी</w>":2367,"कर्ष":2368,"विद्यार्थी</w>":2369,"समूह</w>":2370,"ल्ला":2371,"लुम्बि":2372,"पुनः</w>":2373,"फागु":2374,"सञ्चार</w>":2375,"वरिष्ठ</w>":2376,"देशका</w>":2377,"यस्ता</w>":2378,"अनि</w>":2379,"मतदा":2380,"तत्कालीन</w>":2381,"दिनमा</w>":2382,"ख्":2383,"टका</w>":2384,"योजन</w>":2385,"प्रविधि":2386,"कम्पनी</w>":2387,"सभाको</w>":2388,"हालसम्म</w>":2389,"विधा</w>":2390,"चाँ":2391,"राखिएको</w>":2392,"जनाले</w>":2393,"पन</w>":2394,"बाटो</w>":2395,"व्यापार</w>":2396,"यलाई</w>":2397,"गराउन</w>":2398,"प्रचण्ड</w>":2399,"दलका</w>":2400,"स्थान</w>":2401,"आउन</w>":2402,"कन्":2403,"किलो":2404,"नू":2405,"धानको</w>":2406,"ट्रे":2407,"टोलीले</w>":2408,"माथि":2409,"भनिएको</w>":2410,"थिइन्</w>":2411,"फर्कि":2412,"हर</w>":2413,"ललि":2414,"पचा":2415,"दिउँ":2416,"होस्</w>":2417,"स्ती</w>":2418,"कति</w>":2419,"महिला":2420,"पाएको</w>":2421,"टाइ":2422,"भ्रष्टा":2423,"बेला":2424,"पारि":2425,"श्वर</w>":2426,"पुर्</w>":2427,"शुरु</w>":2428,"जोडि":2429,"मिडि":2430,"उपाध्यक्ष</w>":2431,"स्वतन्त्र</w>":2432,"वातावरण</w>":2433,"समितिका</w>":2434,"क्षेत्रका</w>":2435,"कले":2436,"ढि":2437,"प्राथमि":2438,"पृ":2439,"सिर्":2440,"निम्":2441,"यसलाई</w>":2442,"कारबाही</w>":2443,"वित्तीय</w>":2444,"कार्यकर्":2445,"भै":2446,"त्ती</w>":2447,"सं</w>":2448,"चिन्":2449,"कानुन</w>":2450,"त्ति":2451,"त्री</w>":2452,"द्व":2453,"यात्रा</w>":2454,"प्रजा":2455,"मुद्दा":2456,"मबाट</w>":2457,"दिइएको</w>":2458,"सभामा</w>":2459,"वल</w>":2460,"अनि":2461,"डमा</w>":2462,"कोले</w>":2463,"किस्ता":2464,"विकेट</w>":2465,"मिल्":2466,"धिकार":2467,"बद":2468,"महत्वपूर्ण</w>":2469,"पक्ष</w>":2470,"स्रोत</w>":2471,"महानगर":2472,"कप</w>":2473,"भमा</w>":2474,"भन्नुभयो</w>":2475,"मन्त्रालयका</w>":2476,"सत्ता</w>":2477,"लबाट</w>":2478,"सरकारलाई</w>":2479,"जको</w>":2480,"सर्वोच्च</w>":2481,"राको</w>":2482,"तलाई</w>":2483,"भूकम्":2484,"खण्ड":2485,"धानिक</w>":2486,"ल्याएको</w>":2487,"गी</w>":2488,"आफूलाई</w>":2489,"भारतको</w>":2490,"खोज्":2491,"जेन्":2492,"सुन":2493,"िका</w>":2494,"सुविधा</w>":2495,"कमा":2496,"डेर</w>":2497,"संस्था</w>":2498,"स्पष्ट</w>":2499,"यसमा</w>":2500,"बताउँदै</w>":2501,"हन</w>":2502,"कार्यरत</w>":2503,"नियन्त्रण</w>":2504,"कोही</w>":2505,"पहिले</w>":2506,"अधिकां":2507,"इन्टरने":2508,"समाधान</w>":2509,"गृह</w>":2510,"सम्बन्ध</w>":2511,"नेतृत्वको</w>":2512,"द्धको</w>":2513,"सद्":2514,"कबाट</w>":2515,"बाटै</w>":2516,"७०</w>":2517,"सचिवा":2518,"भिडि":2519,"३२</w>":2520,"गर्नुपर्छ</w>":2521,"रेको</w>":2522,"टामा</w>":2523,"कर्णाली</w>":2524,"रोग</w>":2525,"पुरमा</w>":2526,"संरक्षण</w>":2527,"विरोध</w>":2528,"समृ":2529,"यू":2530,"विष्":2531,"जाँ":2532,"वर</w>":2533,"लाख":2534,"उठ":2535,"निरीक्षक</w>":2536,"पूर्वाधार</w>":2537,"कानू":2538,"क्षति</w>":2539,"मन्त्रालय</w>":2540,"मल</w>":2541,"बोला":2542,"गर्छन्</w>":2543,"मार्ग</w>":2544,"छानबिन</w>":2545,"धारणा</w>":2546,"कोरि":2547,"हरी</w>":2548,"परिवार</w>":2549,"लम्":2550,"िता</w>":2551,"डो</w>":2552,"यसरी</w>":2553,"पुष्पकमल</w>":2554,"थ्":2555,"बा</w>":2556,"फू":2557,"प्रशासन</w>":2558,"फरा":2559,"ेश</w>":2560,"मोर":2561,"सञ्जा":2562,"शर्माले</w>":2563,"ल्याउन</w>":2564,"बच्":2565,"यु</w>":2566,"हत्या</w>":2567,"कारात्मक</w>":2568,"गाडी</w>":2569,"मतदान</w>":2570,"भद":2571,"युवा":2572,"विद्युत</w>":2573,"संक्रम":2574,"प्रदेशको</w>":2575,"पुल</w>":2576,"रोक्":2577,"र्जा</w>":2578,"लिक</w>":2579,"विस्तार</w>":2580,"अवधिमा</w>":2581,"व्यवस्था":2582,"सामु":2583,"सहितको</w>":2584,"मती</w>":2585,"चिनियाँ</w>":2586,"अफ</w>":2587,"टेलि":2588,"समाचार</w>":2589,"विज्ञप्":2590,"पहिचा":2591,"हिँ":2592,"अल":2593,"केर</w>":2594,"प्रणा":2595,"सेर</w>":2596,"फिल्म</w>":2597,"कृष्ट</w>":2598,"माको</w>":2599,"फोन</w>":2600,"अति":2601,"लिएका</w>":2602,"आचार्":2603,"अधिकारीले</w>":2604,"जोखिम</w>":2605,"एफ":2606,"चुनौ":2607,"जिल्लाको</w>":2608,"खेलकु":2609,"वेशन</w>":2610,"प्रदर्शन</w>":2611,"बस्न</w>":2612,"्रा</w>":2613,"तीमा</w>":2614,"औँ</w>":2615,"ेपछि</w>":2616,"कतिपय</w>":2617,"लाल</w>":2618,"दिउँसो</w>":2619,"मोजि":2620,"कृष्ण</w>":2621,"वैधानिक</w>":2622,"ठूला</w>":2623,"आजको</w>":2624,"राख्न</w>":2625,"दिनुभयो</w>":2626,"नियन्त्रणमा</w>":2627,"गठबन्धन</w>":2628,"कम्पनीको</w>":2629,"भुक्ता":2630,"नियुक्त</w>":2631,"हुनु</w>":2632,"पत्रकार":2633,"टिङ</w>":2634,"अभियान</w>":2635,"ललित":2636,"एँ</w>":2637,"ाका</w>":2638,"राजी":2639,"क्रिय</w>":2640,"विरा":2641,"हुनुपर्ने</w>":2642,"चरणमा</w>":2643,"ग्य</w>":2644,"त्त</w>":2645,"लोकतान्त्रिक</w>":2646,"असो":2647,"स्तरी":2648,"४५</w>":2649,"पाका</w>":2650,"मं":2651,"साल</w>":2652,"बमोजि":2653,"युव":2654,"सम्पूर्ण</w>":2655,"स्टा":2656,"नियमित</w>":2657,"स्थापित</w>":2658,"टले</w>":2659,"बागम":2660,"काममा</w>":2661,"सुन</w>":2662,"डले</w>":2663,"प्ले":2664,"शा</w>":2665,"उपमहा":2666,"सन्तु":2667,"सरो":2668,"एकाले</w>":2669,"देशभर</w>":2670,"विधेयक</w>":2671,"माओवाद":2672,"संविधान":2673,"हात</w>":2674,"शेरबहादुर</w>":2675,"छनो":2676,"पत्ता</w>":2677,"ब्रा":2678,"कारवा":2679,"सम्मेल":2680,"द्धि":2681,"शव</w>":2682,"समन्वय</w>":2683,"भौतिक</w>":2684,"अवसर</w>":2685,"राजदू":2686,"प्रशास":2687,"खान</w>":2688,"सेन्":2689,"संशोधन</w>":2690,"खोज":2691,"प्प":2692,"वैशाख</w>":2693,"कुल":2694,"वासी</w>":2695,"खना":2696,"र्ष":2697,"चन्द्र</w>":2698,"नौ</w>":2699,"द्धता</w>":2700,"आयोजित</w>":2701,"८१</w>":2702,"च्च":2703,"सम्पर्":2704,"पाठ":2705,"सम्मान</w>":2706,"सुदूर":2707,"अधिकांश</w>":2708,"प्रतिवेदन</w>":2709,"र्न</w>":2710,"सवा":2711,"पुस्त":2712,"बद्ध</w>":2713,"खानेपा":2714,"लं":2715,"स्तरीय</w>":2716,"चालन</w>":2717,"कट":2718,"सिल</w>":2719,"वार्ष":2720,"्यले</w>":2721,"नुवा":2722,"दर्श":2723,"चुनाव</w>":2724,"एमालेका</w>":2725,"बनेका</w>":2726,"सामग्री</w>":2727,"त्यसलाई</w>":2728,"सङ्ख्या</w>":2729,"प्रतिष्ठा":2730,"लुम्बिनी</w>":2731,"प्रमुख":2732,"यल</w>":2733,"पट":2734,"पाल":2735,"क्स</w>":2736,"आदेश</w>":2737,"नाय":2738,"जर्":2739,"गुण":2740,"ल्याउने</w>":2741,"प्रभावकारी</w>":2742,"गुरुङ</w>":2743,"माग":2744,"भनेका</w>":2745,"न्तरण</w>":2746,"गरेकी</w>":2747,"ब्य":2748,"याले</w>":2749,"रोह":2750,"विनि":2751,"सीको</w>":2752,"गर्नुभएको</w>":2753,"विजयी</w>":2754,"दिँदै</w>":2755,"पाकिस्ता":2756,"नुहुन्छ</w>":2757,"महो":2758,"क्रिकेट</w>":2759,"तक</w>":2760,"निरन्तर</w>":2761,"सत्ता":2762,"मन्त्री":2763,"पारित</w>":2764,"आर</w>":2765,"बागमती</w>":2766,"गल":2767,"तहमा</w>":2768,"जापा":2769,"देवी</w>":2770,"सुरक्षित</w>":2771,"असर</w>":2772,"यसका</w>":2773,"लीलाई</w>":2774,"सुन्द":2775,"मूल्य":2776,"कार्यान्वय":2777,"ङ्ग</w>":2778,"अर्थ</w>":2779,"लक्ष्":2780,"गन्":2781,"भएन</w>":2782,"म्पि":2783,"धारा</w>":2784,"ीया</w>":2785,"व्याव":2786,"इने</w>":2787,"बन्न</w>":2788,"विधा":2789,"निश्चित</w>":2790,"सभामुख</w>":2791,"पुरको</w>":2792,"रता</w>":2793,"७५</w>":2794,"सरकारमा</w>":2795,"कीय</w>":2796,"से</w>":2797,"सिर</w>":2798,"संवैधानिक</w>":2799,"विशेष":2800,"बलमा</w>":2801,"राजनीति</w>":2802,"सकिएको</w>":2803,"आत्म":2804,"भरमा</w>":2805,"फेला</w>":2806,"अदालतले</w>":2807,"न्यायाधीश</w>":2808,"खेलाडी</w>":2809,"शान्ति</w>":2810,"ँदैन</w>":2811,"कारको</w>":2812,"प्रतिपक्ष":2813,"एकै</w>":2814,"अल्":2815,"बताइन्</w>":2816,"कोटा":2817,"दबा":2818,"गाउँ</w>":2819,"आप":2820,"पुरस्":2821,"चित्र</w>":2822,"प्रदर्श":2823,"तहको</w>":2824,"मल्":2825,"दाहा":2826,"पुरुष</w>":2827,"फैस":2828,"पूर्ण":2829,"त्यस</w>":2830,"कांग्रेसले</w>":2831,"म्</w>":2832,"उत्कृष्ट</w>":2833,"पुनर्":2834,"फागुन</w>":2835,"प्रमाण":2836,"लागू</w>":2837,"सम्बन्धमा</w>":2838,"ग्रह":2839,"लकडा":2840,"शासन</w>":2841,"बस्ने":2842,"मिनेटमा</w>":2843,"हुँ</w>":2844,"क्सि":2845,"ऋण</w>":2846,"किङ</w>":2847,"विगत":2848,"कार्यका":2849,"ंक</w>":2850,"दायिक</w>":2851,"पाएका</w>":2852,"आरोपमा</w>":2853,"दीको</w>":2854,"मापद":2855,"ग्या":2856,"चितव":2857,"लै</w>":2858,"बढ्दै</w>":2859,"भनिन्</w>":2860,"सिफारिस</w>":2861,"ट्रो":2862,"उडान</w>":2863,"पहल</w>":2864,"वैदेशिक</w>":2865,"बन्ध</w>":2866,"अध्यय":2867,"बताएको</w>":2868,"मुक्त</w>":2869,"अनुमान</w>":2870,"वर्षीया</w>":2871,"विवरण</w>":2872,"साँझ</w>":2873,"मेडि":2874,"सिन्":2875,"बमोजिम</w>":2876,"संक्रमि":2877,"णिज":2878,"राष्ट्रि":2879,"क्रे":2880,"पचारिक</w>":2881,"कमजोर</w>":2882,"बन्ने</w>":2883,"इतिहा":2884,"हुन्छन्</w>":2885,"प्रकाश</w>":2886,"राव":2887,"जिल्ला":2888,"संलग्न</w>":2889,"सेयर</w>":2890,"छुट्":2891,"मान्य":2892,"व्यवसायी</w>":2893,"सक्रिय</w>":2894,"नेतृत्वमा</w>":2895,"क्रिया":2896,"द्</w>":2897,"यौं</w>":2898,"प्रकरण":2899,"चैत</w>":2900,"योजना":2901,"ष्टि":2902,"भएकी</w>":2903,"बीचको</w>":2904,"नगरपालिकाका</w>":2905,"निर्माणको</w>":2906,"आम्":2907,"प्रतिनिधिसभा</w>":2908,"लगाउने</w>":2909,"त्यसमा</w>":2910,"राजधानी</w>":2911,"मण्ड":2912,"व्यवस्थापन":2913,"किन":2914,"धार्":2915,"यातायात</w>":2916,"स्थानीय":2917,"३३</w>":2918,"जम्मा</w>":2919,"लीका</w>":2920,"सामुदायिक</w>":2921,"देउवाले</w>":2922,"लामिछाने":2923,"जिल्लाका</w>":2924,"शाह":2925,"जसले</w>":2926,"माव":2927,"पाको</w>":2928,"मज":2929,"आधार</w>":2930,"कीले</w>":2931,"शेयर</w>":2932,"सूर्":2933,"ल्लो</w>":2934,"दानमा</w>":2935,"बैंकको</w>":2936,"वस्तु":2937,"पना</w>":2938,"ढका":2939,"साधन</w>":2940,"शरी":2941,"न्न":2942,"कठ":2943,"अघिल्लो</w>":2944,"कसै":2945,"हजार":2946,"कार्यालयका</w>":2947,"उजु":2948,"सिर्जना</w>":2949,"वर्तमान</w>":2950,"क्षमता</w>":2951,"प्रचण्डले</w>":2952,"उम्मेदवा":2953,"भाइरस</w>":2954,"सालमा</w>":2955,"लगानी":2956,"अर्थात्</w>":2957,"याली</w>":2958,"नारायण</w>":2959,"आम्दा":2960,"घिमि":2961,"अध्या":2962,"सित</w>":2963,"महे":2964,"लेपछि</w>":2965,"पौडेल</w>":2966,"प्रहरीको</w>":2967,"छन</w>":2968,"थपि":2969,"प्रत्येक</w>":2970,"मानव</w>":2971,"त्यसैगरी</w>":2972,"ङका</w>":2973,"विभागले</w>":2974,"संयोजक</w>":2975,"ीसँग</w>":2976,"नसक्":2977,"हात्ती</w>":2978,"दारी</w>":2979,"नीति":2980,"भारतमा</w>":2981,"गरि</w>":2982,"ंगा":2983,"केन्द्रका</w>":2984,"सञ्चार":2985,"बढाउन</w>":2986,"लगाएको</w>":2987,"दिएर</w>":2988,"शाखा</w>":2989,"णिज्य</w>":2990,"बले</w>":2991,"माघ</w>":2992,"राजीनामा</w>":2993,"सल्ला":2994,"कृष्ण":2995,"तै</w>":2996,"आयात</w>":2997,"अहिलेको</w>":2998,"वाह":2999,"संगठ":3000,"रिपोर्":3001,"रहेकाले</w>":3002,"बह":3003,"सहकारी</w>":3004,"कूल</w>":3005,"रिएको</w>":3006,"पार्टीले</w>":3007,"जर</w>":3008,"कली</w>":3009,"था</w>":3010,"स्व</w>":3011,"न्दे":3012,"आवश्यकता</w>":3013,"पहिचान</w>":3014,"विराट":3015,"बेलाय":3016,"अन्तर":3017,"नहुँदा</w>":3018,"वार्ता</w>":3019,"बढ्ने</w>":3020,"तह</w>":3021,"राजनीतिमा</w>":3022,"जित्":3023,"मोटर":3024,"अस्":3025,"हिं":3026,"ब्र":3027,"आवा":3028,"स्पे":3029,"काँग्र":3030,"गरिन्छ</w>":3031,"क्रिया</w>":3032,"नारायण":3033,"रुवा</w>":3034,"थ्यो</w>":3035,"पुर्":3036,"छलफ":3037,"नाइ":3038,"उनीहरुले</w>":3039,"गराएको</w>":3040,"पु</w>":3041,"कैला":3042,"बिरामी</w>":3043,"संघका</w>":3044,"तय</w>":3045,"पि</w>":3046,"उद्घा":3047,"गर्नुभयो</w>":3048,"विरो":3049,"श्रम</w>":3050,"पहाडी</w>":3051,"हल्":3052,"वार्षिक</w>":3053,"मोबाइ":3054,"बस</w>":3055,"राप्र":3056,"जनाइएको</w>":3057,"खेलाड":3058,"निर्माणका</w>":3059,"पस":3060,"गति</w>":3061,"बाटो":3062,"गञ्":3063,"तपाईं":3064,"२०६":3065,"त्यस्तो</w>":3066,"चल्":3067,"यसैगरी</w>":3068,"झु":3069,"पर्व":3070,"वर्षदेखि</w>":3071,"चाइ":3072,"भागमा</w>":3073,"केन्द्रित</w>":3074,"हुन्थ्यो</w>":3075,"पुस</w>":3076,"बलियो</w>":3077,"जहा":3078,"कता":3079,"लाइ</w>":3080,"ेन्द्र</w>":3081,"बला":3082,"संरचना</w>":3083,"मि</w>":3084,"दलले</w>":3085,"मेन्ट</w>":3086,"एस</w>":3087,"कर्मी</w>":3088,"उनीहरूले</w>":3089,"कर्षण</w>":3090,"साध":3091,"उपचारका</w>":3092,"पाउ":3093,"नति":3094,"अपे":3095,"मेल</w>":3096,"किशो":3097,"गएका</w>":3098,"दुर्घटना</w>":3099,"न्यु":3100,"न्याय</w>":3101,"अभाव</w>":3102,"णबाट</w>":3103,"भनी</w>":3104,"प्रतिशतले</w>":3105,"साना</w>":3106,"बराबरको</w>":3107,"अंक</w>":3108,"नुपर्नेमा</w>":3109,"खबर</w>":3110,"दुः":3111,"पत्रमा</w>":3112,"जति</w>":3113,"इला":3114,"गौत":3115,"संकलन</w>":3116,"उम्मेदवारी</w>":3117,"भुक्तानी</w>":3118,"बहि":3119,"मानिस":3120,"समर्थन</w>":3121,"अमेरिका</w>":3122,"अत्य":3123,"च्छ":3124,"वाणिज्य</w>":3125,"एमालेले</w>":3126,"पूर्ति</w>":3127,"ड्न</w>":3128,"तस्क":3129,"रुप</w>":3130,"चन्द्र":3131,"७७</w>":3132,"पानी":3133,"लक</w>":3134,"र्ने</w>":3135,"असोज</w>":3136,"पारेको</w>":3137,"पुरुष":3138,"कारणले</w>":3139,"पर</w>":3140,"हुने":3141,"उद्योग":3142,"राज्य</w>":3143,"संस्कृति</w>":3144,"अरु</w>":3145,"गाउँमा</w>":3146,"३६</w>":3147,"कम्युनिष्ट</w>":3148,"सिंह":3149,"संसद्":3150,"अनुमति</w>":3151,"प्रतिब":3152,"रम्":3153,"नक्कली</w>":3154,"कानुनी</w>":3155,"विद्यालयमा</w>":3156,"यादवले</w>":3157,"महिनामा</w>":3158,"खटि":3159,"एकता</w>":3160,"अने":3161,"भदौ</w>":3162,"सकारात्मक</w>":3163,"नगरपालिकाको</w>":3164,"कालीन</w>":3165,"औषधि</w>":3166,"वाइ":3167,"९०</w>":3168,"हिसा":3169,"भर्ना</w>":3170,"ार्थ":3171,"थे</w>":3172,"तल":3173,"फरार</w>":3174,"प्रविधि</w>":3175,"परीक्षा</w>":3176,"स्टि":3177,"७६</w>":3178,"सम</w>":3179,"त्यहाँ":3180,"गैर":3181,"पले</w>":3182,"इरहेको</w>":3183,"महासचिव</w>":3184,"५५</w>":3185,"काठमाडौंमा</w>":3186,"योगदान</w>":3187,"आन्दोलन</w>":3188,"हाइ":3189,"पृथ्":3190,"विकल्":3191,"खेती</w>":3192,"साधारण":3193,"कप्ता":3194,"जवाफ</w>":3195,"बालु":3196,"प्रा</w>":3197,"मगर":3198,"सडकमा</w>":3199,"बन्दी</w>":3200,"रहेछ</w>":3201,"सफल":3202,"लाग्छ</w>":3203,"सुर्":3204,"पाण्डे":3205,"प्रतिवेद":3206,"मानव":3207,"ऊर्जा</w>":3208,"तन":3209,"खाना</w>":3210,"त्स":3211,"थालेका</w>":3212,"भ्रमण</w>":3213,"कथा":3214,"ङ्क</w>":3215,"जाँदा</w>":3216,"विज्ञान</w>":3217,"एसिया</w>":3218,"ज्ञ</w>":3219,"प्रहार</w>":3220,"पढा":3221,"पाले</w>":3222,"परिणा":3223,"रास":3224,"गरिएका</w>":3225,"विजे":3226,"खुला</w>":3227,"अख्":3228,"राहत</w>":3229,"मक</w>":3230,"पेश</w>":3231,"उपरीक्षक</w>":3232,"ठो":3233,"अनुगमन</w>":3234,"ीबाट</w>":3235,"तुलनामा</w>":3236,"जरु":3237,"अझ</w>":3238,"१०":3239,"रुद्ध</w>":3240,"सहभागिता</w>":3241,"फाइन":3242,"गोर":3243,"खेलकुद</w>":3244,"त्तै</w>":3245,"दछ</w>":3246,"डाँ":3247,"सन":3248,"न्द्":3249,"पास</w>":3250,"किलोमिटर</w>":3251,"कोशी</w>":3252,"नगर्ने</w>":3253,"गएर</w>":3254,"पुर्या":3255,"चालु</w>":3256,"अपना":3257,"सीसी</w>":3258,"राखि":3259,"भुटा":3260,"यादव</w>":3261,"वायु":3262,"मेडिकल</w>":3263,"कसैले</w>":3264,"मान्छ":3265,"लिमि":3266,"भिजन</w>":3267,"रुपन्दे":3268,"स्तु</w>":3269,"खोला</w>":3270,"डेको</w>":3271,"साहि":3272,"रौ":3273,"प्रतिस्पर्धा</w>":3274,"कल":3275,"शीर्ष</w>":3276,"लागेका</w>":3277,"कामना</w>":3278,"भण्डारीले</w>":3279,"पीडित</w>":3280,"गलत</w>":3281,"बको</w>":3282,"मेयर</w>":3283,"महाशाखा":3284,"दैनन्</w>":3285,"बढ्न</w>":3286,"व्यावसाय":3287,"अन्त्य</w>":3288,"धार्मिक</w>":3289,"काठमाडौँ":3290,"अख्तिया":3291,"पोखरी</w>":3292,"सहम":3293,"दिनको</w>":3294,"अधिकारी":3295,"मौसम</w>":3296,"टेड</w>":3297,"क्षर</w>":3298,"सिंहले</w>":3299,"उदा":3300,"सकेपछि</w>":3301,"चर्चित</w>":3302,"भी</w>":3303,"डिजि":3304,"भरत":3305,"व्यवसाय</w>":3306,"बीचमा</w>":3307,"नेर</w>":3308,"जग्गा":3309,"बलात्":3310,"मिडिया</w>":3311,"मोटरसाइ":3312,"विदेश</w>":3313,"सरकारका</w>":3314,"उहाँको</w>":3315,"गर्नका</w>":3316,"ज्य":3317,"औपचारिक</w>":3318,"स्वीकार</w>":3319,"िको</w>":3320,"अभ्या":3321,"सौ":3322,"जरुरी</w>":3323,"साह":3324,"३४</w>":3325,"सामान</w>":3326,"तः</w>":3327,"अदालतमा</w>":3328,"लगाउन</w>":3329,"किलो</w>":3330,"अनलाइन</w>":3331,"डामा</w>":3332,"उद्घाटन</w>":3333,"नागरिकता</w>":3334,"सजि":3335,"च्याम्पि":3336,"पहिरो":3337,"क्षिक</w>":3338,"सिँ":3339,"विरुद्धको</w>":3340,"सार":3341,"बाग":3342,"एजेन्":3343,"भ्रष्टाचार</w>":3344,"चर्चा</w>":3345,"अदालत</w>":3346,"आम</w>":3347,"आग":3348,"चलचित्र</w>":3349,"६५</w>":3350,"बाह":3351,"स्थल</w>":3352,"जनक":3353,"राले</w>":3354,"बसेर</w>":3355,"प्रतियोगितामा</w>":3356,"बढाउने</w>":3357,"काग":3358,"तोकिएको</w>":3359,"बारको</w>":3360,"विचार</w>":3361,"निः":3362,"अनुभव</w>":3363,"जनाएका</w>":3364,"न्दा":3365,"दोहो":3366,"बाध":3367,"पुँ":3368,"प्रारम्":3369,"त्यसका</w>":3370,"टर्":3371,"४६</w>":3372,"वीर":3373,"द्वन्द्":3374,"रहँदा</w>":3375,"ेश":3376,"चितवन</w>":3377,"दाहालले</w>":3378,"शैक्षिक</w>":3379,"मले":3380,"नर्":3381,"खुवा":3382,"ट्न</w>":3383,"पुगेर</w>":3384,"पण</w>":3385,"घरे":3386,"चना</w>":3387,"मार्ग":3388,"ैं</w>":3389,"समाजवाद":3390,"सीमा":3391,"व्यक्तिको</w>":3392,"मैदानमा</w>":3393,"क्रो":3394,"गतेदेखि</w>":3395,"सिद्धा":3396,"ढे</w>":3397,"राखेका</w>":3398,"बर":3399,"तिबेला</w>":3400,"लागि":3401,"पाइएको</w>":3402,"कार्यमा</w>":3403,"गरिसकेको</w>":3404,"राजस्व</w>":3405,"पाल्":3406,"आलो":3407,"कुमारी</w>":3408,"ओली":3409,"सञ्चालक</w>":3410,"बाढ":3411,"जन्य</w>":3412,"संख्या":3413,"प्रत्यक्ष</w>":3414,"प्रदेशसभा</w>":3415,"विवाह</w>":3416,"सुरक्षा":3417,"चालक</w>":3418,"आएपछि</w>":3419,"घटेको</w>":3420,"रेन्द्र</w>":3421,"ची</w>":3422,"सचिवालय":3423,"उनु":3424,"न्ड</w>":3425,"नियु":3426,"आएर</w>":3427,"सम्पा":3428,"केका</w>":3429,"बुट":3430,"पर्या":3431,"सजा":3432,"हरूका</w>":3433,"कक्षा</w>":3434,"दुर्घटनामा</w>":3435,"घरेलु</w>":3436,"प्रणाली</w>":3437,"४२</w>":3438,"भट्टराईले</w>":3439,"एउटै</w>":3440,"शरण":3441,"भएपनि</w>":3442,"बनाइ":3443,"उद्धार</w>":3444,"साप":3445,"हासिल</w>":3446,"माया</w>":3447,"कला</w>":3448,"हुनुपर्छ</w>":3449,"हवा":3450,"पर्यटक</w>":3451,"महाधिवेश":3452,"जले</w>":3453,"होटल</w>":3454,"स्थग":3455,"आह्":3456,"विष्ण":3457,"एनन्</w>":3458,"डका</w>":3459,"संघले</w>":3460,"तीन":3461,"उनीहरूको</w>":3462,"यति</w>":3463,"साझे":3464,"घाट</w>":3465,"विभा":3466,"मन्त्रालयको</w>":3467,"यौँ</w>":3468,"छोरा</w>":3469,"दको</w>":3470,"छनोट</w>":3471,"अरु":3472,"तीव":3473,"पहुँ":3474,"सन्दर्":3475,"प्त":3476,"महत्":3477,"भारतले</w>":3478,"याका</w>":3479,"पाल</w>":3480,"उनीहरुको</w>":3481,"उसले</w>":3482,"केन्द्रमा</w>":3483,"अर्थमन्त्री</w>":3484,"न्दा</w>":3485,"परेपछि</w>":3486,"कवि":3487,"नियम</w>":3488,"ओलीको</w>":3489,"लम्ब":3490,"फिक</w>":3491,"संसद</w>":3492,"संविधानको</w>":3493,"कुन</w>":3494,"जमि":3495,"ठाउँ</w>":3496,"न्ने</w>":3497,"कक्ष":3498,"क्लब</w>":3499,"आन":3500,"ंग</w>":3501,"निष":3502,"कर्जा</w>":3503,"विपक्ष":3504,"पहिरो</w>":3505,"युरो":3506,"वाट</w>":3507,"कमिटी</w>":3508,"मुलुकको</w>":3509,"प्ला":3510,"प्रवाह</w>":3511,"सङ्क्र":3512,"व्य</w>":3513,"दित</w>":3514,"नेपाललाई</w>":3515,"कोरोना":3516,"नीले</w>":3517,"फेस":3518,"डर</w>":3519,"राजदूत</w>":3520,"सात":3521,"४८</w>":3522,"कालो":3523,"विषय":3524,"लिग</w>":3525,"सिन्धु":3526,"आयोजनाको</w>":3527,"रवि</w>":3528,"म्याग्":3529,"सघा":3530,"शब्":3531,"क्रान्":3532,"उत्तर</w>":3533,"ठा</w>":3534,"रोग":3535,"सुदूरपश्चिम</w>":3536,"विनियोजन</w>":3537,"दिनभित्र</w>":3538,"उनीहरू</w>":3539,"न्याय":3540,"अनुरोध</w>":3541,"छिमे":3542,"मन्दिर</w>":3543,"रोजगारी</w>":3544,"रोजगार</w>":3545,"कर्मचारी":3546,"सोध":3547,"आमा</w>":3548,"अवरुद्ध</w>":3549,"व्यवस्थित</w>":3550,"स्कृतिक</w>":3551,"गराएका</w>":3552,"जनताले</w>":3553,"प्रेस</w>":3554,"जनको</w>":3555,"पुरका</w>":3556,"किसान</w>":3557,"भाइरसको</w>":3558,"साढे</w>":3559,"टिप्प":3560,"प्रधानमन्त्रीको</w>":3561,"अर्थतन्त्र":3562,"विघट":3563,"भूत</w>":3564,"३८</w>":3565,"म्बा":3566,"पत</w>":3567,"खेल्ने</w>":3568,"सबैलाई</w>":3569,"वस्तु</w>":3570,"माध्यमबाट</w>":3571,"है":3572,"भुवन</w>":3573,"जसमा</w>":3574,"संसद्</w>":3575,"निर्धारण</w>":3576,"देव</w>":3577,"इजला":3578,"ीहरु</w>":3579,"स्वर्":3580,"हि</w>":3581,"दिल्":3582,"डिजिटल</w>":3583,"सङ्क्रमण</w>":3584,"शरणार्थ":3585,"ट्ने</w>":3586,"शू":3587,"किसि":3588,"सृ":3589,"डलर</w>":3590,"पदमा</w>":3591,"अत्या":3592,"टरमा</w>":3593,"समाज</w>":3594,"खड्काले</w>":3595,"कहिले</w>":3596,"कद":3597,"आकर्ष":3598,"सुनि":3599,"कहाँ</w>":3600,"रूप</w>":3601,"नसँग</w>":3602,"परराष्ट्र</w>":3603,"शिव":3604,"सडक":3605,"सम्भव</w>":3606,"आउट</w>":3607,"बनाएका</w>":3608,"निःशुल्क</w>":3609,"पुरानो</w>":3610,"टिभ</w>":3611,"मुलुकमा</w>":3612,"सुनुवा":3613,"विकासका</w>":3614,"यद्य":3615,"निकाय":3616,"उनीहरु</w>":3617,"र्ति":3618,"शुभ":3619,"नर":3620,"ओभरमा</w>":3621,"उपाधि</w>":3622,"प्रतिबद्धता</w>":3623,"न्छु</w>":3624,"भन्न</w>":3625,"३७</w>":3626,"कांग्रेसको</w>":3627,"दिला":3628,"बाध्य":3629,"हस्ताक्षर</w>":3630,"५१</w>":3631,"म्बु":3632,"यौ":3633,"बीमा</w>":3634,"मोर्":3635,"फोर":3636,"प्रतियोगिता</w>":3637,"पल्":3638,"मिला</w>":3639,"फाइनलमा</w>":3640,"सबैको</w>":3641,"बंग":3642,"घटा":3643,"अग्रता</w>":3644,"ंगा</w>":3645,"शनल</w>":3646,"वास्त":3647,"गृहमन्त्री</w>":3648,"आम्दानी</w>":3649,"फुटबल</w>":3650,"२०७४</w>":3651,"मंसिर</w>":3652,"प्राधिकरणका</w>":3653,"जय":3654,"गर्नेछ</w>":3655,"नभई</w>":3656,"क्वारेन्":3657,"नालाई</w>":3658,"अपराध</w>":3659,"पद</w>":3660,"बास</w>":3661,"नर</w>":3662,"उद्देश्यले</w>":3663,"भन्सार</w>":3664,"सध":3665,"यसै":3666,"यसै</w>":3667,"थो</w>":3668,"निको</w>":3669,"दीप</w>":3670,"डाइ":3671,"खुसी</w>":3672,"जोगा":3673,"बाध्य</w>":3674,"धेरै":3675,"पुरस्कार</w>":3676,"ध्यक्ष":3677,"ढो":3678,"आह्वान</w>":3679,"खेलको</w>":3680,"रमु":3681,"भू</w>":3682,"खर्ब</w>":3683,"काली":3684,"खानेपानी</w>":3685,"विसं</w>":3686,"चिकित्सक":3687,"उजुरी</w>":3688,"ङ्गा":3689,"सके</w>":3690,"५२</w>":3691,"तबाट</w>":3692,"साधारण</w>":3693,"तहका</w>":3694,"चीनको</w>":3695,"वर्षका</w>":3696,"बज":3697,"मोबाइल</w>":3698,"आयोज":3699,"देखिएका</w>":3700,"तेल</w>":3701,"कठि":3702,"घण्टा</w>":3703,"ग्रे":3704,"समान</w>":3705,"पन्":3706,"छोरी</w>":3707,"खर</w>":3708,"चुनावी</w>":3709,"नवी":3710,"पेस</w>":3711,"एमालेको</w>":3712,"विधेय":3713,"देउवा</w>":3714,"हिक</w>":3715,"वर्षा</w>":3716,"आया":3717,"एवम्</w>":3718,"निस्":3719,"यदि</w>":3720,"हीमा</w>":3721,"दीमा</w>":3722,"जु</w>":3723,"बाबु":3724,"सहायक</w>":3725,"राउ":3726,"लिङ</w>":3727,"सफा":3728,"धरा":3729,"साता</w>":3730,"अनिवार्":3731,"दृष्टि":3732,"पूजा</w>":3733,"हरुका</w>":3734,"रिक्त</w>":3735,"सुरुवा":3736,"बृ":3737,"लगत्तै</w>":3738,"कम्तीमा</w>":3739,"विवाद":3740,"हिन्द":3741,"नरहेको</w>":3742,"यहाँका</w>":3743,"क्याम्प":3744,"मान्यता</w>":3745,"बनाइएको</w>":3746,"पछा":3747,"जाको</w>":3748,"सम्मे":3749,"भित्रको</w>":3750,"पाउन</w>":3751,"टीको</w>":3752,"टुंग":3753,"महामन्त्री</w>":3754,"बालुवा":3755,"करणको</w>":3756,"फी</w>":3757,"विभाग</w>":3758,"थालेपछि</w>":3759,"गुरुङले</w>":3760,"तरकारी</w>":3761,"४१</w>":3762,"थान</w>":3763,"प्रधान</w>":3764,"परिचालन</w>":3765,"पाइने</w>":3766,"सुधा":3767,"भण्डारी</w>":3768,"ल्ड</w>":3769,"झि":3770,"मोह":3771,"महसु":3772,"विश्वविद्यालय":3773,"अनुदान</w>":3774,"निषे":3775,"सम्मेलन</w>":3776,"रहे</w>":3777,"मानिस</w>":3778,"रोकि":3779,"द्र्":3780,"विभागका</w>":3781,"यि":3782,"तना":3783,"कर":3784,"अनेक</w>":3785,"ह्या":3786,"बंगला":3787,"द्या":3788,"महिलाको</w>":3789,"रंग":3790,"तीको</w>":3791,"निर्माणमा</w>":3792,"संघको</w>":3793,"टेको</w>":3794,"अपेक्षा</w>":3795,"नगरी</w>":3796,"मिल्ने</w>":3797,"भित्रै</w>":3798,"कारका</w>":3799,"मीले</w>":3800,"म्बर</w>":3801,"गाउँपालिकाका</w>":3802,"सहकार्य</w>":3803,"रनको</w>":3804,"उने":3805,"आधार":3806,"सदरमु":3807,"पार्ने</w>":3808,"मापदण्ड</w>":3809,"झा</w>":3810,"भिक</w>":3811,"खारे":3812,"प्रधानमन्त्रीले</w>":3813,"शिक्षक</w>":3814,"जीवन":3815,"ैँ</w>":3816,"गर्</w>":3817,"गाई":3818,"लगाएका</w>":3819,"व्यावसायिक</w>":3820,"अभाव":3821,"सम्मेलनमा</w>":3822,"लक्षित</w>":3823,"ऐतिहा":3824,"आई</w>":3825,"आयोजना":3826,"भार</w>":3827,"नागरिकलाई</w>":3828,"मेगा":3829,"आक्रम":3830,"अनुसन्धान":3831,"सांस्कृतिक</w>":3832,"पुग्न</w>":3833,"४७</w>":3834,"चुनौती</w>":3835,"कार्कीले</w>":3836,"२०७९</w>":3837,"प्रकाशन</w>":3838,"कप्तान</w>":3839,"हेर्दा</w>":3840,"मगरले</w>":3841,"५६</w>":3842,"पाइन्छ</w>":3843,"समी":3844,"गतेसम्म</w>":3845,"धनग":3846,"यात्रु":3847,"लगातार</w>":3848,"हीन</w>":3849,"मान्छे</w>":3850,"७२</w>":3851,"स्सा</w>":3852,"जर":3853,"ट्राफिक</w>":3854,"कञ्च":3855,"गणना</w>":3856,"स्वय":3857,"मसा":3858,"पोखरेलले</w>":3859,"४४</w>":3860,"गर्दछ</w>":3861,"लागी</w>":3862,"२००":3863,"यथा":3864,"बारदेखि</w>":3865,"आउँ":3866,"खाँ":3867,"धमा</w>":3868,"४३</w>":3869,"५३</w>":3870,"त्रा":3871,"परिषद्":3872,"ढंग":3873,"दमा</w>":3874,"संक्रमितको</w>":3875,"नगरेको</w>":3876,"सम्पर्क</w>":3877,"सर्वा":3878,"नीय</w>":3879,"चालित</w>":3880,"हस्तान्तरण</w>":3881,"नगरपालिकामा</w>":3882,"समावेश</w>":3883,"ध्ये</w>":3884,"ज्ञा</w>":3885,"श्रीलं":3886,"आक्रमण</w>":3887,"चलि":3888,"कुट":3889,"सामग्री":3890,"जेल</w>":3891,"सनमा</w>":3892,"कार्की</w>":3893,"थोरै</w>":3894,"लिए</w>":3895,"ंक":3896,"सिरि":3897,"दिनुपर्ने</w>":3898,"जन्म":3899,"लगाएर</w>":3900,"पार</w>":3901,"चौथो</w>":3902,"स्थगित</w>":3903,"घिसि":3904,"गाउँपालिकामा</w>":3905,"चार्ज</w>":3906,"गल्":3907,"दायि":3908,"बचा":3909,"सानो</w>":3910,"भूमि</w>":3911,"वातावरण":3912,"३९</w>":3913,"रोक्न</w>":3914,"नेपाली":3915,"भिडियो</w>":3916,"सम्मका</w>":3917,"लागिएको</w>":3918,"द्धि</w>":3919,"खेल्":3920,"अनिवार्य</w>":3921,"कस्तो</w>":3922,"समूहले</w>":3923,"साझा</w>":3924,"स्थितिमा</w>":3925,"बसेका</w>":3926,"परी</w>":3927,"हाम्रा</w>":3928,"पाण्डेले</w>":3929,"जका</w>":3930,"फाइदा</w>":3931,"ऐतिहासिक</w>":3932,"हीको</w>":3933,"न्यौ":3934,"दोष":3935,"करा":3936,"खोजी</w>":3937,"थप":3938,"चौधरी</w>":3939,"कप":3940,"४९</w>":3941,"त्रिभुवन</w>":3942,"२०८०</w>":3943,"न्यौपा":3944,"एयर":3945,"शरणार्थी</w>":3946,"न्यायाधीश":3947,"हान</w>":3948,"प्रसारण</w>":3949,"विपरी":3950,"७८</w>":3951,"मुद्दामा</w>":3952,"वश्य":3953,"विकल्प</w>":3954,"त्यति</w>":3955,"चयन</w>":3956,"ध्याना":3957,"आदि":3958,"खास":3959,"आयोग</w>":3960,"समितिमा</w>":3961,"गोल":3962,"डि</w>":3963,"राजा</w>":3964,"प्ल":3965,"झण्ड":3966,"दे</w>":3967,"अर्का</w>":3968,"अर्या":3969,"नगद</w>":3970,"सम्ममा</w>":3971,"उपप्रधानमन्त्री</w>":3972,"निरन्तरता</w>":3973,"दुब":3974,"२०७५</w>":3975,"समीकरण</w>":3976,"न्यूनी":3977,"मिलेर</w>":3978,"प्राकृतिक</w>":3979,"सोले":3980,"उदय":3981,"निम्ति</w>":3982,"काँग्रेस":3983,"विमानस्थल</w>":3984,"७४</w>":3985,"दुवै":3986,"चासो</w>":3987,"राइ":3988,"बोल्दै</w>":3989,"२०७८</w>":3990,"पठाएको</w>":3991,"वायु</w>":3992,"अभिन":3993,"महोत्स":3994,"पथ</w>":3995,"युद्ध":3996,"तस्":3997,"फ्रा":3998,"टीमा</w>":3999,"व्यक्तिलाई</w>":4000,"कात्":4001,"गाँ":4002,"शाला</w>":4003,"तर्क</w>":4004,"दि</w>":4005,"सङ्घीय</w>":4006,"क्ने</w>":4007,"पञ्":4008,"तरि":4009,"स्थ</w>":4010,"सकेन</w>":4011,"इन्जि":4012,"ठेक्का</w>":4013,"पदाधिकार":4014,"सुर्खे":4015,"धानमा</w>":4016,"दीपक</w>":4017,"सन्दर्भमा</w>":4018,"जिम्मा</w>":4019,"व्यक्तिगत</w>":4020,"दायर</w>":4021,"क्रिके":4022,"कडा</w>":4023,"समूहको</w>":4024,"५४</w>":4025,"निर्णय":4026,"यद्यपि</w>":4027,"पूर्वक</w>":4028,"खाने</w>":4029,"सु</w>":4030,"नदी</w>":4031,"त्यसले</w>":4032,"दिने":4033,"आं":4034,"मुलुक</w>":4035,"ट्टा</w>":4036,"गाउँपालिकाको</w>":4037,"कात्तिक</w>":4038,"अवै":4039,"वृद्धि":4040,"मन्त्रिपरिषद्":4041,"हुन":4042,"भाषा</w>":4043,"अरू</w>":4044,"म्परा":4045,"महानगरपालिका</w>":4046,"टिप्पणी</w>":4047,"ङ्गा</w>":4048,"प्रवृ":4049,"पर्याप्त</w>":4050,"मिति</w>":4051,"फोहो":4052,"प्राधिकरणले</w>":4053,"इरहेका</w>":4054,"कुञ्":4055,"कुरामा</w>":4056,"विगत</w>":4057,"सबैले</w>":4058,"बालुवाटा":4059,"केसीले</w>":4060,"झण्डै</w>":4061,"खण्डमा</w>":4062,"तालिम</w>":4063,"कञ्चन":4064,"प्रेम</w>":4065,"तिलाई</w>":4066,"लगानीकर्":4067,"हेर्न</w>":4068,"चुनावमा</w>":4069,"५८</w>":4070,"कम्युनिस्ट</w>":4071,"प्राथमिक":4072,"सम्पत्ति</w>":4073,"परम्परा":4074,"भग":4075,"७९</w>":4076,"कमी</w>":4077,"सहकार":4078,"समक्ष</w>":4079,"बागलु":4080,"आधारित</w>":4081,"सहयोगमा</w>":4082,"उनीहरुलाई</w>":4083,"गन्त":4084,"उहाँ</w>":4085,"पेट्रो":4086,"योग्य</w>":4087,"कल्प":4088,"खत":4089,"माधव</w>":4090,"हिजो</w>":4091,"सर्वसाधारण":4092,"उचित</w>":4093,"पदार्थ</w>":4094,"बल":4095,"कोटाले</w>":4096,"थुप्र":4097,"कुराका":4098,"नियर</w>":4099,"गाउँपालिकाले</w>":4100,"डे</w>":4101,"नदिने</w>":4102,"प्राव":4103,"हप्":4104,"प्राथमिकता</w>":4105,"पर्व</w>":4106,"टरको</w>":4107,"फैसला</w>":4108,"ढा</w>":4109,"द्य</w>":4110,"जितेको</w>":4111,"निर्वाचनको</w>":4112,"बढि":4113,"बहस</w>":4114,"बच":4115,"२०७७</w>":4116,"ल्यान्ड":4117,"असन्तु":4118,"जनतालाई</w>":4119,"एमा</w>":4120,"आइसोले":4121,"चेताव":4122,"त्सा":4123,"६८</w>":4124,"पक्":4125,"श्रेष्ठलाई</w>":4126,"टीका</w>":4127,"मूल</w>":4128,"जनसंख्या</w>":4129,"मण":4130,"चलचित्र":4131,"मलेसि":4132,"साथी":4133,"चाहिँ</w>":4134,"राष्ट्रपति":4135,"सन्दी":4136,"भएमा</w>":4137,"नागरिक":4138,"विश्ले":4139,"सन्देश</w>":4140,"बाब":4141,"पठाउने</w>":4142,"चोक</w>":4143,"थिएँ</w>":4144,"पर्यटकीय</w>":4145,"वश्यक</w>":4146,"उत्त":4147,"प्रथ":4148,"सृजना</w>":4149,"हवाई</w>":4150,"नागरिकको</w>":4151,"९९</w>":4152,"समुद्र":4153,"विद्युतीय</w>":4154,"देखाएको</w>":4155,"दबाब</w>":4156,"उपयुक्त</w>":4157,"छुट्टै</w>":4158,"बैंक":4159,"निर्यात</w>":4160,"खति":4161,"बिजु":4162,"ण्डा</w>":4163,"ष्ठ":4164,"दौ":4165,"ल्यै</w>":4166,"खुला":4167,"अर":4168,"हरुसँग</w>":4169,"आयोगको</w>":4170,"पुनः":4171,"स्तर</w>":4172,"पूर्वी</w>":4173,"नतिजा</w>":4174,"पानीको</w>":4175,"यत</w>":4176,"उनुपर्छ</w>":4177,"नीतिक</w>":4178,"उमेर</w>":4179,"लाल":4180,"प्रत्या":4181,"ठु":4182,"काउन्":4183,"विके":4184,"ध्यानाकर्षण</w>":4185,"कुश":4186,"डिङ</w>":4187,"पक्षले</w>":4188,"मक":4189,"नवल":4190,"जाँच</w>":4191,"उपस्थित</w>":4192,"हीँ</w>":4193,"जनक</w>":4194,"हरूसँग</w>":4195,"मृत्यु":4196,"पार्न</w>":4197,"रहनेछ</w>":4198,"नेप्":4199,"वटै</w>":4200,"आधु":4201,"सुविधा":4202,"चरणको</w>":4203,"रह्यो</w>":4204,"भुटानी</w>":4205,"हुनुहुन्छ</w>":4206,"निकुञ्":4207,"स्कु":4208,"घटनाको</w>":4209,"व्यापी</w>":4210,"बासि":4211,"ग्र</w>":4212,"एल":4213,"अफगा":4214,"पहिला</w>":4215,"मनसु":4216,"राका</w>":4217,"सेनाले</w>":4218,"विपरीत</w>":4219,"फाँ":4220,"तावा":4221,"नतम</w>":4222,"काठमाडौंको</w>":4223,"डिभिजन</w>":4224,"बढाएको</w>":4225,"टबाट</w>":4226,"हार्":4227,"सहर":4228,"उत्तर":4229,"भनाई</w>":4230,"निकट</w>":4231,"मोरङको</w>":4232,"साह</w>":4233,"छलफलमा</w>":4234,"भित्":4235,"महाधिवेशन</w>":4236,"हेर":4237,"केन्द्रले</w>":4238,"भट्टराई</w>":4239,"पतिको</w>":4240,"अधिवेशन</w>":4241,"अदालतको</w>":4242,"पहिलो":4243,"सक</w>":4244,"च्याम्पिय":4245,"वान":4246,"युक्रे":4247,"५७</w>":4248,"वन":4249,"वडाध्यक्ष</w>":4250,"६४</w>":4251,"तल</w>":4252,"खुलेको</w>":4253,"आनन्द</w>":4254,"व्यक्तिले</w>":4255,"विश्वकप</w>":4256,"सय":4257,"बस्त":4258,"मौसम":4259,"फूल</w>":4260,"काबाट</w>":4261,"२०७६</w>":4262,"मावली</w>":4263,"तामाङ</w>":4264,"नम्बरको</w>":4265,"रक्षा</w>":4266,"रमे":4267,"समयमै</w>":4268,"समयदेखि</w>":4269,"८२</w>":4270,"पालना</w>":4271,"पठाउनु</w>":4272,"बन्दै</w>":4273,"वलाई</w>":4274,"गरिन्</w>":4275,"अल</w>":4276,"संसदमा</w>":4277,"धिकारी</w>":4278,"क्यान्":4279,"प्रथम</w>":4280,"बर्ष":4281,"संगठन</w>":4282,"कथा</w>":4283,"सल्लाह":4284,"विज्ञप्तिमा</w>":4285,"सदस्यीय</w>":4286,"सुकै</w>":4287,"सक्छन्</w>":4288,"महिनाको</w>":4289,"सीमित</w>":4290,"त्वमा</w>":4291,"गाह":4292,"सिका":4293,"कोइराला</w>":4294,"फेसबु":4295,"आवेदन</w>":4296,"हिम":4297,"ग्लो":4298,"उत्प":4299,"लिक":4300,"५९</w>":4301,"ीक</w>":4302,"जसो</w>":4303,"दिएपछि</w>":4304,"स्वतन्त्र":4305,"हाजि":4306,"सबाट</w>":4307,"कान्":4308,"कामको</w>":4309,"आए</w>":4310,"म्याद</w>":4311,"जब</w>":4312,"मामिला</w>":4313,"याउने</w>":4314,"पराम":4315,"पृथ्वी":4316,"घण्टामा</w>":4317,"राष्ट्रियस":4318,"आयोगका</w>":4319,"ल्याइएको</w>":4320,"दिवस</w>":4321,"क्य":4322,"मुस्":4323,"बेन्":4324,"लगाइएको</w>":4325,"आस":4326,"आंशि":4327,"श्या":4328,"स्तरमा</w>":4329,"सेना</w>":4330,"परामर्":4331,"रकम":4332,"मूल्या":4333,"मास्":4334,"समूहका</w>":4335,"गतिविधि</w>":4336,"न्दु":4337,"रहेर</w>":4338,"अष्ट":4339,"६३</w>":4340,"निवेदन</w>":4341,"प्रकृ":4342,"उद्य":4343,"सेमि":4344,"भेन्":4345,"सरोकारवा":4346,"उभि":4347,"विज्ञा":4348,"मे</w>":4349,"हिसाबले</w>":4350,"बुढा":4351,"ड्ड":4352,"सचेत</w>":4353,"पश्चा":4354,"पुन</w>":4355,"इँ":4356,"नसक्दा</w>":4357,"थालिएको</w>":4358,"हेर्ने</w>":4359,"उनीहरूलाई</w>":4360,"दुरुप":4361,"बौ":4362,"सुब्":4363,"बेपत्ता</w>":4364,"वार्ड</w>":4365,"कम्पनी":4366,"चीनले</w>":4367,"मधेस":4368,"गरिनेछ</w>":4369,"मन्त्रालयमा</w>":4370,"एच":4371,"हेट":4372,"पुस्तक</w>":4373,"ल्याण्ड":4374,"परिणाम</w>":4375,"ढंगले</w>":4376,"टिम</w>":4377,"अभिभाव":4378,"पालिका</w>":4379,"जरि":4380,"भोलि</w>":4381,"संस्कृ":4382,"बनाए</w>":4383,"सही</w>":4384,"मुलुक":4385,"अन्तर्गत":4386,"टेर</w>":4387,"रेल</w>":4388,"क्लब":4389,"कित्ता</w>":4390,"अन्त्य":4391,"स्म":4392,"बेलामा</w>":4393,"ज्ञवा":4394,"दफा</w>":4395,"दीर्":4396,"सडकको</w>":4397,"त्रा</w>":4398,"नीका</w>":4399,"अस्पतालका</w>":4400,"परिच":4401,"साउद":4402,"थुप्रै</w>":4403,"सामा</w>":4404,"सङ्कलन</w>":4405,"चिन्ता</w>":4406,"होट":4407,"छिटो</w>":4408,"रोकिएको</w>":4409,"अवि":4410,"देखिने</w>":4411,"हरा</w>":4412,"सारको</w>":4413,"वका</w>":4414,"क्षेत्रीय</w>":4415,"निधन</w>":4416,"स्वीकृत</w>":4417,"दलित</w>":4418,"र्स</w>":4419,"व्यवहार</w>":4420,"जहाँ</w>":4421,"६२</w>":4422,"स्त्र":4423,"कार्यान्वयनमा</w>":4424,"क्षेत्रलाई</w>":4425,"समध्ये</w>":4426,"आत्":4427,"विगतमा</w>":4428,"लता</w>":4429,"कालि":4430,"प्रतियोगिताको</w>":4431,"ग्रहण</w>":4432,"टिकट</w>":4433,"रिपोर्ट</w>":4434,"संस्थाले</w>":4435,"इन्टरनेशनल</w>":4436,"नता</w>":4437,"मासिक</w>":4438,"बालबालिका</w>":4439,"सजाय</w>":4440,"प्रतिशत":4441,"नजिक</w>":4442,"निवा":4443,"उडा":4444,"विन</w>":4445,"त्यस्ता</w>":4446,"लक्ष्मी</w>":4447,"चेतावनी</w>":4448,"इजराय":4449,"निगम":4450,"लाभ</w>":4451,"आम":4452,"नुष":4453,"सहरी</w>":4454,"आयोजनामा</w>":4455,"ब्रि":4456,"७३</w>":4457,"खारेज</w>":4458,"सन्तो":4459,"मतदाता</w>":4460,"दिनु</w>":4461,"प्रवद्र्":4462,"समृद्धि":4463,"स्तो":4464,"रूपै":4465,"शाली</w>":4466,"लक्ष्य":4467,"पदाधिकारी</w>":4468,"भएकोले</w>":4469,"निवास</w>":4470,"भत्":4471,"संग</w>":4472,"हत्या":4473,"क्षेप</w>":4474,"वायुको</w>":4475,"८५</w>":4476,"भेट</w>":4477,"सवारी":4478,"इट":4479,"सामग्रीबारे</w>":4480,"भरि":4481,"विजेता</w>":4482,"गरियो</w>":4483,"ृत</w>":4484,"विदेशमा</w>":4485,"साहित्य":4486,"पर्</w>":4487,"मान्छे":4488,"समानु":4489,"कार्यालयको</w>":4490,"सेको</w>":4491,"नायब</w>":4492,"ल्ला</w>":4493,"साता":4494,"पछिल्":4495,"उसको</w>":4496,"पका</w>":4497,"अक्सि":4498,"केसी</w>":4499,"वर्षअघि</w>":4500,"छोरा":4501,"आठ":4502,"रुपि":4503,"चाइ</w>":4504,"डेका</w>":4505,"कटा":4506,"इन्छ</w>":4507,"विकासको</w>":4508,"बाढी</w>":4509,"हल":4510,"विषयलाई</w>":4511,"त्यसो</w>":4512,"दिनु":4513,"विकासमा</w>":4514,"समानुपा":4515,"जल</w>":4516,"बैंकका</w>":4517,"लकडाउन</w>":4518,"खरा":4519,"सैनिक</w>":4520,"मस्":4521,"सहज":4522,"दलीय</w>":4523,"हुनेछन्</w>":4524,"वैज्ञा":4525,"घट्":4526,"भविष":4527,"दुरुपयोग</w>":4528,"केत</w>":4529,"छुट</w>":4530,"दुःख</w>":4531,"अग्":4532,"खड्का</w>":4533,"स्थल":4534,"सालको</w>":4535,"सूचक</w>":4536,"पवन</w>":4537,"तीव्र</w>":4538,"चौधरीले</w>":4539,"पुग्दा</w>":4540,"प्रिय</w>":4541,"राज्यको</w>":4542,"६७</w>":4543,"तिले</w>":4544,"आउँछ</w>":4545,"अस्पतालको</w>":4546,"मङ्ग":4547,"परिवारका</w>":4548,"तीले</w>":4549,"एई":4550,"प्रदीप</w>":4551,"माग्":4552,"चर</w>":4553,"आलोचना</w>":4554,"आपूर्ति</w>":4555,"सकिनेछ</w>":4556,"लाग्यो</w>":4557,"भविष्य":4558,"बदली</w>":4559,"रास्व":4560,"अना":4561,"मेन्":4562,"बहुमत</w>":4563,"काली</w>":4564,"किना":4565,"बताउनुभएको</w>":4566,"ण्डि":4567,"रिजा":4568,"समुदा":4569,"अभ्यास</w>":4570,"सर्वाधिक</w>":4571,"उपभोक्ता</w>":4572,"फर्का":4573,"दैन":4574,"वाल</w>":4575,"बाहिरि":4576,"खाली</w>":4577,"धर्म":4578,"सल</w>":4579,"कार्यक्रमको</w>":4580,"नभए</w>":4581,"क्क</w>":4582,"ल्यो</w>":4583,"सभामुख":4584,"उदाहर":4585,"मित":4586,"सप्त":4587,"न्यून</w>":4588,"चो</w>":4589,"बढ्दो</w>":4590,"लिख":4591,"अभियुक्त</w>":4592,"सूचीमा</w>":4593,"खमा</w>":4594,"हाजिर</w>":4595,"जुन":4596,"६१</w>":4597,"उमा</w>":4598,"आधिकार":4599,"कोठा":4600,"यू</w>":4601,"लिया</w>":4602,"हस्त":4603,"टस</w>":4604,"अवरोध</w>":4605,"बराम":4606,"केन्द्रको</w>":4607,"लिमिटे":4608,"भरि</w>":4609,"कीर्ति":4610,"प्रचार</w>":4611,"सपना</w>":4612,"व्यवहा":4613,"अधिकृ":4614,"समाजमा</w>":4615,"बेलु":4616,"पार्टीमा</w>":4617,"माधव":4618,"बलात्कार</w>":4619,"कानून</w>":4620,"भरतपुर</w>":4621,"आफन्त":4622,"गोली</w>":4623,"परियोजना</w>":4624,"वर्षा":4625,"निकाय</w>":4626,"प्रजातन्त्र</w>":4627,"द्यो":4628,"निरा":4629,"प्रतिक्रिया</w>":4630,"सिट</w>":4631,"दैनि":4632,"जनका</w>":4633,"ल्याएर</w>":4634,"सुन्दर</w>":4635,"पो</w>":4636,"शेर्":4637,"र्सि":4638,"पर्न</w>":4639,"समग्र</w>":4640,"१००</w>":4641,"वक्ता</w>":4642,"रेले</w>":4643,"बढेर</w>":4644,"पत्":4645,"आशा</w>":4646,"निर्माण":4647,"रेग्":4648,"सरुवा</w>":4649,"टीले</w>":4650,"एकोमा</w>":4651,"ंकन</w>":4652,"घण्टा":4653,"जोश":4654,"मुख्यमन्त्र":4655,"सभाका</w>":4656,"सुत्":4657,"फाइनल</w>":4658,"ट्रम्प":4659,"सफा</w>":4660,"कतै</w>":4661,"उड्ड":4662,"सफलता</w>":4663,"दर्शन</w>":4664,"वर":4665,"गरिसकेका</w>":4666,"भित्रि":4667,"लोकतन्त्र":4668,"भत्ता</w>":4669,"तना</w>":4670,"आका":4671,"भक्तपुर</w>":4672,"मला</w>":4673,"लोकन</w>":4674,"यालाई</w>":4675,"६६</w>":4676,"स्मार्":4677,"माथिको</w>":4678,"भएसँगै</w>":4679,"मसान्त":4680,"पहुँच</w>":4681,"मोटरसाइकल</w>":4682,"चलन</w>":4683,"बर्दि":4684,"७१</w>":4685,"बुँ":4686,"विराटनगर</w>":4687,"गञ्ज</w>":4688,"जन्त":4689,"थे":4690,"रुढ</w>":4691,"कीको</w>":4692,"रञ्":4693,"रामचन्द्र</w>":4694,"स्थलमा</w>":4695,"कोरोनाको</w>":4696,"सामना</w>":4697,"दायित्व</w>":4698,"युद्ध</w>":4699,"विद्यार्थी":4700,"कृषि":4701,"फमा</w>":4702,"संस्थाको</w>":4703,"बरामद</w>":4704,"नदीमा</w>":4705,"झो":4706,"ठाकु":4707,"अन्न":4708,"जंग":4709,"मूलक</w>":4710,"निस्ता":4711,"वर्ग":4712,"आउँदा</w>":4713,"राजेन्द्र</w>":4714,"गिक</w>":4715,"ग्राम</w>":4716,"अस्पतालले</w>":4717,"रहेकी</w>":4718,"महसुस</w>":4719,"ताबाट</w>":4720,"सत्तारुढ</w>":4721,"खाद्य</w>":4722,"गौतमले</w>":4723,"रेडि":4724,"नजिकै</w>":4725,"अप्":4726,"लेखा":4727,"भेटिएको</w>":4728,"प्रशिक्षक</w>":4729,"हुँदैछ</w>":4730,"लागेर</w>":4731,"वर्षाको</w>":4732,"श्री</w>":4733,"आइरहेको</w>":4734,"कर्षमा</w>":4735,"स्थानीयले</w>":4736,"प्रारम्भिक</w>":4737,"रिङ</w>":4738,"भरका</w>":4739,"यसबाट</w>":4740,"शंका</w>":4741,"साल":4742,"खेल्न</w>":4743,"आधा</w>":4744,"स्वागत</w>":4745,"भारतबाट</w>":4746,"पहिलोपटक</w>":4747,"कोटा</w>":4748,"पछाडि</w>":4749,"लघु":4750,"औद्यो":4751,"इलाम</w>":4752,"शिक्षा":4753,"बाटोमा</w>":4754,"उल्लेख":4755,"संस्थागत</w>":4756,"उत्पन्न</w>":4757,"भोज":4758,"रिय":4759,"तयारीमा</w>":4760,"एण्ड</w>":4761,"दान":4762,"ट्रि":4763,"सरकारसँग</w>":4764,"आँखा</w>":4765,"ग्रि":4766,"जोड्ने</w>":4767,"उपचार":4768,"जहाज</w>":4769,"आमा":4770,"अधिवेश":4771,"ब्याज":4772,"आधारभूत</w>":4773,"लियन</w>":4774,"शर":4775,"न्यूनतम</w>":4776,"नेपालीमा</w>":4777,"अवैध</w>":4778,"जोडिएको</w>":4779,"रिया</w>":4780,"मन्त्रिपरिषद्</w>":4781,"प्रगति</w>":4782,"जनप्रतिनिधि":4783,"देशलाई</w>":4784,"उच्च":4785,"हतिया":4786,"कुलमान</w>":4787,"कालो</w>":4788,"नेले</w>":4789,"ीय":4790,"सेनाको</w>":4791,"अभिनय</w>":4792,"बिना</w>":4793,"जरिवा":4794,"रहन</w>":4795,"चल्छ</w>":4796,"एसँगै</w>":4797,"सङ्घ</w>":4798,"कठिन</w>":4799,"समारोह":4800,"शीर्ष":4801,"सुनको</w>":4802,"जनशक्ति</w>":4803,"लगि":4804,"माल":4805,"कामाथि</w>":4806,"अफगानिस्ता":4807,"भित्र्या":4808,"एम</w>":4809,"जाव":4810,"सदरमुकाम</w>":4811,"जडान</w>":4812,"बसो":4813,"दियो</w>":4814,"खोजेको</w>":4815,"घरको</w>":4816,"प्रवर्":4817,"कारागा":4818,"परिवारलाई</w>":4819,"सफाइ</w>":4820,"श्रमिक</w>":4821,"सक्दैन</w>":4822,"सनको</w>":4823,"नाफा</w>":4824,"मेलम्":4825,"न्यूनीकरण</w>":4826,"नेताले</w>":4827,"छिमेकी</w>":4828,"हिमाली</w>":4829,"शालामा</w>":4830,"द्द":4831,"गर्नेछन्</w>":4832,"धीन</w>":4833,"एल</w>":4834,"नभएर</w>":4835,"भ्":4836,"शाही</w>":4837,"नात्मक</w>":4838,"मगर</w>":4839,"निर्भर</w>":4840,"हुनसक्ने</w>":4841,"गण</w>":4842,"महानगरपालिकाले</w>":4843,"भारी</w>":4844,"तस्बि":4845,"जसरी</w>":4846,"कोष</w>":4847,"युनि":4848,"र्</w>":4849,"८४</w>":4850,"भइरहेका</w>":4851,"महत्त्वपूर्ण</w>":4852,"गर्नुपर्":4853,"सम्भा":4854,"रासस</w>":4855,"घन</w>":4856,"कर्मचारीको</w>":4857,"लागे":4858,"बल्":4859,"स्थापक</w>":4860,"सार्":4861,"विक":4862,"९५</w>":4863,"ंले</w>":4864,"पदार्थ":4865,"बनि":4866,"आवाज</w>":4867,"प्रतिस्पर्धा":4868,"क्षेत्रबाट</w>":4869,"ड्रो":4870,"च्न</w>":4871,"सिंहदर":4872,"बस्ती</w>":4873,"मनसुनी</w>":4874,"ढकालले</w>":4875,"शिवि":4876,"ङ्क":4877,"कस्":4878,"समझ":4879,"गढ</w>":4880,"गए</w>":4881,"शु</w>":4882,"कार्यकर्ता</w>":4883,"ताप":4884,"निस्क":4885,"दिनसम्म</w>":4886,"मोड":4887,"८३</w>":4888,"नभए":4889,"लाइभमा</w>":4890,"कास्":4891,"अम":4892,"शून्य</w>":4893,"व्यवसायी":4894,"यसपटक</w>":4895,"भारतका</w>":4896,"गम</w>":4897,"खोजि":4898,"घाँ":4899,"ताल</w>":4900,"पुगि":4901,"सम्पादन</w>":4902,"ठी</w>":4903,"पठाइएको</w>":4904,"अन्तरि":4905,"स्वीकृति</w>":4906,"उपत्यकामा</w>":4907,"बगा":4908,"पार्क</w>":4909,"घोषणा":4910,"धनकु":4911,"प्राथमिकतामा</w>":4912,"नपछि</w>":4913,"धनुष":4914,"साको</w>":4915,"इसकेको</w>":4916,"भित्रका</w>":4917,"अर्थतन्त्र</w>":4918,"ललितपुर</w>":4919,"सुदृ":4920,"नगर्न</w>":4921,"उपस्थिति</w>":4922,"वर्षपछि</w>":4923,"देशले</w>":4924,"काल":4925,"झापा</w>":4926,"अक्":4927,"६९</w>":4928,"स्थान":4929,"प्रतिपक्षको</w>":4930,"नाल्":4931,"सुब्बा</w>":4932,"मेसि":4933,"आचार्य</w>":4934,"बजेसम्म</w>":4935,"मोर्चा":4936,"नेपाललाइभमा</w>":4937,"आचार्यले</w>":4938,"भाषामा</w>":4939,"उपयोग</w>":4940,"विघटन</w>":4941,"धन्य":4942,"राखे":4943,"फर्क":4944,"शुभकामना</w>":4945,"सेना":4946,"त्तिकै</w>":4947,"वडामा</w>":4948,"लीबाट</w>":4949,"क्षा":4950,"कलेज</w>":4951,"दीर्घ":4952,"खनाल</w>":4953,"नुको</w>":4954,"जलविद्युत्</w>":4955,"क्षति":4956,"सोच":4957,"उद्देश्य</w>":4958,"युनाइ":4959,"विमानस्थलमा</w>":4960,"भन्ने":4961,"मानिसको</w>":4962,"तिकै</w>":4963,"दिशा":4964,"उपमहानगरपालिका</w>":4965,"गीत":4966,"प्रक्रियामा</w>":4967,"वाको</w>":4968,"योजनामा</w>":4969,"कहिल्यै</w>":4970,"माझ":4971,"जुम्":4972,"बडो</w>":4973,"लैजाने</w>":4974,"नेपालीको</w>":4975,"अमेरिकाको</w>":4976,"भूकम्प</w>":4977,"पला":4978,"पुस्ता":4979,"राहा":4980,"अफ्रि":4981,"दैछन्</w>":4982,"संख्यामा</w>":4983,"मकवान":4984,"वित्त</w>":4985,"रहन्छ</w>":4986,"किसानले</w>":4987,"अपा":4988,"प्रशिक्षण</w>":4989,"देख्":4990,"पाण्डे</w>":4991,"तिर्":4992,"चढ":4993,"आश्":4994,"सिल":4995,"कर्ष</w>":4996,"फोटो</w>":4997,"प्रहरीका</w>":4998,"वानी</w>":4999,"मृत</w>":5000,"कोइरालाले</w>":5001,"औद्योगिक</w>":5002,"काभ्र":5003,"सूची</w>":5004,"बाबु</w>":5005,"सूचनाको</w>":5006,"मबहादुर</w>":5007,"पुलि":5008,"सङ्क्रमित</w>":5009,"बारमा</w>":5010,"न्थे</w>":5011,"प्रतिबन्ध</w>":5012,"बुझ्":5013,"सङ्क्रम":5014,"वेदन":5015,"अघि":5016,"सञ्चालित</w>":5017,"ज्ञाने":5018,"इन्स्पे":5019,"दसै":5020,"पठाउन</w>":5021,"वर्षसम्म</w>":5022,"टलाई</w>":5023,"रोकथा":5024,"डाको</w>":5025,"न्ध":5026,"डेढ</w>":5027,"श्रमि":5028,"भण्डारीको</w>":5029,"हालै</w>":5030,"राजा":5031,"मणि</w>":5032,"सम्हा":5033,"स्वदेश</w>":5034,"८८</w>":5035,"भिडियो":5036,"निर्धा":5037,"हर्":5038,"ग्री</w>":5039,"इलाका</w>":5040,"रिट</w>":5041,"स्ना":5042,"हुनेमा</w>":5043,"लेखेका</w>":5044,"खोटा":5045,"कलाकार</w>":5046,"महिलालाई</w>":5047,"दरले</w>":5048,"विमान</w>":5049,"प्रोत्सा":5050,"लगायतको</w>":5051,"संहि":5052,"गौर":5053,"निर्वाह</w>":5054,"अल्प":5055,"चारमा</w>":5056,"टे</w>":5057,"राप्रपा</w>":5058,"समूहमा</w>":5059,"२०८१</w>":5060,"तथ्य</w>":5061,"पोखरेल</w>":5062,"सजिलो</w>":5063,"शाहीले</w>":5064,"कल्पिक</w>":5065,"लेक्":5066,"न्स":5067,"कर्ता</w>":5068,"प्रिमि":5069,"लाई":5070,"अमेरिकामा</w>":5071,"जसपा</w>":5072,"मधु":5073,"रही</w>":5074,"लाग्न</w>":5075,"गतिविधि":5076,"मङ्गल":5077,"संय":5078,"लेखा</w>":5079,"उत्रि":5080,"बच्चा":5081,"प्रतिपक्षी</w>":5082,"विजय</w>":5083,"राज्यले</w>":5084,"नियन्त्रणका</w>":5085,"गौतम</w>":5086,"नियुक्ति</w>":5087,"तोकेको</w>":5088,"जात</w>":5089,"गाह्रो</w>":5090,"रुपन्देहीमा</w>":5091,"पानीपोखरी</w>":5092,"पाए</w>":5093,"मधेस</w>":5094,"जटि":5095,"क्लि":5096,"फ्या":5097,"मुक्ति</w>":5098,"बजेदेखि</w>":5099,"चालू</w>":5100,"पराज":5101,"तलब</w>":5102,"उपत्यका</w>":5103,"इन्स्पेक्टर</w>":5104,"श्रीमती</w>":5105,"गठबन्धनको</w>":5106,"मूल्यमा</w>":5107,"छा</w>":5108,"कदम</w>":5109,"ङलाई</w>":5110,"इन्डि":5111,"प्रधानन्यायाधीश</w>":5112,"खाद्या":5113,"पोखरामा</w>":5114,"बहादु":5115,"म्म":5116,"पात</w>":5117,"ट्रिक</w>":5118,"लाइन्":5119,"रात</w>":5120,"बुद्ध</w>":5121,"फैलिएको</w>":5122,"तथ्यांक</w>":5123,"श्वर":5124,"भाडा</w>":5125,"त्न</w>":5126,"कम्पनीका</w>":5127,"बोकेर</w>":5128,"मीको</w>":5129,"स्रोतले</w>":5130,"उको</w>":5131,"आदि</w>":5132,"घुम्":5133,"चिकित्सक</w>":5134,"पुगे":5135,"लिखित</w>":5136,"विराटनगर":5137,"व्यस्त</w>":5138,"उखान</w>":5139,"लेले</w>":5140,"नभएका</w>":5141,"कुँ":5142,"रेन्द्र":5143,"धर्म</w>":5144,"पछिल्ला</w>":5145,"प्रकरणका</w>":5146,"सचिवालय</w>":5147,"पारि</w>":5148,"गढी</w>":5149,"रक्त":5150,"गराए</w>":5151,"बया":5152,"जै":5153,"सघाएको</w>":5154,"गोवि":5155,"शाह</w>":5156,"बेन्चमा</w>":5157,"परिवारको</w>":5158,"तनहुँ":5159,"स्मरण</w>":5160,"सिक्":5161,"यहाँको</w>":5162,"जिम्मेवार</w>":5163,"निर्धारित</w>":5164,"आधुनिक</w>":5165,"लालाई</w>":5166,"महर्":5167,"व्यापक</w>":5168,"निर्वाचनका</w>":5169,"यात्रु</w>":5170,"खोलामा</w>":5171,"मानसिक</w>":5172,"कोे</w>":5173,"रनमा</w>":5174,"चितवनको</w>":5175,"कार्ड</w>":5176,"भत्का":5177,"रेकर्":5178,"कसैलाई</w>":5179,"सन्ता":5180,"धन्यवाद</w>":5181,"त्यसै":5182,"मार्फत्</w>":5183,"कर्मी":5184,"तौ":5185,"पुँजी":5186,"कूट":5187,"मञ्":5188,"ज्व":5189,"ध्यापक</w>":5190,"बहुचर्चित</w>":5191,"माथिल्लो</w>":5192,"रुकु":5193,"प्रकरणमा</w>":5194,"कुराकानी</w>":5195,"खतिवडा":5196,"रमेश</w>":5197,"राम्र":5198,"ठेके":5199,"ध्":5200,"गन</w>":5201,"निषेधा":5202,"८७</w>":5203,"पुराना</w>":5204,"करणका</w>":5205,"ङ्गो</w>":5206,"८६</w>":5207,"विक्रम</w>":5208,"प्रकारका</w>":5209,"ङबीच</w>":5210,"रल</w>":5211,"चित्रको</w>":5212,"भु</w>":5213,"चलिरहेको</w>":5214,"परे</w>":5215,"अन्य":5216,"पक्षका</w>":5217,"स्वर्ण</w>":5218,"श्य</w>":5219,"बिरामीको</w>":5220,"म्भ</w>":5221,"बेच":5222,"पुरा</w>":5223,"सेवामा</w>":5224,"रज":5225,"हुनाले</w>":5226,"मात्रामा</w>":5227,"चल्ने</w>":5228,"आत":5229,"सकीय</w>":5230,"छुट्या":5231,"लागत</w>":5232,"धो":5233,"कर्मचारीलाई</w>":5234,"युनिय":5235,"एकाे</w>":5236,"उखा":5237,"नपाउने</w>":5238,"आन्दोलनमा</w>":5239,"९२</w>":5240,"प्रतिनिधित्व</w>":5241,"सोच</w>":5242,"पाँचौं</w>":5243,"वैकल्पिक</w>":5244,"शहर":5245,"उत्पादनमा</w>":5246,"ब्याटिङ</w>":5247,"लम":5248,"मानवीय</w>":5249,"बजेटमा</w>":5250,"आयोजक</w>":5251,"विश्वका</w>":5252,"राख्दै</w>":5253,"बमा</w>":5254,"नगरपालिका":5255,"कर्णा":5256,"प्रावधान</w>":5257,"सुनुवाइ</w>":5258,"जलवायु</w>":5259,"कार्यकाल</w>":5260,"निकालेको</w>":5261,"ज्येष्":5262,"बाध्यता</w>":5263,"ठो</w>":5264,"हलमा</w>":5265,"ढुंगा":5266,"शान्ति":5267,"भाविक</w>":5268,"ल्याएका</w>":5269,"दाको</w>":5270,"जीको</w>":5271,"करणमा</w>":5272,"सिम":5273,"घिमिरेले</w>":5274,"बिदा</w>":5275,"विद्यार्थीलाई</w>":5276,"दिँदा</w>":5277,"दावी</w>":5278,"रुपैयाँमा</w>":5279,"पछिको</w>":5280,"टि</w>":5281,"घे":5282,"मेगावाट</w>":5283,"वीर</w>":5284,"सगर":5285,"वाग्":5286,"फ्र":5287,"बस्दै</w>":5288,"अस्थायी</w>":5289,"सारमा</w>":5290,"वं":5291,"तै":5292,"झन्</w>":5293,"शब्द</w>":5294,"रम</w>":5295,"राँ":5296,"फोहोर</w>":5297,"करी":5298,"तन</w>":5299,"नमु":5300,"परिसर":5301,"खनालले</w>":5302,"ग्रामी":5303,"कैद</w>":5304,"एकै":5305,"आगो</w>":5306,"सञ्जालमा</w>":5307,"उड्डयन</w>":5308,"बस्नेतले</w>":5309,"जोखिममा</w>":5310,"स्मृ":5311,"मोहन</w>":5312,"ताल":5313,"कुर्":5314,"गुल्":5315,"मिनेट</w>":5316,"पावर</w>":5317,"विष्णु</w>":5318,"बढे":5319,"मद्द":5320,"माधवकुमार</w>":5321,"सत्य</w>":5322,"सामू":5323,"प्रतिवेदनमा</w>":5324,"आंशिक</w>":5325,"लामिछानेसँग</w>":5326,"टु</w>":5327,"बेचन</w>":5328,"स्टो":5329,"विपक्षी</w>":5330,"अतिरिक्त</w>":5331,"अस्पताल":5332,"तस्करलाई</w>":5333,"सञ्चारमाध्य":5334,"इतिहास</w>":5335,"विचित्रको</w>":5336,"इमा</w>":5337,"ट्टा":5338,"चोरी</w>":5339,"महाशाखाले</w>":5340,"शः</w>":5341,"बम</w>":5342,"मैत्री</w>":5343,"ग्रामीण</w>":5344,"पुनले</w>":5345,"खतरा</w>":5346,"सुरुमा</w>":5347,"२०२०</w>":5348,"शुक्":5349,"आधिकारिक</w>":5350,"स्फो":5351,"गभर्":5352,"चलाउन</w>":5353,"समुदायको</w>":5354,"ब्जा</w>":5355,"संकेत</w>":5356,"सिटी</w>":5357,"एकल</w>":5358,"स्वदेश":5359,"अलि</w>":5360,"८९</w>":5361,"प्रविधिमन्त्री</w>":5362,"हल्का</w>":5363,"खड्कामाथि</w>":5364,"९८</w>":5365,"याउन</w>":5366,"सदस्यमा</w>":5367,"खालको</w>":5368,"द्रा":5369,"पनी</w>":5370,"लम्बन</w>":5371,"हटाउन</w>":5372,"नेका</w>":5373,"विज्ञप्ति</w>":5374,"मुखी</w>":5375,"फुस्सा</w>":5376,"रोक</w>":5377,"मर्मत</w>":5378,"अवार्ड</w>":5379,"नेपालगन्":5380,"पारे</w>":5381,"तृ</w>":5382,"प्रतिव":5383,"टुंगो</w>":5384,"उखानै</w>":5385,"सुवेद":5386,"घिसिङबीच</w>":5387,"जरिवाना</w>":5388,"बिजुली</w>":5389,"निष्कर्ष</w>":5390,"भोलि":5391,"संक":5392,"पार्टीलाई</w>":5393,"पामा</w>":5394,"मानित</w>":5395,"वु":5396,"मेरा</w>":5397,"सुनिश्चित</w>":5398,"एमसीसी</w>":5399,"थाले</w>":5400,"करोड":5401,"भूति</w>":5402,"मङ्":5403,"उपाध्यक्ष":5404,"विष्ट":5405,"डाक्टर</w>":5406,"पसल</w>":5407,"काय":5408,"क्रियाकला":5409,"रेका</w>":5410,"२०७२</w>":5411,"मुग्":5412,"फर</w>":5413,"बुझ्न</w>":5414,"महामारी</w>":5415,"प्रकारको</w>":5416,"दिरा</w>":5417,"झन्ड":5418,"शिक्षण</w>":5419,"महँ":5420,"द्रा</w>":5421,"धनको</w>":5422,"सक्यो</w>":5423,"अगा":5424,"ज्येष्ठ</w>":5425,"सहितका</w>":5426,"सदस्यको</w>":5427,"भोट</w>":5428,"एकजना</w>":5429,"सामान्य":5430,"असु":5431,"प्रमाण</w>":5432,"विश्वव्यापी</w>":5433,"काजी</w>":5434,"दिगो</w>":5435,"शाहले</w>":5436,"जामा</w>":5437,"महोत्त":5438,"सीका</w>":5439,"महिलाले</w>":5440,"सुशासन</w>":5441,"बोकेको</w>":5442,"९३</w>":5443,"कट्":5444,"सिस</w>":5445,"मानिन्छ</w>":5446,"पन्थ":5447,"पटक":5448,"नमा":5449,"हुनसक्छ</w>":5450,"गएपछि</w>":5451,"बुटवल</w>":5452,"किर</w>":5453,"दिनदेखि</w>":5454,"नपर्ने</w>":5455,"लाभ":5456,"अमेरिकाले</w>":5457,"दीले</w>":5458,"भइसकेका</w>":5459,"कपि":5460,"विद्रो":5461,"मुस्ता":5462,"मौका</w>":5463,"झन्डै</w>":5464,"जलस्रोत</w>":5465,"सञ्जाल</w>":5466,"च्ने</w>":5467,"खेती":5468,"सूर्य":5469,"तालिका</w>":5470,"बैत":5471,"बोल्":5472,"सर्ला":5473,"जागि":5474,"संघर्ष</w>":5475,"मात्रा</w>":5476,"विधान</w>":5477,"मूर्":5478,"स्टर</w>":5479,"स्थिर":5480,"तर्फको</w>":5481,"गयो</w>":5482,"ओलीलाई</w>":5483,"बिता":5484,"निया":5485,"सङ्ख्या":5486,"जङ्ग":5487,"हातमा</w>":5488,"मौलिक</w>":5489,"रीबाट</w>":5490,"जनले</w>":5491,"चलाउने</w>":5492,"तया</w>":5493,"वेक्ष":5494,"वन्य":5495,"पारेर</w>":5496,"अष्ट्रे":5497,"ठहर</w>":5498,"कामदा":5499,"खेलाडी":5500,"मार्गको</w>":5501,"तोला</w>":5502,"उनमा</w>":5503,"अध्यक्षमा</w>":5504,"रूपैयाँ</w>":5505,"ग्लोबल</w>":5506,"न्दु</w>":5507,"विनो":5508,"डाय":5509,"न्त्री</w>":5510,"९६</w>":5511,"अत्यधिक</w>":5512,"पढ्":5513,"उपप्रमुख</w>":5514,"फ्रान्":5515,"हुनेको</w>":5516,"मनाउने</w>":5517,"कार्यक्रमलाई</w>":5518,"मधेश</w>":5519,"र्ड</w>":5520,"नेताहरु</w>":5521,"द्रिक</w>":5522,"विपद":5523,"साहले</w>":5524,"हिउँ":5525,"९७</w>":5526,"प्रविधिको</w>":5527,"लगाए</w>":5528,"गाय":5529,"जनता":5530,"समीक्षा</w>":5531,"दार्":5532,"नसकिने</w>":5533,"पूँ":5534,"निक":5535,"भ्रमणमा</w>":5536,"जय</w>":5537,"सरस्व":5538,"विप्ल":5539,"जनाउँदै</w>":5540,"वन्यजन्त":5541,"चलेको</w>":5542,"बैंकिङ</w>":5543,"याे</w>":5544,"अख्तियार</w>":5545,"विकासम":5546,"फिल्ममा</w>":5547,"चारीले</w>":5548,"डिजा":5549,"मृत":5550,"जिकिर</w>":5551,"९१</w>":5552,"क्रमशः</w>":5553,"मनोन":5554,"लगायतले</w>":5555,"व्यवसायीले</w>":5556,"रि</w>":5557,"गणतन्त्र</w>":5558,"दका</w>":5559,"अति</w>":5560,"सरी</w>":5561,"जान्छ</w>":5562,"हमा":5563,"दुईवटा</w>":5564,"कानुन":5565,"सुरुवात</w>":5566,"बैङ्":5567,"आवास":5568,"फार्":5569,"अरू":5570,"अभियानमा</w>":5571,"जनाए</w>":5572,"बसि":5573,"नसि":5574,"प्रवर्द्ध":5575,"पुगे</w>":5576,"लिटर</w>":5577,"डट</w>":5578,"अवधि</w>":5579,"सुनाए</w>":5580,"अर्थात</w>":5581,"जमिन</w>":5582,"ब्यु":5583,"आफु":5584,"सुख":5585,"तराई":5586,"मकै</w>":5587,"कपमा</w>":5588,"खासै</w>":5589,"कर्मचारीले</w>":5590,"हिमाल</w>":5591,"जसको</w>":5592,"सल":5593,"जापान</w>":5594,"सरकारबाट</w>":5595,"क्षमताको</w>":5596,"पदक</w>":5597,"देखियो</w>":5598,"लागु":5599,"श्रेष्ठको</w>":5600,"टिएको</w>":5601,"किनभने</w>":5602,"कारवाही</w>":5603,"हाउ":5604,"सामूहिक</w>":5605,"कारी":5606,"नसमेत</w>":5607,"ठ्या":5608,"जलाई</w>":5609,"कल्या":5610,"निङ</w>":5611,"५००</w>":5612,"यात्रामा</w>":5613,"गुणस्तरीय</w>":5614,"परिवार":5615,"बसाइ":5616,"टार</w>":5617,"राणा":5618,"९४</w>":5619,"जस्ती</w>":5620,"जोगाउन</w>":5621,"इच्":5622,"हरूबाट</w>":5623,"महेन्द्र":5624,"घन्":5625,"अक्सिजन</w>":5626,"लामाले</w>":5627,"मातह":5628,"रुपैयाँको</w>":5629,"हकमा</w>":5630,"दुबै</w>":5631,"परामर्श</w>":5632,"लोकप्रिय</w>":5633,"उद्देश्य":5634,"सेवाको</w>":5635,"अस्ट्रे":5636,"विकासमन्त्री</w>":5637,"प्रहरीलाई</w>":5638,"वितरण":5639,"तरिकाले</w>":5640,"बढु":5641,"चरि":5642,"लगाइ":5643,"बेहो":5644,"सुन्त":5645,"त्यतिबेला</w>":5646,"न्डर</w>":5647,"टीका":5648,"अलपत्र</w>":5649,"विश्लेषण</w>":5650,"महत्व</w>":5651,"अर्को":5652,"बढिरहेको</w>":5653,"विश्वविद्यालय</w>":5654,"सत्य":5655,"विभाजन</w>":5656,"राजमार्ग</w>":5657,"बारी</w>":5658,"ङक":5659,"गोरखा</w>":5660,"छौ</w>":5661,"पुग्यो</w>":5662,"विभे":5663,"गोरखा":5664,"कलाकार":5665,"मार्गमा</w>":5666,"स्पि":5667,"अब":5668,"यसैबीच</w>":5669,"चारको</w>":5670,"असफल</w>":5671,"गठबन्धनका</w>":5672,"ंग्":5673,"प्रभावका</w>":5674,"हिंसा</w>":5675,"परम्परागत</w>":5676,"पत्रि":5677,"बन्धक</w>":5678,"विज्ञ</w>":5679,"बचत</w>":5680,"नेप्से</w>":5681,"भूकम्प":5682,"खर्च":5683,"ग्राहक":5684,"क्ट</w>":5685,"समावे":5686,"यरमा</w>":5687,"नष्ट</w>":5688,"मतको</w>":5689,"ट्स</w>":5690,"इन":5691,"आरोह":5692,"प्रशं":5693,"गर्छु</w>":5694,"मारि":5695,"विष्णु":5696,"विशा":5697,"आबद्ध</w>":5698,"खण्ड</w>":5699,"डल":5700,"करीब</w>":5701,"मेला</w>":5702,"उपकरण</w>":5703,"कार्यविधि</w>":5704,"ठक्":5705,"विभागको</w>":5706,"घरमै</w>":5707,"थिएनन्</w>":5708,"प्रशासनले</w>":5709,"बच्चा</w>":5710,"वस्तुको</w>":5711,"संस्थाका</w>":5712,"एजेन्सी</w>":5713,"बसे":5714,"जाँदै</w>":5715,"मय</w>":5716,"डिस्":5717,"हैसि":5718,"स्तरो":5719,"क्सा":5720,"भनिन्छ</w>":5721,"नीतिगत</w>":5722,"मिश्र":5723,"एक्ल":5724,"विवे":5725,"हेरेर</w>":5726,"भट्":5727,"राष्ट्रपतिको</w>":5728,"विपद्</w>":5729,"उपचारको</w>":5730,"प्रकाशमान</w>":5731,"चाप</w>":5732,"मैदान</w>":5733,"विना":5734,"अङ्":5735,"संयोजक":5736,"मौद्रिक</w>":5737,"योजनाको</w>":5738,"सिङ</w>":5739,"सीलाई</w>":5740,"एशि":5741,"लेन्":5742,"प्रश":5743,"नवलपरा":5744,"याताया":5745,"बोर्ड</w>":5746,"लाभा":5747,"संवेदन":5748,"रेश":5749,"कपडा</w>":5750,"चामा</w>":5751,"जीवनमा</w>":5752,"०१</w>":5753,"दले</w>":5754,"दूतावा":5755,"हरि</w>":5756,"माका</w>":5757,"रुपियाँ</w>":5758,"उत्पादित</w>":5759,"प्राप्":5760,"परिवारले</w>":5761,"अधिक":5762,"चाड":5763,"सकेनन्</w>":5764,"किसानलाई</w>":5765,"तारि":5766,"फर्किएका</w>":5767,"केहि</w>":5768,"डब्":5769,"संस्थापक</w>":5770,"ब्याज</w>":5771,"नीलाई</w>":5772,"वर्षे</w>":5773,"दृष्टिको":5774,"तस्बिर</w>":5775,"आगलागी</w>":5776,"विकसित</w>":5777,"धनगढी</w>":5778,"सहर</w>":5779,"हुँदा":5780,"याएको</w>":5781,"बर्ष</w>":5782,"प्ने</w>":5783,"स्पद</w>":5784,"विद्यार्थीको</w>":5785,"भेला</w>":5786,"फ्रे":5787,"एयरलाइन्":5788,"बराबरी</w>":5789,"प्रादेशिक</w>":5790,"अनुसारको</w>":5791,"दायी</w>":5792,"प्राय":5793,"गायक</w>":5794,"एम्बु":5795,"साथमा</w>":5796,"ढी":5797,"ट्टै</w>":5798,"लक्षण</w>":5799,"अध्यक्षतामा</w>":5800,"लयमा</w>":5801,"परिसूचक</w>":5802,"म्प</w>":5803,"दाङ</w>":5804,"आवासीय</w>":5805,"सल्लाहकार</w>":5806,"हुन्न</w>":5807,"छोटो</w>":5808,"हाल्":5809,"बाली</w>":5810,"मध्यम</w>":5811,"जिम्मेवा":5812,"रातो</w>":5813,"तीलाई</w>":5814,"जितेर</w>":5815,"शंकर</w>":5816,"परिषद्</w>":5817,"सिँचाइ":5818,"शङ्":5819,"विस्फो":5820,"यसबारे</w>":5821,"कास्क":5822,"वैज्ञानिक</w>":5823,"निष्का":5824,"भक्त</w>":5825,"प्रतिनिधिसभाको</w>":5826,"ीयता</w>":5827,"सेवन</w>":5828,"स्तरोन्न":5829,"गर्यो</w>":5830,"सेल्":5831,"खेलेको</w>":5832,"ँले</w>":5833,"हङक":5834,"लामिछानेले</w>":5835,"बन्यो</w>":5836,"पल्ट</w>":5837,"एपनि</w>":5838,"देख्न</w>":5839,"औषध</w>":5840,"लडा":5841,"शास्त्र":5842,"ठीक</w>":5843,"चिकित्सा</w>":5844,"मनमा</w>":5845,"प्याके":5846,"राखी</w>":5847,"दिन्छ</w>":5848,"पथ":5849,"दशक":5850,"संचालन</w>":5851,"शरण</w>":5852,"ज्यो":5853,"इन्द्र":5854,"क्रान्ति":5855,"निगरा":5856,"स्वरुप</w>":5857,"बाल</w>":5858,"विद्यालयको</w>":5859,"न्तै</w>":5860,"विस्त":5861,"भ्य":5862,"बसा":5863,"कानूनी</w>":5864,"भाइ</w>":5865,"खुशी</w>":5866,"समुद्रपारि</w>":5867,"त्वको</w>":5868,"एसियाली</w>":5869,"बाबुराम</w>":5870,"ईमा</w>":5871,"जग":5872,"दिइने</w>":5873,"बुँदे</w>":5874,"नाथ":5875,"मन्त्रीको</w>":5876,"रौतह":5877,"नागरिकले</w>":5878,"अगु":5879,"उपभोक्":5880,"नरत</w>":5881,"राष्ट्रियसभा":5882,"सङ्घका</w>":5883,"बरु</w>":5884,"कास्की</w>":5885,"क्रियाशील</w>":5886,"जोड":5887,"रवि":5888,"टेका</w>":5889,"क्षी</w>":5890,"लियो</w>":5891,"परम्प":5892,"सन्दीप</w>":5893,"पछ्या":5894,"गतिमा</w>":5895,"प्रबन्ध</w>":5896,"बू":5897,"नदिन</w>":5898,"अथ":5899,"प्रोत्साहन</w>":5900,"ठुलो</w>":5901,"धानका</w>":5902,"कसैको</w>":5903,"शुरु":5904,"जिङ</w>":5905,"स्टार</w>":5906,"नियमावली</w>":5907,"नेकपाका</w>":5908,"अन्नपूर्ण</w>":5909,"वती</w>":5910,"पाट":5911,"सीआर</w>":5912,"जब":5913,"धम्":5914,"किता":5915,"रोगको</w>":5916,"अबको</w>":5917,"ठोक्":5918,"परम्परा</w>":5919,"मन्त्रिपरिषद्को</w>":5920,"मित्र":5921,"एफ</w>":5922,"राखे</w>":5923,"जाति</w>":5924,"चिया</w>":5925,"जीकरण</w>":5926,"बलको</w>":5927,"पक्षीय</w>":5928,"लैजान</w>":5929,"विद्</w>":5930,"किसिमको</w>":5931,"बसोबास</w>":5932,"प्रहरी":5933,"सिन्धुपाल्":5934,"लिइएको</w>":5935,"तल्लो</w>":5936,"लम्साल</w>":5937,"रोपनी</w>":5938,"निरीक्ष":5939,"अलग</w>":5940,"निर्माणा":5941,"नेताहरू</w>":5942,"प्रशासकीय</w>":5943,"गाउँका</w>":5944,"गणेश</w>":5945,"षा":5946,"निर्णा":5947,"रसम्म</w>":5948,"गरेकाले</w>":5949,"मापदण्ड":5950,"एनआर":5951,"स्कुल</w>":5952,"अभियोग":5953,"आफैं</w>":5954,"तित</w>":5955,"नेताहरुले</w>":5956,"स्यौ":5957,"ब्रे":5958,"धनी</w>":5959,"घिमिरे</w>":5960,"संक्रमण":5961,"पाउँ":5962,"दिइन्</w>":5963,"व्र":5964,"ह्न</w>":5965,"आजै</w>":5966,"र्य</w>":5967,"यतिबेला</w>":5968,"साउदी</w>":5969,"पालन</w>":5970,"अध्यादेश</w>":5971,"निजा":5972,"जन्मि":5973,"नियमित":5974,"हैन</w>":5975,"विशि":5976,"द्र</w>":5977,"संक्रमणको</w>":5978,"स्याङ्":5979,"क्न</w>":5980,"खडा</w>":5981,"इन्टरनेट</w>":5982,"समस्यामा</w>":5983,"सम्झौता":5984,"धादि":5985,"संविधानले</w>":5986,"मास्क</w>":5987,"हामीसँग</w>":5988,"प्रधानमन्त्री":5989,"पार्टीभित्रको</w>":5990,"वाम":5991,"माध्यमिक</w>":5992,"पाठ्य":5993,"सिमा":5994,"मन्त्रीले</w>":5995,"यरको</w>":5996,"ठमा</w>":5997,"आँखा":5998,"प्यु":5999,"तथ्याङ्क</w>":6000,"सुदूरपश्चि":6001,"नाका":6002,"अस्वीकार</w>":6003,"पञ्च":6004,"ट्वी":6005,"विहीन</w>":6006,"नेट":6007,"बजेटको</w>":6008,"प्रमाणपत्र</w>":6009,"रूप":6010,"सदस्यले</w>":6011,"गुणस्तर</w>":6012,"ग्रस्त</w>":6013,"पूर्वाधा":6014,"रेश</w>":6015,"खराब</w>":6016,"अफि":6017,"छिट्टै</w>":6018,"सिना</w>":6019,"टाढा</w>":6020,"अभिव्यक्ति</w>":6021,"भीम":6022,"कार्यकालको</w>":6023,"ठगी</w>":6024,"सालले</w>":6025,"हजारभन्दा</w>":6026,"प्रणालीमा</w>":6027,"खल":6028,"महानगरीय</w>":6029,"डै</w>":6030,"र्ण</w>":6031,"वाला</w>":6032,"चन्द":6033,"नक</w>":6034,"अनुमो":6035,"गीतमा</w>":6036,"क्यान्सर</w>":6037,"सिँचाइ</w>":6038,"कल्पना</w>":6039,"छाडेर</w>":6040,"सनल</w>":6041,"पूर्णि":6042,"विरोधी</w>":6043,"चिसो</w>":6044,"गराइएको</w>":6045,"सल्लाह</w>":6046,"शेरचन</w>":6047,"चट्या":6048,"हाइड्रो":6049,"तराई</w>":6050,"वास्ता</w>":6051,"नामक</w>":6052,"अन्तर्गतको</w>":6053,"स्वि":6054,"काला":6055,"पर्यटकको</w>":6056,"व्यवस्थापनमा</w>":6057,"स्वास्थ्यमा</w>":6058,"मुलुकका</w>":6059,"लिगको</w>":6060,"भएका":6061,"हरुबाट</w>":6062,"हप्ता</w>":6063,"आत्मह":6064,"बाढीले</w>":6065,"अवलोकन</w>":6066,"रिया":6067,"घर्":6068,"शौ":6069,"फिल्मको</w>":6070,"जम्":6071,"कालोपत्र":6072,"सुदृढ</w>":6073,"मस्यौ":6074,"देखिएपछि</w>":6075,"बिर्":6076,"टिन</w>":6077,"सापकोटाले</w>":6078,"हतियार</w>":6079,"काउने</w>":6080,"राजनीति":6081,"पक":6082,"पक्षको</w>":6083,"चन्द</w>":6084,"पत्रिका</w>":6085,"म्वा":6086,"आशि":6087,"अब्":6088,"घाटा</w>":6089,"पाटन</w>":6090,"आमाको</w>":6091,"किल</w>":6092,"पश्चिमी</w>":6093,"सैन्य</w>":6094,"शेर</w>":6095,"बागलुङ</w>":6096,"तहले</w>":6097,"खसेको</w>":6098,"विवा":6099,"बताउनु</w>":6100,"प्रतिको</w>":6101,"मन्दिरमा</w>":6102,"गहि":6103,"पर्दा":6104,"२०१९</w>":6105,"भरी</w>":6106,"यौन</w>":6107,"पर्दछ</w>":6108,"भट्टराई":6109,"चाहेको</w>":6110,"एकद":6111,"शक्तिको</w>":6112,"सन्तोष</w>":6113,"ल्याइ":6114,"माओवादीले</w>":6115,"विश्वकर्":6116,"वे</w>":6117,"नुपरेको</w>":6118,"क्वारेन्टाइ":6119,"भैरह":6120,"लेख्":6121,"झे":6122,"खेलेका</w>":6123,"समयसम्म</w>":6124,"शारी":6125,"प्रवद्र्धन</w>":6126,"सिए":6127,"दोषी</w>":6128,"बार्सि":6129,"मोरङ</w>":6130,"दिल्ली</w>":6131,"हराएको</w>":6132,"बुझाएको</w>":6133,"जातीय</w>":6134,"थि</w>":6135,"स्तरको</w>":6136,"दश</w>":6137,"धको</w>":6138,"तनहुँ</w>":6139,"विवि":6140,"उनुभयो</w>":6141,"समृद्ध</w>":6142,"शपथ</w>":6143,"लेखेको</w>":6144,"मद्दत</w>":6145,"किएका</w>":6146,"ब्रु":6147,"बार्सिलो":6148,"साझेदारी</w>":6149,"मुम्ब":6150,"विवरण":6151,"कटौ":6152,"दूध</w>":6153,"केवल</w>":6154,"आकर्षक</w>":6155,"माघ":6156,"नबहादुर</w>":6157,"आव</w>":6158,"प्रस्ताव":6159,"आयु":6160,"सिट":6161,"बैठकको</w>":6162,"स्वामि":6163,"कुशल</w>":6164,"नसके":6165,"निकायले</w>":6166,"स्थानीयवास":6167,"प्रको":6168,"खाता</w>":6169,"नौं</w>":6170,"हामी":6171,"कार्यक्रमका</w>":6172,"समानुपातिक</w>":6173,"वालले</w>":6174,"मेह":6175,"मिर्":6176,"अनौ":6177,"भलि":6178,"सुनसर":6179,"संगीत</w>":6180,"ताप्ले":6181,"बनाउँदै</w>":6182,"मध्य</w>":6183,"उपाय</w>":6184,"पाकिस्तान</w>":6185,"उदाहरण</w>":6186,"प्रचार":6187,"क्स":6188,"हाराहा":6189,"सरस्वती</w>":6190,"दिनुभएको</w>":6191,"समृद्धि</w>":6192,"अत्यावश्यक</w>":6193,"क्यु":6194,"ताप्लेजु":6195,"गिरी</w>":6196,"जनमा</w>":6197,"उता</w>":6198,"लोकतन्त्र</w>":6199,"थर</w>":6200,"सेव":6201,"परराष्ट्र":6202,"सक्नेछन्</w>":6203,"लेन्स</w>":6204,"वामा</w>":6205,"आकर्षित</w>":6206,"निमि":6207,"बोर्डले</w>":6208,"थाल्":6209,"कित</w>":6210,"लियम</w>":6211,"समस्याको</w>":6212,"किशोर</w>":6213,"जाजर":6214,"प्रतितोला</w>":6215,"फलफूल</w>":6216,"दिनअघि</w>":6217,"सभाबाट</w>":6218,"खु</w>":6219,"हीका</w>":6220,"चीन":6221,"तट":6222,"लेन</w>":6223,"खाद्यान्न</w>":6224,"राना</w>":6225,"संसदको</w>":6226,"मजदु":6227,"भाँ":6228,"गणेश":6229,"गै</w>":6230,"उपेन्द्र</w>":6231,"जुटा":6232,"श्रीमा":6233,"परिया":6234,"दुःख":6235,"जला":6236,"अधिकतम</w>":6237,"क्सन</w>":6238,"सुरू</w>":6239,"बस्नेत</w>":6240,"विस्तृत</w>":6241,"कु</w>":6242,"दिक</w>":6243,"स्मृति</w>":6244,"आश्र":6245,"रुपा":6246,"टेल</w>":6247,"रणनीति</w>":6248,"कसु":6249,"गार्":6250,"विशाल</w>":6251,"प्रष्ट</w>":6252,"जनमत</w>":6253,"म्यु":6254,"अभिने":6255,"सीप</w>":6256,"शरीरमा</w>":6257,"शारीरिक</w>":6258,"कालमा</w>":6259,"कहिले":6260,"अधिवक्ता</w>":6261,"एनसे":6262,"तीका</w>":6263,"पराजु":6264,"बिमा</w>":6265,"बुटव":6266,"नारायणगढ</w>":6267,"बिस्ता":6268,"विविध</w>":6269,"केजी</w>":6270,"पृथ्वीसुब्बा</w>":6271,"आक्रो":6272,"संसद्मा</w>":6273,"ौला</w>":6274,"डडे":6275,"जिते":6276,"कर्त":6277,"ध्व":6278,"महानगरले</w>":6279,"पारेका</w>":6280,"स्ट्र":6281,"प्टे":6282,"प्रती":6283,"रेकर्ड</w>":6284,"त्यसै</w>":6285,"पलाई</w>":6286,"ऋष":6287,"नपाएको</w>":6288,"द्वय</w>":6289,"चक्र":6290,"सूर्य</w>":6291,"मञ्च":6292,"गोविन्द</w>":6293,"नेपालबाट</w>":6294,"होम</w>":6295,"ेसन</w>":6296,"रमा":6297,"खटिएको</w>":6298,"छाया":6299,"नुमान</w>":6300,"कविता</w>":6301,"२०७३</w>":6302,"पढ्न</w>":6303,"जर्म":6304,"बापत</w>":6305,"सांसदले</w>":6306,"ग्यास</w>":6307,"गावि":6308,"नैतिक</w>":6309,"समारोहमा</w>":6310,"कहरू</w>":6311,"बालबालिकालाई</w>":6312,"डाक्":6313,"श्याम</w>":6314,"दानको</w>":6315,"अन्तरिम</w>":6316,"बालुवाटारमा</w>":6317,"लभ</w>":6318,"सचिवालयले</w>":6319,"च्याम्पियनसि":6320,"आत्मनिर्भर</w>":6321,"प्रतिष्ठान</w>":6322,"हे</w>":6323,"व्यहो":6324,"मूल":6325,"रमाइ":6326,"प्रिमियर</w>":6327,"नरेन्द्र</w>":6328,"ट्यु":6329,"लान्</w>":6330,"संखुवा":6331,"बित्तिकै</w>":6332,"सिद्धान्त</w>":6333,"प्रमाणित</w>":6334,"गए":6335,"समाजको</w>":6336,"पद्ध":6337,"चाँदी</w>":6338,"निगमले</w>":6339,"ल्यान्ड</w>":6340,"पुगेपछि</w>":6341,"मिटर":6342,"एजे":6343,"दिनुपर्छ</w>":6344,"एन्ड</w>":6345,"ईको</w>":6346,"संयोजकत्वमा</w>":6347,"चाहना</w>":6348,"वास्तविक</w>":6349,"विरोधमा</w>":6350,"उपचारमा</w>":6351,"परेर</w>":6352,"सेन्टर</w>":6353,"तापक्रम</w>":6354,"सहयोगी</w>":6355,"अह":6356,"लिम्ब":6357,"विद्यादेवी</w>":6358,"प्रक्रिया":6359,"ङ्ग्र":6360,"पर्नेमा</w>":6361,"जुनसुकै</w>":6362,"गोल्":6363,"क्षम</w>":6364,"मीका</w>":6365,"आय":6366,"चौका</w>":6367,"कपिल":6368,"पन्त":6369,"जितेका</w>":6370,"कोटको</w>":6371,"सचेतक</w>":6372,"अडि":6373,"थापाको</w>":6374,"चोट</w>":6375,"उत्पादनको</w>":6376,"नभएपछि</w>":6377,"बुधवार</w>":6378,"हुलि":6379,"अभिनेता</w>":6380,"महानिर्देशक</w>":6381,"गइरहेको</w>":6382,"कोठामा</w>":6383,"शृ":6384,"स्वस्थ</w>":6385,"नमुना</w>":6386,"जोशीले</w>":6387,"जानु</w>":6388,"विवाह":6389,"निर्माणाधीन</w>":6390,"पशुपति</w>":6391,"सहायता</w>":6392,"मालाई</w>":6393,"उद्ध":6394,"पर्दा</w>":6395,"नदीको</w>":6396,"कसले</w>":6397,"टिक</w>":6398,"पञ्चा":6399,"महासंघका</w>":6400,"ढोका</w>":6401,"युवराज</w>":6402,"्यू":6403,"उत्कर्षमा</w>":6404,"नत</w>":6405,"लेखिएको</w>":6406,"भग</w>":6407,"बनाई</w>":6408,"भइ</w>":6409,"फाउ":6410,"प्रवृत्ति</w>":6411,"नुभएका</w>":6412,"श्व</w>":6413,"ब्राजि":6414,"रै":6415,"भोग्":6416,"जनकपुर":6417,"अर्यालले</w>":6418,"गर्दछन्</w>":6419,"उत्तरी</w>":6420,"पर्दैन</w>":6421,"युनाइटे":6422,"पं":6423,"कर्ता":6424,"विद्यार्थीले</w>":6425,"छात्र":6426,"गठित</w>":6427,"च्छा</w>":6428,"बनेर</w>":6429,"ढिलाइ</w>":6430,"नमू":6431,"नयाँ":6432,"बेइ":6433,"सर्वोच्च":6434,"स्पष्ट":6435,"विद्यालयका</w>":6436,"चरण</w>":6437,"नाट":6438,"बाह्य</w>":6439,"लगभग</w>":6440,"समाप्त</w>":6441,"रहनु</w>":6442,"तीमध्ये</w>":6443,"प्रालि":6444,"गराउँदै</w>":6445,"ड्या":6446,"अनुरुप</w>":6447,"तपाईं</w>":6448,"व्यवसायिक</w>":6449,"भेटवार्ता</w>":6450,"नेपालीलाई</w>":6451,"घरबाट</w>":6452,"विनोद</w>":6453,"कीमा</w>":6454,"मल्ल</w>":6455,"काँग्रेस</w>":6456,"खतिवडाले</w>":6457,"साधनको</w>":6458,"आकर्षण</w>":6459,"आयोगमा</w>":6460,"प्रयो":6461,"सूची":6462,"सत्त":6463,"सवार</w>":6464,"नेम्वा":6465,"कुराको</w>":6466,"नकै</w>":6467,"रियल</w>":6468,"जात्रा</w>":6469,"सुरक्षाको</w>":6470,"प्रेषण</w>":6471,"यूएई":6472,"ढकाल</w>":6473,"परिचय":6474,"कुरालाई</w>":6475,"रहि":6476,"पीडा</w>":6477,"लामिछाने</w>":6478,"चम्":6479,"पारदर्":6480,"वरले</w>":6481,"तेको</w>":6482,"टाको</w>":6483,"टोलीमा</w>":6484,"नकारात्मक</w>":6485,"सिलि":6486,"समाधानका</w>":6487,"निर्णायक</w>":6488,"अनलाइ":6489,"२०२२</w>":6490,"हिंसा":6491,"रामे":6492,"चामल</w>":6493,"लागु</w>":6494,"सतर्":6495,"११":6496,"०३</w>":6497,"मङ्सिर</w>":6498,"लिई</w>":6499,"रसु":6500,"अधिकारको</w>":6501,"२००</w>":6502,"गन्तव्य":6503,"सहुलि":6504,"आएकी</w>":6505,"थी</w>":6506,"विश्वमा</w>":6507,"मतगणना</w>":6508,"पीसीआर</w>":6509,"थ्र":6510,"बराबर</w>":6511,"पाएपछि</w>":6512,"डोल्":6513,"नेताहरूले</w>":6514,"नारा</w>":6515,"जित्ने</w>":6516,"मानी</w>":6517,"ड्रि":6518,"अनुगम":6519,"बङ्ग":6520,"मण</w>":6521,"बुद्धि":6522,"न्यास</w>":6523,"णसँगै</w>":6524,"पाउँदा</w>":6525,"सक्षम</w>":6526,"ग्रु":6527,"भोग":6528,"टोलीको</w>":6529,"इटहरी</w>":6530,"कुटपि":6531,"उठाउने</w>":6532,"शम":6533,"जसका</w>":6534,"नेलाई</w>":6535,"कहरु</w>":6536,"मुद्रा":6537,"बने</w>":6538,"तीनै</w>":6539,"अथवा</w>":6540,"नभएकाले</w>":6541,"राष्ट्रिय":6542,"भन्नेमा</w>":6543,"क्यान":6544,"मर्या":6545,"जग्गाको</w>":6546,"यसो</w>":6547,"मङ्गलबार</w>":6548,"उपाध्या":6549,"नजर</w>":6550,"बिच</w>":6551,"पेट्रोलियम</w>":6552,"थपिएका</w>":6553,"नुका</w>":6554,"भावी</w>":6555,"थाल्यो</w>":6556,"खन":6557,"क्री</w>":6558,"आसपा":6559,"समयको</w>":6560,"चर्को</w>":6561,"जटिल</w>":6562,"लुका":6563,"हेटौं":6564,"कामलाई</w>":6565,"दुख":6566,"दीर्घकालीन</w>":6567,"शल्य":6568,"भट्टले</w>":6569,"त्यहाँको</w>":6570,"पारी</w>":6571,"कूटनीतिक</w>":6572,"तापूर्वक</w>":6573,"खेलाडीले</w>":6574,"देखिए</w>":6575,"संस्थामा</w>":6576,"घन":6577,"कमजोरी</w>":6578,"कडा":6579,"त्रु":6580,"नियुक्ति":6581,"भेटघाट</w>":6582,"लौ":6583,"महामारीको</w>":6584,"गोमा</w>":6585,"आफैँ</w>":6586,"अड्":6587,"शरद":6588,"गुमाएका</w>":6589,"परीक्षणका</w>":6590,"टिले":6591,"व्":6592,"सचिव":6593,"रसि":6594,"एमसी":6595,"विना</w>":6596,"इजलासले</w>":6597,"इटा":6598,"केश":6599,"बाँड":6600,"प्रदाय":6601,"सन्त</w>":6602,"अघिको</w>":6603,"बजारको</w>":6604,"लिज</w>":6605,"गीतको</w>":6606,"भवनमा</w>":6607,"आन्दोलनको</w>":6608,"प्रकट</w>":6609,"परिस्थिति</w>":6610,"शैली</w>":6611,"लिँदै</w>":6612,"मामा</w>":6613,"गणतन्त्र":6614,"रालाई</w>":6615,"कँ":6616,"मजदुर</w>":6617,"सिंग":6618,"दाता</w>":6619,"दिवसको</w>":6620,"पूरै</w>":6621,"कुवे":6622,"जनताका</w>":6623,"कैलाली</w>":6624,"ब्याजदर</w>":6625,"औस":6626,"दूरी</w>":6627,"नहरू</w>":6628,"चाँडै</w>":6629,"डिके":6630,"संकट</w>":6631,"ल्याण्ड</w>":6632,"निर्देशना":6633,"जीले</w>":6634,"लघुवित्त</w>":6635,"शोक</w>":6636,"ठोक्कि":6637,"सम्मत</w>":6638,"नदि":6639,"क्सी</w>":6640,"पुँजी</w>":6641,"लाग्दा</w>":6642,"पतिमा</w>":6643,"रगत</w>":6644,"निजामती</w>":6645,"भेटमा</w>":6646,"कार्यकर्ता":6647,"जानुपर्ने</w>":6648,"तिक":6649,"कपको</w>":6650,"डुबा":6651,"लमजु":6652,"महतो":6653,"स्वदेशी</w>":6654,"राम्रो":6655,"चोकमा</w>":6656,"नेपालीले</w>":6657,"जन्म</w>":6658,"खालका</w>":6659,"समायोजन</w>":6660,"उपलब्धि</w>":6661,"हेल्":6662,"हाफमा</w>":6663,"सुत्के":6664,"रोकथाम</w>":6665,"बयान</w>":6666,"एक्लै</w>":6667,"वरी</w>":6668,"२०१८</w>":6669,"शुरू</w>":6670,"कृष्णप्रसाद</w>":6671,"चौकी</w>":6672,"दोहोरो</w>":6673,"इञ्":6674,"हक</w>":6675,"गोलको</w>":6676,"उनकै</w>":6677,"वर्ग</w>":6678,"योसँगै</w>":6679,"स्थिरताका</w>":6680,"ढुंगा</w>":6681,"रोपण</w>":6682,"मासु</w>":6683,"बिरामीलाई</w>":6684,"महामारीका</w>":6685,"च्छ</w>":6686,"राप्":6687,"तामाङले</w>":6688,"कोटमा</w>":6689,"इंग्":6690,"जसलाई</w>":6691,"धितो":6692,"श्रा":6693,"कुकु":6694,"औषधि":6695,"पदार्थको</w>":6696,"सहसचिव</w>":6697,"गल्ती</w>":6698,"कम्पनीलाई</w>":6699,"लगानीमा</w>":6700,"शक्तिशाली</w>":6701,"इको</w>":6702,"हस्तक्षेप</w>":6703,"माई</w>":6704,"त्यसरी</w>":6705,"सम्पर्कमा</w>":6706,"असन्तुष्टि</w>":6707,"बङ्गला":6708,"प्राधिकरण</w>":6709,"एसो":6710,"सम्मानित</w>":6711,"वार्तामा</w>":6712,"गरेमा</w>":6713,"सम्पाद":6714,"टेन्":6715,"बृह":6716,"बैठक":6717,"ज्ञवालीले</w>":6718,"अभावमा</w>":6719,"समझदारी</w>":6720,"राजमार्ग":6721,"आचार":6722,"सम्भावित</w>":6723,"महतले</w>":6724,"कौ":6725,"डीमा</w>":6726,"परिस्थि":6727,"उहाँका</w>":6728,"अधिकारीको</w>":6729,"मही":6730,"आपत्ति</w>":6731,"ढुवानी</w>":6732,"संक्रमणबाट</w>":6733,"देशभरका</w>":6734,"भेट्न</w>":6735,"सुवेदीले</w>":6736,"पारिवा":6737,"बताएकी</w>":6738,"काठमाण्ड":6739,"टेलिकम":6740,"कामदार</w>":6741,"दृश्य</w>":6742,"भेन्टिले":6743,"बेनी</w>":6744,"दामा</w>":6745,"उनै</w>":6746,"निवेद":6747,"बढाइएको</w>":6748,"महासंघ</w>":6749,"जोडेर</w>":6750,"अत्यन्त</w>":6751,"खाने":6752,"द्द</w>":6753,"निमित्त</w>":6754,"जनप्रतिनिधि</w>":6755,"स्थिर</w>":6756,"भएकोमा</w>":6757,"संहिता</w>":6758,"स्वार्थ":6759,"पोलि":6760,"फाइना":6761,"सुन्":6762,"उत्तिकै</w>":6763,"डिसे":6764,"उठाउन</w>":6765,"टरले</w>":6766,"विद्य":6767,"कार्यालयबाट</w>":6768,"माछा</w>":6769,"सुरक्षाका</w>":6770,"लोमा</w>":6771,"ल्स</w>":6772,"दाजु":6773,"गभर्नर</w>":6774,"शुभ</w>":6775,"गह":6776,"फोरममा</w>":6777,"उमेरमा</w>":6778,"पहिरोले</w>":6779,"संसद्को</w>":6780,"पत्रकारि":6781,"पर्वत</w>":6782,"भीम</w>":6783,"गतेको</w>":6784,"सिद्धान्त":6785,"कारमा</w>":6786,"सञ्चालनका</w>":6787,"त्यहाँका</w>":6788,"देखिन</w>":6789,"चीनमा</w>":6790,"अप</w>":6791,"खबर":6792,"औं":6793,"समृद्धिको</w>":6794,"प्रय":6795,"खोज्ने</w>":6796,"उनेछ</w>":6797,"खपत</w>":6798,"ड्रा":6799,"णलाई</w>":6800,"धै</w>":6801,"पठ":6802,"कोषा":6803,"गोर्":6804,"लिमिटेड</w>":6805,"भएकाे</w>":6806,"किसानको</w>":6807,"लङ्":6808,"खटा":6809,"घटनाका</w>":6810,"पशु</w>":6811,"रहित</w>":6812,"ट्रम्पले</w>":6813,"गोपाल</w>":6814,"सकिएपछि</w>":6815,"पटकको</w>":6816,"यति":6817,"खै":6818,"प्रभु</w>":6819,"महानिरीक्षक</w>":6820,"प्न</w>":6821,"हावा":6822,"निषेधाज्ञा</w>":6823,"प्रदू":6824,"बाख":6825,"अनियमित":6826,"रिस</w>":6827,"नेताको</w>":6828,"नेटवर्":6829,"आकस्":6830,"हुम्":6831,"चाहिने</w>":6832,"श्रो":6833,"फेसबुक</w>":6834,"उदयपुर</w>":6835,"मनोनयन</w>":6836,"हेरी</w>":6837,"शय":6838,"रुसी</w>":6839,"प्रायः</w>":6840,"रोजगारीमा</w>":6841,"तपाईंको</w>":6842,"कोरोनाका</w>":6843,"जोडिएका</w>":6844,"मेसिन</w>":6845,"दर्जन":6846,"समुदाय</w>":6847,"फाइल</w>":6848,"पुग्छ</w>":6849,"हिँड्":6850,"नदी":6851,"राष्ट्रपतिले</w>":6852,"रत्":6853,"कुखु":6854,"आशंका</w>":6855,"ञ्चित</w>":6856,"अनुमोदन</w>":6857,"फराकिलो</w>":6858,"सांसदहरुले</w>":6859,"विस्थापित</w>":6860,"आयोजनाले</w>":6861,"गर्नुपर्नेमा</w>":6862,"हटाउने</w>":6863,"भित्री</w>":6864,"उहाँलाई</w>":6865,"बढुवा</w>":6866,"ङ्कन</w>":6867,"निवासी</w>":6868,"खरिद":6869,"राय</w>":6870,"प्रसार</w>":6871,"त्यति":6872,"हप्ता":6873,"संविधानमा</w>":6874,"लगेर</w>":6875,"घटेर</w>":6876,"दशै":6877,"मदन</w>":6878,"तिम":6879,"प्रवेश":6880,"बाँडफाँ":6881,"जसमध्ये</w>":6882,"महिनादेखि</w>":6883,"मोटरसाइक":6884,"जम":6885,"स्रोतका</w>":6886,"निश्चित":6887,"सुर्खेत</w>":6888,"जग्गामा</w>":6889,"हराउँदै</w>":6890,"संवेदनशील</w>":6891,"चाहन्छु</w>":6892,"हृ":6893,"विकास":6894,"साहित्य</w>":6895,"एई</w>":6896,"भागका</w>":6897,"भन्छिन्</w>":6898,"पेन्द्र</w>":6899,"काउ":6900,"फौ":6901,"हुन्":6902,"सहजीकरण</w>":6903,"नहरु</w>":6904,"रामबहादुर</w>":6905,"म्बा</w>":6906,"जोशी</w>":6907,"म्याग्दी</w>":6908,"बासिन्दा":6909,"गठनको</w>":6910,"रेड":6911,"उर्":6912,"रेमि":6913,"खटिएका</w>":6914,"नभएसम्म</w>":6915,"हेरि":6916,"सिद्ध</w>":6917,"त्तिको</w>":6918,"योस्</w>":6919,"बढीको</w>":6920,"महोत्सव</w>":6921,"आजदेखि</w>":6922,"ब्ब":6923,"माछा":6924,"दरमा</w>":6925,"चीको</w>":6926,"गिराव":6927,"अभियोगमा</w>":6928,"राष्ट्रको</w>":6929,"थियौं</w>":6930,"हेक्टर</w>":6931,"अनावश्यक</w>":6932,"सभाले</w>":6933,"परिण":6934,"सचिवमा</w>":6935,"बद्र":6936,"आईसी":6937,"राजश्व</w>":6938,"दर्शक</w>":6939,"शुक्रवार</w>":6940,"प्रान्त":6941,"बोल्न</w>":6942,"महाशाखाका</w>":6943,"टेक्":6944,"सागर</w>":6945,"संवाद</w>":6946,"पुरुषको</w>":6947,"संस्कार</w>":6948,"तिर्न</w>":6949,"उच्चस्तरीय</w>":6950,"शरदसिंह</w>":6951,"गिरीले</w>":6952,"स्वरूप</w>":6953,"उपयोग":6954,"नोक्सा":6955,"न्ती</w>":6956,"आए":6957,"न्यूज</w>":6958,"पारिवारिक</w>":6959,"दिवस":6960,"सधैँ</w>":6961,"ल्याए</w>":6962,"प्राधिकरणको</w>":6963,"लिकप्":6964,"साथी</w>":6965,"दिएकी</w>":6966,"ंश</w>":6967,"धुरा</w>":6968,"कँडे":6969,"झाले</w>":6970,"निर्माता</w>":6971,"उसलाई</w>":6972,"सामेल</w>":6973,"सवारीसाधन</w>":6974,"हेलिकप्":6975,"त्यसअघि</w>":6976,"सहमति":6977,"फर":6978,"घा</w>":6979,"ुक</w>":6980,"राती</w>":6981,"नुस्</w>":6982,"उद्धा":6983,"ताइ":6984,"दर्जन</w>":6985,"वत्</w>":6986,"प्राथमिक</w>":6987,"दत्त</w>":6988,"गुमाएको</w>":6989,"अंकले</w>":6990,"एमई</w>":6991,"महासंघले</w>":6992,"डिएको</w>":6993,"देखेर</w>":6994,"परिमार्":6995,"हुर्":6996,"तजाव":6997,"सोको</w>":6998,"अनुम":6999,"स्वाभाविक</w>":7000,"सिर":7001,"उम्मेदवारको</w>":7002,"बाने":7003,"सहकार्यमा</w>":7004,"सुवे":7005,"स्वास्थ्यकर्म":7006,"प्रशासनिक</w>":7007,"विश्वभर</w>":7008,"साउ":7009,"दोल":7010,"स्रोतको</w>":7011,"झनै</w>":7012,"स्वास्थ्यकर्मी</w>":7013,"स्मार्ट</w>":7014,"सक्रि":7015,"माथा</w>":7016,"गोदा":7017,"आवास</w>":7018,"हिरास":7019,"पूर्वानुमान</w>":7020,"मानिसले</w>":7021,"क्याम्पस</w>":7022,"वेला</w>":7023,"थपिएको</w>":7024,"एकताको</w>":7025,"खरी":7026,"क्वारेन्टाइनमा</w>":7027,"किरण</w>":7028,"मनाउन</w>":7029,"मरा":7030,"रेल":7031,"लेखक</w>":7032,"क्षित</w>":7033,"सर्वोच्":7034,"पत्रा":7035,"प्रतिवद्धता</w>":7036,"गठबन्धनमा</w>":7037,"निया</w>":7038,"पब्":7039,"दिनेश</w>":7040,"आशा":7041,"कार्यको</w>":7042,"पोर्ट</w>":7043,"डेडिके":7044,"समुदायका</w>":7045,"शमा</w>":7046,"टाँ":7047,"एपि":7048,"जोड्":7049,"भेटि</w>":7050,"छैन्</w>":7051,"आवको</w>":7052,"राही</w>":7053,"आर्जन</w>":7054,"२०२१</w>":7055,"प्रत्यक्ष":7056,"नदिएको</w>":7057,"रहँदै</w>":7058,"गन्तव्य</w>":7059,"सच्या":7060,"ओलीलाइ</w>":7061,"सगरमाथा</w>":7062,"सतर्कता</w>":7063,"भविष्यमा</w>":7064,"बलिउ":7065,"स्वतन्त्रता</w>":7066,"लिनुपर्ने</w>":7067,"भाउ</w>":7068,"अर्जेन्":7069,"साझेदा":7070,"आयोजनाका</w>":7071,"विशेषज्ञ</w>":7072,"नविन</w>":7073,"ंख":7074,"किनकि</w>":7075,"मिलाउन</w>":7076,"पूर्वप्रधानमन्त्री</w>":7077,"श्वरी</w>":7078,"मानिसलाई</w>":7079,"बाँके</w>":7080,"प्प</w>":7081,"खेलबाट</w>":7082,"कोषमा</w>":7083,"मोहम्म":7084,"भीड</w>":7085,"लिएपछि</w>":7086,"राम्रोसँग</w>":7087,"प्रबन्धक</w>":7088,"रोहणसँगै</w>":7089,"महत्व":7090,"प्रशो":7091,"समर्":7092,"महाधिवेशनमा</w>":7093,"वत</w>":7094,"पौडेलको</w>":7095,"ट्रक</w>":7096,"गैँ":7097,"सेन्स</w>":7098,"अगाडी</w>":7099,"सत्तरोहणसँगै</w>":7100,"अर्जुन</w>":7101,"काइ":7102,"अर्ध":7103,"विशिष्ट</w>":7104,"दार्चु":7105,"गल</w>":7106,"अभिवृद्धि</w>":7107,"बुद्ध":7108,"देखा</w>":7109,"गर्दै":7110,"झड":7111,"पटकपटक</w>":7112,"नमिल्ने</w>":7113,"अप्ठ्या":7114,"रहेछन्</w>":7115,"गर्छौं</w>":7116,"जित्न</w>":7117,"संघर्ष":7118,"सङ्घले</w>":7119,"इलेक्":7120,"नाम":7121,"पल</w>":7122,"पश्चात</w>":7123,"न्यायिक</w>":7124,"भन्यो</w>":7125,"स्यो":7126,"२०२४</w>":7127,"ध्र":7128,"उनकी</w>":7129,"पश्चात्</w>":7130,"गराइ":7131,"उनुभएको</w>":7132,"खिल</w>":7133,"राणा</w>":7134,"दुर्गा</w>":7135,"प्रणालीको</w>":7136,"नमूना</w>":7137,"उस्तै</w>":7138,"रोमा</w>":7139,"टोलीका</w>":7140,"विष्टले</w>":7141,"सचिन</w>":7142,"वाहक</w>":7143,"प्रयोगमा</w>":7144,"अर्ब":7145,"आकस्मिक</w>":7146,"डेडिकेटेड</w>":7147,"धेरैले</w>":7148,"रेखा</w>":7149,"पीडित":7150,"फैला":7151,"बढेपछि</w>":7152,"आत्महत्या</w>":7153,"नुपर्नेछ</w>":7154,"काठमाडौंका</w>":7155,"सहभागि":7156,"सेके":7157,"पर्खा":7158,"भई":7159,"रक्षा":7160,"महाकाली</w>":7161,"मागेको</w>":7162,"बालबालिकाको</w>":7163,"विप्लव</w>":7164,"टिमले</w>":7165,"साव":7166,"भलिबल</w>":7167,"उत्सा":7168,"अर्जेन्टि":7169,"श्रे":7170,"खुकु":7171,"प्रधा":7172,"मान्ने</w>":7173,"इन्जिनियर</w>":7174,"अस्ति":7175,"ट्री</w>":7176,"कोरिया</w>":7177,"विज्ञापन</w>":7178,"बेल्":7179,"ह्र":7180,"विपन्न</w>":7181,"पत्नी</w>":7182,"सेमिफाइनलमा</w>":7183,"न्दुमा</w>":7184,"एन्फा</w>":7185,"एकपटक</w>":7186,"कर्पो":7187,"छी</w>":7188,"ढुङ्गा</w>":7189,"बस्तीमा</w>":7190,"काँग्रेसका</w>":7191,"तुलसी":7192,"रुकुम</w>":7193,"भदौ":7194,"परिवर्तनको</w>":7195,"पात्र":7196,"सिने":7197,"जिन</w>":7198,"छनौ":7199,"पारिएको</w>":7200,"इस्":7201,"भौगो":7202,"पुरले</w>":7203,"बधा":7204,"गरिब</w>":7205,"तिनी":7206,"हजु":7207,"पूर्वमन्त्री</w>":7208,"हिजो":7209,"सावि":7210,"उठेको</w>":7211,"प्रारम्भ</w>":7212,"बेर</w>":7213,"न्यौपानेले</w>":7214,"राज्यका</w>":7215,"निकायको</w>":7216,"ेन्द्र":7217,"मच्":7218,"थाइ":7219,"लुङ</w>":7220,"राजकुमार</w>":7221,"सभापति":7222,"पत्रको</w>":7223,"बैशा":7224,"सिस्ट":7225,"दिशामा</w>":7226,"पोस्ट</w>":7227,"चेक</w>":7228,"सिँचाइमन्त्री</w>":7229,"परिणत</w>":7230,"सल्":7231,"सुरेन्द्र</w>":7232,"चक्":7233,"हिमालय":7234,"लगिएको</w>":7235,"टेलले</w>":7236,"खाले</w>":7237,"टिस</w>":7238,"सक्दा</w>":7239,"आउँदै</w>":7240,"ज्वरो</w>":7241,"कमिटीको</w>":7242,"नौँ</w>":7243,"ओटा</w>":7244,"त्यसबाट</w>":7245,"रोप":7246,"ँको</w>":7247,"खत्र":7248,"हुनुभएको</w>":7249,"पढाइ</w>":7250,"एके":7251,"बिरुवा</w>":7252,"अर्थतन्त्रमा</w>":7253,"आईपी":7254,"नुहोस्</w>":7255,"क्य</w>":7256,"अदालतका</w>":7257,"रद्द</w>":7258,"रथ</w>":7259,"स्थानको</w>":7260,"त्यसकारण</w>":7261,"चर्चामा</w>":7262,"बनाउनु</w>":7263,"मिल्नेछ</w>":7264,"एकको</w>":7265,"विमानस्थलको</w>":7266,"कोसी</w>":7267,"सर्वेक्ष":7268,"बझा":7269,"नमार्फत</w>":7270,"खोल्न</w>":7271,"दिनपछि</w>":7272,"विष्ट</w>":7273,"औँ":7274,"लम्बि":7275,"पठाइ":7276,"विषा":7277,"पशुपति":7278,"आन्दोलनका</w>":7279,"समुदायलाई</w>":7280,"अलि":7281,"सधैं</w>":7282,"जमा":7283,"भेटिएका</w>":7284,"प्रशंसा</w>":7285,"स्टु":7286,"विविध":7287,"शिक्षाको</w>":7288,"जग</w>":7289,"दरबार</w>":7290,"ढुङ्गा":7291,"कारले</w>":7292,"लार्":7293,"शनिवार</w>":7294,"मुस्लि":7295,"सिंगा":7296,"स्थानीयको</w>":7297,"दरबन्दी</w>":7298,"मतले</w>":7299,"खेलाडीको</w>":7300,"आवतजाव":7301,"बनाउँदा</w>":7302,"विवादमा</w>":7303,"डर":7304,"ग्न</w>":7305,"श्रम":7306,"पेन्":7307,"हेलि":7308,"अग":7309,"विपक्षमा</w>":7310,"पक्षलाई</w>":7311,"अपनाउन</w>":7312,"अप्रि":7313,"होटलमा</w>":7314,"सशक्त</w>":7315,"वर्षभित्र</w>":7316,"डलाई</w>":7317,"ंको</w>":7318,"समाजका</w>":7319,"चाहिन्छ</w>":7320,"सुपर</w>":7321,"ञ्चल</w>":7322,"बाजी</w>":7323,"प्रमुखमा</w>":7324,"परिसरमा</w>":7325,"अभिनेत्री</w>":7326,"व्यापारिक</w>":7327,"जोगि":7328,"शेखर</w>":7329,"चिन्त":7330,"ज्ञानेन्द्र</w>":7331,"ङबाट</w>":7332,"सेन</w>":7333,"खेलि":7334,"लिगमा</w>":7335,"वाम</w>":7336,"कमै</w>":7337,"बनाउनुपर्ने</w>":7338,"बजार":7339,"अपि":7340,"त्रिवि</w>":7341,"दिवसीय</w>":7342,"द्धा</w>":7343,"खेलाडीलाई</w>":7344,"मिटरको</w>":7345,"रोजगारीका</w>":7346,"उल्लं":7347,"हौं</w>":7348,"अवका":7349,"एकदमै</w>":7350,"च्यु":7351,"एक्स":7352,"शिखर</w>":7353,"आइसोलेसनमा</w>":7354,"डीको</w>":7355,"गाई</w>":7356,"मुक्ति":7357,"यन्":7358,"राजु</w>":7359,"बिग्र":7360,"व्याख्या</w>":7361,"महानगर</w>":7362,"रेडियो</w>":7363,"सक्नुहुन्छ</w>":7364,"वादको</w>":7365,"स्को":7366,"भ्रमणका</w>":7367,"कटौती</w>":7368,"व्यवस्थापनका</w>":7369,"उपाध्यक्षमा</w>":7370,"मुटु":7371,"तरण</w>":7372,"नासाथ</w>":7373,"पन्थी</w>":7374,"भट्ट</w>":7375,"तीव्र":7376,"प्रतिस्पर्धी</w>":7377,"न्तरण":7378,"भरको</w>":7379,"भिडियोमा</w>":7380,"एपी":7381,"विदेशबाट</w>":7382,"अडान</w>":7383,"देखिँदैन</w>":7384,"आइतवार</w>":7385,"नेदर":7386,"लाग्दो</w>":7387,"डडेल्":7388,"बाइडे":7389,"सहमत</w>":7390,"न्तर</w>":7391,"निगरानी</w>":7392,"निस्कि":7393,"पालिकाको</w>":7394,"पार्टीभित्र</w>":7395,"हृद":7396,"नमै</w>":7397,"नक्सा</w>":7398,"मिलेको</w>":7399,"दोष</w>":7400,"लाबाट</w>":7401,"बन्दी":7402,"भएकै</w>":7403,"वाले</w>":7404,"मालि":7405,"धनकुटा</w>":7406,"कोठा</w>":7407,"प्रशस्त</w>":7408,"विश्वको</w>":7409,"खोल्ने</w>":7410,"भौगोलिक</w>":7411,"कुनै":7412,"च्चा</w>":7413,"नअनुसार</w>":7414,"किसिमका</w>":7415,"स्रोत":7416,"ख्य":7417,"हिस्सा</w>":7418,"पुरानै</w>":7419,"रिलिज</w>":7420,"पालिकामा</w>":7421,"गुमाएर</w>":7422,"दिनका</w>":7423,"जीवनको</w>":7424,"रजि":7425,"भद्र":7426,"कालोपत्रे</w>":7427,"न्यौपाने</w>":7428,"समाजवादीका</w>":7429,"तीनवटा</w>":7430,"२०१७</w>":7431,"ड्य":7432,"फूल":7433,"पूजा":7434,"बजेट":7435,"प्राध्यापक</w>":7436,"फास</w>":7437,"निस</w>":7438,"राम्रा</w>":7439,"परिचित</w>":7440,"समाचार":7441,"भन्नु</w>":7442,"जनकपुरधा":7443,"लाइसेन्स</w>":7444,"प्रचण्डको</w>":7445,"सामान्यतया</w>":7446,"मेलम्ची</w>":7447,"देउवालाई</w>":7448,"पुनर्निर्माण</w>":7449,"चित्त</w>":7450,"ढे":7451,"समावेशी</w>":7452,"विद्यमान</w>":7453,"स्ने</w>":7454,"मुद्दाको</w>":7455,"गठबन्धनले</w>":7456,"डबाट</w>":7457,"बारीमा</w>":7458,"स्वाब</w>":7459,"खुल्ला</w>":7460,"पर्दाफास</w>":7461,"व्यवसायमा</w>":7462,"र्य":7463,"रोल्":7464,"अनुभूति</w>":7465,"नामि":7466,"आफन्त</w>":7467,"अन्यो":7468,"उठाएको</w>":7469,"बारबाट</w>":7470,"गरिए</w>":7471,"गरी":7472,"वीरगन्":7473,"प्रेरित</w>":7474,"रायमाझ":7475,"सम्पदा</w>":7476,"वासन</w>":7477,"खासगरी</w>":7478,"मुल":7479,"छोडेर</w>":7480,"नसकेपछि</w>":7481,"अक्ष":7482,"क्कै</w>":7483,"सेवाग्राह":7484,"रोड</w>":7485,"तस्करी</w>":7486,"पुलको</w>":7487,"बेलुका</w>":7488,"कीका</w>":7489,"नेकपाको</w>":7490,"कार्यलाई</w>":7491,"काल</w>":7492,"सुशा":7493,"सि</w>":7494,"प्रतिपक्ष</w>":7495,"गर्भव":7496,"आपसी</w>":7497,"लगानीको</w>":7498,"भगवा":7499,"ईका</w>":7500,"उम्मेदवार":7501,"सिजन</w>":7502,"कं":7503,"अक्टो":7504,"जबाट</w>":7505,"गर्थे</w>":7506,"बनायो</w>":7507,"मैना":7508,"प्रेम":7509,"भेरी</w>":7510,"स्वच्छ</w>":7511,"गर्दछु</w>":7512,"बोलाइएको</w>":7513,"ँमा</w>":7514,"लागेपछि</w>":7515,"इच्छा</w>":7516,"मिर्गौ":7517,"सम्मान":7518,"ङ्गले</w>":7519,"गरौं</w>":7520,"मदिरा</w>":7521,"प्रतिशतभन्दा</w>":7522,"दक्षिण":7523,"माटो</w>":7524,"छलफल":7525,"नवीन</w>":7526,"गराएर</w>":7527,"सर्वसाधारण</w>":7528,"कर्तव्य</w>":7529,"टाउको</w>":7530,"ठप्प</w>":7531,"शरीर</w>":7532,"रोजगारीको</w>":7533,"आगलाग":7534,"नारायणकाजी</w>":7535,"नस</w>":7536,"इन्जिनिय":7537,"कम्प्यु":7538,"सम्व":7539,"समुदायमा</w>":7540,"सुधारका</w>":7541,"खत</w>":7542,"रावलले</w>":7543,"सरोकारवाला</w>":7544,"अर्का":7545,"स्थानीयवासी</w>":7546,"परिचयपत्र</w>":7547,"विस्तारै</w>":7548,"श्रो</w>":7549,"धनगढ":7550,"हरुबीच</w>":7551,"अपहर":7552,"शिला":7553,"प्रवर्द्धन</w>":7554,"बर्खा":7555,"एकेडे":7556,"इनन्</w>":7557,"उल्लेख्य</w>":7558,"उँछिन्</w>":7559,"सस्तो</w>":7560,"मानमा</w>":7561,"शम्":7562,"टोलीलाई</w>":7563,"फ्रि":7564,"ण्डर</w>":7565,"रमाइलो</w>":7566,"ट्याङ्":7567,"अमेरिका":7568,"पार्दै</w>":7569,"केन्द्रबाट</w>":7570,"हँ":7571,"बुझाउन</w>":7572,"काठमाडौँमा</w>":7573,"साँझ":7574,"कदेखि</w>":7575,"श्रद्धा":7576,"बत्ती</w>":7577,"गुज":7578,"ैमा</w>":7579,"देखाउन</w>":7580,"समितिलाई</w>":7581,"ऋण":7582,"जनकपुर</w>":7583,"बाजु":7584,"उद्योगमा</w>":7585,"शिव</w>":7586,"ब्यव":7587,"आप्र":7588,"मोहम्मद</w>":7589,"अनुसन्धानमा</w>":7590,"बि</w>":7591,"नाटक</w>":7592,"ठोस</w>":7593,"तारा</w>":7594,"पोजे":7595,"एम्बुलेन्स</w>":7596,"त्री":7597,"नदेखि</w>":7598,"फत</w>":7599,"मेट्रिक</w>":7600,"इच्छा":7601,"आइसि":7602,"खातामा</w>":7603,"जाँच":7604,"त्यसबेला</w>":7605,"सकिँदैन</w>":7606,"पदाधिकारी":7607,"मिले":7608,"कान्ति":7609,"सुन्तला</w>":7610,"त्यहाँबाट</w>":7611,"पोखराको</w>":7612,"सजिलै</w>":7613,"वीरेन्द्र":7614,"अखिल</w>":7615,"नोभे":7616,"सदस्यता</w>":7617,"नम्बरमा</w>":7618,"आपूर्":7619,"जनस्वास्थ्य</w>":7620,"ट्रंक</w>":7621,"गाउँपालिका":7622,"छ्या":7623,"प्रेस":7624,"पक्का</w>":7625,"द्य":7626,"ईएको</w>":7627,"हैसिय":7628,"सङ्क्रमि":7629,"नोट</w>":7630,"भाडामा</w>":7631,"प्राइ":7632,"एएफ":7633,"ग्ने</w>":7634,"ट्रया":7635,"मिल्दैन</w>":7636,"आवमा</w>":7637,"जीमा</w>":7638,"धनका</w>":7639,"अष्ट्रेलि":7640,"बुबा":7641,"ब्रुअ":7642,"तर्फी</w>":7643,"आकां":7644,"सेप्टे":7645,"१८":7646,"नाघ":7647,"युक्त":7648,"सोच्":7649,"संस्करणको</w>":7650,"चढा":7651,"धर</w>":7652,"भुसालले</w>":7653,"सार्वभौ":7654,"सुवेदी</w>":7655,"दम":7656,"निर्या":7657,"मानको</w>":7658,"पानीमा</w>":7659,"सुत्केरी</w>":7660,"संसार":7661,"चलाएको</w>":7662,"रङ्ग":7663,"खण्डको</w>":7664,"खेल्दै</w>":7665,"रोक्ने</w>":7666,"अनुसन्धानका</w>":7667,"भनेपछि</w>":7668,"बारसम्म</w>":7669,"भर्ख":7670,"मूल्यांकन</w>":7671,"रोहि":7672,"नृ":7673,"कतार</w>":7674,"च्याम्पियन</w>":7675,"विष्य</w>":7676,"इन्स्यो":7677,"चेतना</w>":7678,"बीबी":7679,"आफै</w>":7680,"२०२३</w>":7681,"मल्लले</w>":7682,"कुटपिट</w>":7683,"ह्वा":7684,"उपत्यकाका</w>":7685,"बैंकमा</w>":7686,"क्वि":7687,"भविष्य</w>":7688,"संक्रमित":7689,"काभ्रे":7690,"तयारीका</w>":7691,"डिग्री</w>":7692,"तत्कालै</w>":7693,"संरचना":7694,"सदु":7695,"विशेषगरी</w>":7696,"आउनु</w>":7697,"रेन्ट</w>":7698,"अंग्रे":7699,"नसँगै</w>":7700,"गढ":7701,"झल":7702,"बिष":7703,"सना":7704,"आरोप":7705,"न्यायाधि":7706,"पेली</w>":7707,"त्यही":7708,"मण्डल</w>":7709,"बोल्ने</w>":7710,"प्याले":7711,"शत":7712,"प्रतिद्वन्द्":7713,"लास</w>":7714,"पाउनेछन्</w>":7715,"बेल":7716,"आफूहरुले</w>":7717,"दक्ष</w>":7718,"विरुद्ध":7719,"बिज":7720,"कब्जा</w>":7721,"दाहाल":7722,"मृतक</w>":7723,"सचेत":7724,"ठक्कर</w>":7725,"ताब्":7726,"कसहित</w>":7727,"अरुण</w>":7728,"अस्ट्रेलि":7729,"क्रान्तिकारी</w>":7730,"परिसर</w>":7731,"आउँदो</w>":7732,"परिषद्को</w>":7733,"बन्छ</w>":7734,"सम्भाव":7735,"जबर":7736,"नवराज</w>":7737,"बुझाइ</w>":7738,"अनुप":7739,"जनतामा</w>":7740,"जनसङ्ख्या</w>":7741,"रालो</w>":7742,"लागतमा</w>":7743,"वरको</w>":7744,"जन्मा":7745,"जबरा":7746,"टोली":7747,"तुरु":7748,"पण्डि":7749,"सहाय":7750,"लाखको</w>":7751,"तनाव</w>":7752,"अभियोग</w>":7753,"कागजात</w>":7754,"पदबाट</w>":7755,"लेखि":7756,"पहिले":7757,"छक्का</w>":7758,"कवि</w>":7759,"पेस":7760,"आक्रमणमा</w>":7761,"डभा":7762,"ब्बर</w>":7763,"सुकु":7764,"सोमवार</w>":7765,"सत्र":7766,"भूमिकामा</w>":7767,"सुनसरी</w>":7768,"जडी":7769,"बचाउन</w>":7770,"जागिर</w>":7771,"मापन</w>":7772,"प्रहरीमा</w>":7773,"ब्रो":7774,"कायमै</w>":7775,"सहयोगको</w>":7776,"राखिएका</w>":7777,"महँगो</w>":7778,"परीक्षणमा</w>":7779,"कैको</w>":7780,"ण्डमा</w>":7781,"नियमन</w>":7782,"शहर</w>":7783,"क्यान</w>":7784,"रानी</w>":7785,"रूपा":7786,"थपे</w>":7787,"सदुप":7788,"राजन</w>":7789,"उत्साहित</w>":7790,"देउवाको</w>":7791,"उद्योगी</w>":7792,"सनले</w>":7793,"हौँ</w>":7794,"माधम</w>":7795,"ंदै</w>":7796,"बेलायती</w>":7797,"पेनाल्":7798,"महेन्द्र</w>":7799,"साका</w>":7800,"मसँग</w>":7801,"पारिश्रमिक</w>":7802,"स्मार्ट":7803,"मछि":7804,"परि</w>":7805,"नेपालगन्ज</w>":7806,"योग्य":7807,"२०१६</w>":7808,"धमाधम</w>":7809,"ब्यू":7810,"पदका</w>":7811,"काफ्":7812,"इमा":7813,"शताब्":7814,"पढ्ने</w>":7815,"माल्":7816,"नगरप्रमुख</w>":7817,"मधेसी</w>":7818,"लिइ":7819,"केश</w>":7820,"हाराहारीमा</w>":7821,"प्रदर्शनमा</w>":7822,"परिवारमा</w>":7823,"हीले</w>":7824,"लाम</w>":7825,"कर्पोरे":7826,"स्पो":7827,"सान</w>":7828,"विश्लेष":7829,"रेपछि</w>":7830,"अंग":7831,"उचा":7832,"अनिल</w>":7833,"धेरैजसो</w>":7834,"सम्झौतामा</w>":7835,"मोदीले</w>":7836,"मनि":7837,"तौल</w>":7838,"पोजेटिभ</w>":7839,"सङ्ख्यामा</w>":7840,"टोल</w>":7841,"ट्रान्स":7842,"पक्कै</w>":7843,"बुढाथो":7844,"राबाट</w>":7845,"तिब्ब":7846,"ठाकुर</w>":7847,"बेवास्ता</w>":7848,"ट्वि":7849,"लगाउँदै</w>":7850,"धरान</w>":7851,"प्रस्तावित</w>":7852,"नपाठ":7853,"पार्टीबाट</w>":7854,"कीलाई</w>":7855,"पालिका":7856,"निकट":7857,"बेलायत</w>":7858,"शेर्पा</w>":7859,"भवनको</w>":7860,"विहान</w>":7861,"महेश</w>":7862,"रेन्स</w>":7863,"चाहने</w>":7864,"ढिलो</w>":7865,"थाले":7866,"गंगा</w>":7867,"इतिहासमा</w>":7868,"मिन</w>":7869,"अनुरूप</w>":7870,"राज्यमन्त्री</w>":7871,"आदिवासी</w>":7872,"ऊर्":7873,"थालि":7874,"डिजाइन</w>":7875,"बारा</w>":7876,"हरूबीच</w>":7877,"रोहित</w>":7878,"संघीयता</w>":7879,"मानिएको</w>":7880,"प्रधाना":7881,"माटो":7882,"लाखभन्दा</w>":7883,"बालकृष्ण</w>":7884,"्रै</w>":7885,"पठनपाठ":7886,"मूर्ति</w>":7887,"बाहेकका</w>":7888,"स्वार्थ</w>":7889,"छाप</w>":7890,"अछा":7891,"त्तर</w>":7892,"कमल":7893,"प्रतिनिधिसभामा</w>":7894,"खोज्न</w>":7895,"कोषको</w>":7896,"उता":7897,"ठि":7898,"अध्ययनरत</w>":7899,"पृष्ठ":7900,"कार्यान्वयनका</w>":7901,"बोलाएको</w>":7902,"जलविद्युत</w>":7903,"शैलीमा</w>":7904,"नवौं</w>":7905,"शुक्ल</w>":7906,"व्यापार":7907,"बौद्ध</w>":7908,"सोलु":7909,"दानी</w>":7910,"तिमिल्":7911,"तालमेल</w>":7912,"सहजै</w>":7913,"बारम्":7914,"रोगका</w>":7915,"एन्टि":7916,"राहु":7917,"मुनि</w>":7918,"क्लबले</w>":7919,"देशबाट</w>":7920,"डाका</w>":7921,"पास":7922,"कर्ण</w>":7923,"मुख्यमन्त्रीमा</w>":7924,"धरौ":7925,"राजधानीमा</w>":7926,"वार":7927,"अन्तरले</w>":7928,"ईले</w>":7929,"मुद्रा</w>":7930,"नसकिएको</w>":7931,"मध्यनजर</w>":7932,"निक्षेप</w>":7933,"दूरसञ्चार</w>":7934,"ञ्ज":7935,"विगतका</w>":7936,"लोक</w>":7937,"कारबाहीको</w>":7938,"एकता":7939,"बुटी</w>":7940,"समुदायले</w>":7941,"निकायमा</w>":7942,"डाले</w>":7943,"हाे</w>":7944,"गरेसँगै</w>":7945,"प्रमुखको</w>":7946,"छैट":7947,"आफैंले</w>":7948,"नगरमा</w>":7949,"बोलाएर</w>":7950,"डट":7951,"फर्कने</w>":7952,"रात":7953,"सिमेन्ट</w>":7954,"स्टक</w>":7955,"गरेपनि</w>":7956,"हेटौँ":7957,"नायव</w>":7958,"क्यले</w>":7959,"झैं</w>":7960,"प्रतिस्पर्धामा</w>":7961,"परराष्ट्रमन्त्री</w>":7962,"गहिरो</w>":7963,"वर्ती</w>":7964,"बाग्":7965,"ग्राहक</w>":7966,"गरिबी</w>":7967,"प्रवाह":7968,"भिसा</w>":7969,"प्रश्नको</w>":7970,"परिचय</w>":7971,"धितोपत्र</w>":7972,"देखाएर</w>":7973,"क्षतिपूर्ति</w>":7974,"चि</w>":7975,"गर्नुका</w>":7976,"चक</w>":7977,"परियोजना":7978,"हक":7979,"च्छे":7980,"उपत्यका":7981,"वल्":7982,"पुरस्थित</w>":7983,"मनोरञ्":7984,"जिल्लाबाट</w>":7985,"उपधारा</w>":7986,"ललितपुरको</w>":7987,"नारा":7988,"सम्प्रेषण</w>":7989,"विचार":7990,"महराले</w>":7991,"पर्नेछ</w>":7992,"प्रेरण":7993,"सांसदको</w>":7994,"घाइते":7995,"डोज</w>":7996,"झापाको</w>":7997,"खोलाको</w>":7998,"नुअघि</w>":7999,"दमौ":8000,"खोल्":8001,"तोकि":8002,"हिन्दू</w>":8003,"रनले</w>":8004,"ओपन":8005,"नेपालगञ्ज</w>":8006,"न्ट":8007,"मस्यौदा</w>":8008,"करिडो":8009,"माओवादीका</w>":8010,"मालपो":8011,"आवश्यक":8012,"रोनाल्":8013,"राप्ती</w>":8014,"गर्नेलाई</w>":8015,"मसान्तसम्म</w>":8016,"करोडको</w>":8017,"संगै</w>":8018,"हार":8019,"रहेकोमा</w>":8020,"लागे</w>":8021,"चुनौती":8022,"सातदो":8023,"दाइ</w>":8024,"शही":8025,"शल्यक्रिया</w>":8026,"गर्भ":8027,"एसीसी</w>":8028,"निष्पक्ष</w>":8029,"निकाल्न</w>":8030,"खुट्टा</w>":8031,"पक्की</w>":8032,"विश्वकपमा</w>":8033,"कक्ष</w>":8034,"गका</w>":8035,"स्तरोन्नति</w>":8036,"राध":8037,"षित</w>":8038,"जिता":8039,"भाइरल</w>":8040,"धका</w>":8041,"लेट</w>":8042,"पर्सा</w>":8043,"कर्म</w>":8044,"मेघ":8045,"फेब्रुअ":8046,"महिनासम्म</w>":8047,"यका</w>":8048,"अवधारणा</w>":8049,"जापानको</w>":8050,"सेनाका</w>":8051,"इन्चार्ज</w>":8052,"खोपको</w>":8053,"यत":8054,"उन्मुक्ति</w>":8055,"अपरे":8056,"अत्यन्तै</w>":8057,"घाटमा</w>":8058,"उपमहासचिव</w>":8059,"मुस्लिम</w>":8060,"भारतसँग</w>":8061,"विभागमा</w>":8062,"मन्त्रालयलाई</w>":8063,"नुसार</w>":8064,"उठ्":8065,"कोप्":8066,"कुलपति</w>":8067,"मावि":8068,"वक्त":8069,"कक्षमा</w>":8070,"शमशेर</w>":8071,"इजलासमा</w>":8072,"क्रिकेटको</w>":8073,"नवीकरण</w>":8074,"विभेद</w>":8075,"ठेकेदा":8076,"२०७०</w>":8077,"निर्वाचन":8078,"अनुमति":8079,"सदुपयोग</w>":8080,"बारम्बार</w>":8081,"बालिका</w>":8082,"म्स</w>":8083,"सत्तामा</w>":8084,"झन्":8085,"पत्राचार</w>":8086,"जाले</w>":8087,"लाइट</w>":8088,"विद्यालयले</w>":8089,"विचा":8090,"झग":8091,"चिनी</w>":8092,"अवस्थाको</w>":8093,"राख्नु</w>":8094,"आयुक्त</w>":8095,"ध्रु":8096,"रवी":8097,"मुलुकलाई</w>":8098,"बनेपछि</w>":8099,"निम्त्या":8100,"सुरक्षाकर्मी</w>":8101,"चरम</w>":8102,"भर्खरै</w>":8103,"पत्रकारिता</w>":8104,"म्याने":8105,"प्रधानमन्त्रीलाई</w>":8106,"घोषित</w>":8107,"मातृ":8108,"भाग्य":8109,"प्रयोजनका</w>":8110,"बाघ":8111,"किन्न</w>":8112,"क्षण</w>":8113,"दशक</w>":8114,"शाक्यले</w>":8115,"उप्रे":8116,"मता":8117,"घात</w>":8118,"पीडितलाई</w>":8119,"गु</w>":8120,"है</w>":8121,"पात्र</w>":8122,"प्रस्थान</w>":8123,"सेवाका</w>":8124,"छात्रवृ":8125,"उपसभामुख</w>":8126,"नगरा":8127,"भल":8128,"खानेपानीको</w>":8129,"कोट":8130,"शिशु":8131,"मंगलवार</w>":8132,"एकातिर</w>":8133,"बधाई</w>":8134,"राष्ट्रियसभा</w>":8135,"खास</w>":8136,"दक्षिणी</w>":8137,"एयर</w>":8138,"संस्थालाई</w>":8139,"क्षेत्रफ":8140,"बारका</w>":8141,"किनारमा</w>":8142,"वन्यजन्तु":8143,"धनमा</w>":8144,"बदर</w>":8145,"फोटो":8146,"प्रणाली":8147,"रेग्मीले</w>":8148,"नामावली</w>":8149,"युएई":8150,"वट</w>":8151,"हिरासतमा</w>":8152,"ूले</w>":8153,"वर्षाका</w>":8154,"ठेकेदार</w>":8155,"सुनिल</w>":8156,"किट</w>":8157,"श्रीमान्</w>":8158,"गंगा":8159,"ीयताको</w>":8160,"कामका</w>":8161,"द्वन्द्व</w>":8162,"बिहे</w>":8163,"बढ्छ</w>":8164,"सुरक्षाकर्म":8165,"भल</w>":8166,"सयभन्दा</w>":8167,"महिनाभित्र</w>":8168,"समेटिएको</w>":8169,"बासिन्दा</w>":8170,"निज</w>":8171,"हिमपा":8172,"परीक्षामा</w>":8173,"देखाउने</w>":8174,"विक्री</w>":8175,"ठिक</w>":8176,"खुल्":8177,"देखिन्छन्</w>":8178,"नैदेखि</w>":8179,"कृषक</w>":8180,"दास</w>":8181,"सायद</w>":8182,"प्रचण्डलाई</w>":8183,"अवस्थित</w>":8184,"छानविन</w>":8185,"करको</w>":8186,"मुआ":8187,"माध्यम</w>":8188,"जेन</w>":8189,"काई</w>":8190,"किताब</w>":8191,"चाबहि":8192,"सफ्":8193,"उठाएका</w>":8194,"छुट्टा":8195,"झरेको</w>":8196,"आलु</w>":8197,"वर्षभन्दा</w>":8198,"गर्नुको</w>":8199,"सङ्घको</w>":8200,"किसान":8201,"काअनुसार</w>":8202,"दस्ता":8203,"सेतो</w>":8204,"कारागार</w>":8205,"आश्वासन</w>":8206,"झ्या":8207,"महानगरपालिकाका</w>":8208,"वान्":8209,"हद":8210,"तिनै</w>":8211,"लाभांश</w>":8212,"सेट</w>":8213,"लिभर":8214,"थियौँ</w>":8215,"फोहर</w>":8216,"कहिलेका":8217,"आय</w>":8218,"विराम":8219,"उल्लंघन</w>":8220,"प्रस्तावमा</w>":8221,"युनियन</w>":8222,"लापर":8223,"ंगे":8224,"रंगशालामा</w>":8225,"आरोहण</w>":8226,"सुवास</w>":8227,"सहरमा</w>":8228,"बैशाख</w>":8229,"मोर्चा</w>":8230,"गर्दैछ</w>":8231,"रेडियो":8232,"मलेसिया</w>":8233,"चालनमा</w>":8234,"उत्तम</w>":8235,"हौ":8236,"अगाडि":8237,"गरेकोमा</w>":8238,"विजय":8239,"बोल":8240,"मानिने</w>":8241,"त्रै":8242,"बढ्नेछ</w>":8243,"नेकपा":8244,"याव":8245,"व्यापारी</w>":8246,"वाग्मती</w>":8247,"कहरुले</w>":8248,"बडी</w>":8249,"साताको</w>":8250,"नमन्त्री</w>":8251,"बढेका</w>":8252,"सामु</w>":8253,"विपरि":8254,"खोटाङ</w>":8255,"लयको</w>":8256,"गुरु</w>":8257,"झलनाथ</w>":8258,"लेन्द्र</w>":8259,"मधेश":8260,"३००</w>":8261,"लसँग</w>":8262,"बन्दा":8263,"डाँडा</w>":8264,"भान्":8265,"टीकापुर</w>":8266,"घोराही</w>":8267,"डिएसपी</w>":8268,"सभ्य":8269,"णु</w>":8270,"तपाईंले</w>":8271,"विकेटको</w>":8272,"सकेसम्म</w>":8273,"ग्राहकले</w>":8274,"चुनावको</w>":8275,"हेम":8276,"ओभर</w>":8277,"निर्देशिका</w>":8278,"औसत</w>":8279,"कार्ययोजना</w>":8280,"नसके</w>":8281,"बराबरीमा</w>":8282,"तारा":8283,"क्षेत्रले</w>":8284,"श्रृ":8285,"चल्न</w>":8286,"अर्थतन्त्रको</w>":8287,"आरक्ष":8288,"उचाइ":8289,"्यौं</w>":8290,"कर्ण":8291,"भक्तपुरमा</w>":8292,"न्द्रले</w>":8293,"नारायणी</w>":8294,"गाडीमा</w>":8295,"एकामा</w>":8296,"ढिला</w>":8297,"सापकोटा</w>":8298,"विधेयकमा</w>":8299,"योर्":8300,"२०१५</w>":8301,"आफूहरु</w>":8302,"जाहेरी</w>":8303,"रत्न":8304,"खोज्दा</w>":8305,"ण्ठ</w>":8306,"स्वयं":8307,"च्याम्पियन्स</w>":8308,"लोकतन्त्रको</w>":8309,"चितवनमा</w>":8310,"नन्द":8311,"बिहीवार</w>":8312,"अरब</w>":8313,"पवि":8314,"ण्डको</w>":8315,"टेक":8316,"त्याग</w>":8317,"पाठ</w>":8318,"स्थिरता</w>":8319,"दूता":8320,"प्रयत्न</w>":8321,"चाँदीको</w>":8322,"एफले</w>":8323,"नियम":8324,"रानी":8325,"हल्ला</w>":8326,"शेयर":8327,"हेलिकोप्":8328,"दासम्म</w>":8329,"बुबा</w>":8330,"उत्पादन":8331,"व्यवसायीलाई</w>":8332,"सेवाग्रा":8333,"म्याग्दीको</w>":8334,"लान</w>":8335,"प्रदेशसभामा</w>":8336,"महिनापछि</w>":8337,"विरू":8338,"पेट्रोल</w>":8339,"द्धान्":8340,"मन्दिरको</w>":8341,"लोड</w>":8342,"निवासमा</w>":8343,"युवालाई</w>":8344,"प्रशोधन</w>":8345,"नीतिमा</w>":8346,"तालिबा":8347,"दवा":8348,"संयन्त्र":8349,"गर्जन</w>":8350,"पालो</w>":8351,"गुप्":8352,"रघु":8353,"आजबाट</w>":8354,"थारु</w>":8355,"तस्वी":8356,"लक्ष्मी":8357,"बाढी":8358,"थाल":8359,"छायांकन</w>":8360,"डढे":8361,"अपिल</w>":8362,"साले</w>":8363,"ध्यानमा</w>":8364,"मार्च</w>":8365,"सम्बन्धलाई</w>":8366,"राम्रै</w>":8367,"रास्वपा</w>":8368,"बंगलादेश</w>":8369,"खाएर</w>":8370,"विभागीय</w>":8371,"अख्तियारले</w>":8372,"जोखिम":8373,"नेतालाई</w>":8374,"व्यवस्थापनको</w>":8375,"सल्या":8376,"धके":8377,"उपहार</w>":8378,"कहरूले</w>":8379,"लिमिटेडले</w>":8380,"क्रान्ति</w>":8381,"यसपा":8382,"निकुञ्ज</w>":8383,"तथ्यां":8384,"नाफा":8385,"सैद्धान्":8386,"छोरीको</w>":8387,"सहमतिमा</w>":8388,"नेगरी</w>":8389,"दायरामा</w>":8390,"होम":8391,"म्बरमा</w>":8392,"युरोपेली</w>":8393,"मानिसहरु</w>":8394,"धम्की</w>":8395,"व्यवसायीको</w>":8396,"शान्तिपूर्ण</w>":8397,"प्रचलन</w>":8398,"जबरजस्ती</w>":8399,"र्ट</w>":8400,"रिहा</w>":8401,"झल्":8402,"मावि</w>":8403,"मतमा</w>":8404,"डिया":8405,"नेतृत्वले</w>":8406,"पिसि":8407,"एक्सचे":8408,"विकेटले</w>":8409,"बुझ्ने</w>":8410,"हुनुपर्नेमा</w>":8411,"कैलालीको</w>":8412,"डिल्":8413,"अपाङ्ग":8414,"बैंकि":8415,"निग":8416,"दिवसका</w>":8417,"पूर्णता</w>":8418,"सन्तोष":8419,"स्पष्टीकरण</w>":8420,"कास्पद</w>":8421,"पुलिस</w>":8422,"हिमालयन</w>":8423,"सरसफाइ</w>":8424,"फैलि":8425,"फर्किने</w>":8426,"अर्याल</w>":8427,"अनुहार</w>":8428,"हजारको</w>":8429,"उद्योगको</w>":8430,"हालको</w>":8431,"फिट</w>":8432,"जोडेको</w>":8433,"छाड्ने</w>":8434,"समाजले</w>":8435,"आफैँले</w>":8436,"धौ":8437,"महानगरको</w>":8438,"सिफारिसमा</w>":8439,"विश्वप्रकाश</w>":8440,"चिएको</w>":8441,"उपलब्धि":8442,"डीले</w>":8443,"आल":8444,"द्वार</w>":8445,"गीतकार</w>":8446,"प्रतिद्वन्द्वी</w>":8447,"बढाएर</w>":8448,"सुरुङ</w>":8449,"मनाङ</w>":8450,"परिवर्तनका</w>":8451,"समग्र":8452,"बुझाउने</w>":8453,"चेक":8454,"माथा":8455,"चारु</w>":8456,"मतका</w>":8457,"मंसि":8458,"ंमा</w>":8459,"नुपर्दछ</w>":8460,"न्टल</w>":8461,"तत्":8462,"हरियो</w>":8463,"अधिकृतको</w>":8464,"अचा":8465,"निवर्तमान</w>":8466,"झाँ":8467,"पर्यटकलाई</w>":8468,"निएको</w>":8469,"कम्पनीमा</w>":8470,"महतो</w>":8471,"चुनाव":8472,"सीसी":8473,"शले</w>":8474,"बिल</w>":8475,"सारका</w>":8476,"माओवादीको</w>":8477,"जति":8478,"लाइनमा</w>":8479,"उत्साह</w>":8480,"देन</w>":8481,"रणनीतिक</w>":8482,"हिउँ</w>":8483,"देखी</w>":8484,"ठोक्किँदा</w>":8485,"दलमा</w>":8486,"अवतरण</w>":8487,"नीतिको</w>":8488,"नाक</w>":8489,"ट्र्या":8490,"वर्षमान</w>":8491,"हाल्ने</w>":8492,"दुर्गा":8493,"गैरआवासीय</w>":8494,"प्रदेशसभाको</w>":8495,"झैँ</w>":8496,"राशि":8497,"सम्बद्ध</w>":8498,"र्स":8499,"टेलिभि":8500,"भो</w>":8501,"भरे":8502,"ेरै</w>":8503,"प्रदेशले</w>":8504,"रुख</w>":8505,"कर्ताले</w>":8506,"उपराष्ट्रपति</w>":8507,"केसीको</w>":8508,"हुला":8509,"बुहा":8510,"हेटौंडा</w>":8511,"ः३०</w>":8512,"मार्ने</w>":8513,"छोरीलाई</w>":8514,"दोब्बर</w>":8515,"छलफलका</w>":8516,"प्रतिबद्ध</w>":8517,"अनियमितता</w>":8518,"म्र":8519,"अनुकूल</w>":8520,"क्यापि":8521,"न्छौं</w>":8522,"प्य</w>":8523,"उदै</w>":8524,"राजेश</w>":8525,"आईजी</w>":8526,"रेलले</w>":8527,"चुअल</w>":8528,"कारोबारमा</w>":8529,"लडाइ":8530,"दुर्घटना":8531,"मरि":8532,"सन्तान</w>":8533,"आयल</w>":8534,"नियाँ":8535,"करणी</w>":8536,"शिक्षामा</w>":8537,"प्रस्ट</w>":8538,"कोषले</w>":8539,"मानन्ध":8540,"मनोज</w>":8541,"रिता</w>":8542,"इन्धन</w>":8543,"कारि":8544,"गतेबाट</w>":8545,"नियमाव":8546,"आवश्यकता":8547,"ईश्वर</w>":8548,"अधिकारीहरुले</w>":8549,"प्रतिशतसम्म</w>":8550,"पाटी</w>":8551,"शको</w>":8552,"शतक</w>":8553,"तातो":8554,"कार्यकर्तालाई</w>":8555,"प्रकोप</w>":8556,"मौन</w>":8557,"आवद्ध</w>":8558,"हाले</w>":8559,"क्रामक</w>":8560,"पार्किङ</w>":8561,"पे</w>":8562,"गोलले</w>":8563,"उक्":8564,"बर्से":8565,"लिटी</w>":8566,"खस्":8567,"जोड्न</w>":8568,"सम्झि":8569,"जागर":8570,"बालबालिका":8571,"उत्खन":8572,"परिमार्जन</w>":8573,"नआएको</w>":8574,"नेत्र":8575,"जैविक</w>":8576,"काठमाडौँको</w>":8577,"राईको</w>":8578,"सञ्चालनको</w>":8579,"निकायका</w>":8580,"मर</w>":8581,"बच्न</w>":8582,"दललाई</w>":8583,"बाहिरबाट</w>":8584,"पाइँदैन</w>":8585,"नेस</w>":8586,"बिक्री":8587,"तथ्य":8588,"शर्माको</w>":8589,"कोइरालाको</w>":8590,"अभिभावक</w>":8591,"गर्मी</w>":8592,"अवलम्बन</w>":8593,"शिविर</w>":8594,"लहर":8595,"खब":8596,"ठाउँबाट</w>":8597,"वकि":8598,"१२":8599,"पारदर्शी</w>":8600,"ीहरू</w>":8601,"कच्चा</w>":8602,"न्थ</w>":8603,"वैशाखमा</w>":8604,"थापालाई</w>":8605,"असल</w>":8606,"कार्तिक</w>":8607,"सर्वोच्चले</w>":8608,"नेवि":8609,"सरोकारवाला":8610,"नेपालगञ्":8611,"यससँगै</w>":8612,"परीक्षणको</w>":8613,"सुख</w>":8614,"कल्प</w>":8615,"वासीलाई</w>":8616,"पुल":8617,"कृष्णबहादुर</w>":8618,"सिनाले</w>":8619,"सम्बन्धि</w>":8620,"ग्रहा":8621,"सर्वसम्मत</w>":8622,"निर्णयमा</w>":8623,"नपाइने</w>":8624,"सैद्धान्तिक</w>":8625,"घुम्न</w>":8626,"रावल</w>":8627,"आमाले</w>":8628,"गर्भवती</w>":8629,"ढाँ":8630,"निर्मित</w>":8631,"डिस्चार्ज</w>":8632,"हुनेगरी</w>":8633,"गाउँको</w>":8634,"डन</w>":8635,"शालिक":8636,"बाधा</w>":8637,"खाल्":8638,"द्वि":8639,"परिमा":8640,"सिलसि":8641,"सदस्यलाई</w>":8642,"अनौपचारिक</w>":8643,"पालिकाले</w>":8644,"सोही":8645,"प्रसिद्ध</w>":8646,"फको</w>":8647,"रिजालले</w>":8648,"ख्याल</w>":8649,"गाडीको</w>":8650,"प्रक्षे":8651,"उपचाररत</w>":8652,"पोर्चु":8653,"ीन</w>":8654,"अदालतबाट</w>":8655,"आपसमा</w>":8656,"आइएमई</w>":8657,"युट्यु":8658,"नेताहरुको</w>":8659,"मलको</w>":8660,"हारमा</w>":8661,"व्यवस्थाको</w>":8662,"चलचित्रमा</w>":8663,"साइकल</w>":8664,"होइनन्</w>":8665,"निष्कासन</w>":8666,"यिक</w>":8667,"वेद</w>":8668,"कानुनको</w>":8669,"जनार्":8670,"सक्नु":8671,"ोस्</w>":8672,"दिन्छन्</w>":8673,"स्के":8674,"र्यो</w>":8675,"महानगरपालिकाको</w>":8676,"लगेको</w>":8677,"ड्र":8678,"सङ्क्रमितको</w>":8679,"भेरिय":8680,"जिज्ञा":8681,"विपरित</w>":8682,"महामारी":8683,"अमि":8684,"साझेदार</w>":8685,"बाँध":8686,"धुलि":8687,"सारेको</w>":8688,"पाहु":8689,"शाक्य</w>":8690,"२०१४</w>":8691,"अङ्क</w>":8692,"रहेकोले</w>":8693,"सौन्द":8694,"म्युजिक</w>":8695,"विधान":8696,"वीरगञ्ज</w>":8697,"वासि":8698,"गगन</w>":8699,"फेरि":8700,"बताउनुहुन्छ</w>":8701,"सुमन</w>":8702,"न्युज</w>":8703,"समाचारमा</w>":8704,"फर्म</w>":8705,"विश्वविद्यालयको</w>":8706,"टेवा</w>":8707,"असन्तुष्ट</w>":8708,"कोषाध्यक्ष</w>":8709,"लेक</w>":8710,"संवाद":8711,"सालदेखि</w>":8712,"रेमिट्या":8713,"एमालेबाट</w>":8714,"आर्मी</w>":8715,"चाहा":8716,"नेगे":8717,"रुपैयाँले</w>":8718,"उत्रिएका</w>":8719,"सह</w>":8720,"डल</w>":8721,"हानी</w>":8722,"कम्तिमा</w>":8723,"बिस्तारै</w>":8724,"बालुवाटार</w>":8725,"कोहल":8726,"द्विपक्ष":8727,"मेलम्चीको</w>":8728,"औचि":8729,"गरौँ</w>":8730,"सिएको</w>":8731,"सहुलियत</w>":8732,"अभियानको</w>":8733,"बोहरा":8734,"कुहि":8735,"भूभागमा</w>":8736,"गोप्य</w>":8737,"नाकामा</w>":8738,"लेटि":8739,"ओखल":8740,"बहिनी</w>":8741,"दिनँ</w>":8742,"घनश्याम</w>":8743,"निलम्बन</w>":8744,"हको</w>":8745,"हता":8746,"दैनिकमा</w>":8747,"जाका</w>":8748,"अशोक</w>":8749,"स्थलगत</w>":8750,"परिरहेको</w>":8751,"सीता</w>":8752,"मिस</w>":8753,"सूचीकृत</w>":8754,"राख्नुपर्ने</w>":8755,"माल</w>":8756,"सरल</w>":8757,"मोदी</w>":8758,"खन</w>":8759,"शाखाका</w>":8760,"जात":8761,"वेन्द्र</w>":8762,"प्रधानन्यायाधीश":8763,"दिभ्":8764,"स्पोर्":8765,"कार्यान्वयनको</w>":8766,"सकेर</w>":8767,"चालय</w>":8768,"टेलिभिजन</w>":8769,"एम्":8770,"प्रजि":8771,"वनमा</w>":8772,"अन्तर्गतका</w>":8773,"साबि":8774,"नवलपरासी</w>":8775,"दु</w>":8776,"लाग्दैन</w>":8777,"अन्यत्र</w>":8778,"समन्वयमा</w>":8779,"काउन</w>":8780,"उज्या":8781,"ौलाले</w>":8782,"अन्या":8783,"ट्टी</w>":8784,"वास्तवमा</w>":8785,"श्रीलंकामा</w>":8786,"दूतावासले</w>":8787,"पर्वको</w>":8788,"अतिक्रमण</w>":8789,"काएर</w>":8790,"जानकी</w>":8791,"प्रकृति</w>":8792,"दिदी":8793,"बीउ</w>":8794,"पहलमा</w>":8795,"थुनामा</w>":8796,"प्रजातन्त्र":8797,"नसम्म</w>":8798,"नेपालमै</w>":8799,"उपभोग</w>":8800,"चाँडो</w>":8801,"कसँग</w>":8802,"चाबहिल</w>":8803,"प्रदर्शनी</w>":8804,"यादवको</w>":8805,"द्विपक्षीय</w>":8806,"महाराज":8807,"बाँके":8808,"मोडल</w>":8809,"छुक</w>":8810,"युद्धको</w>":8811,"सुरुआ":8812,"किशोरी</w>":8813,"टिक":8814,"निकाल्ने</w>":8815,"एनए</w>":8816,"ढङ्गले</w>":8817,"काठमाडा":8818,"बुझि":8819,"मिथि":8820,"पुर्याउने</w>":8821,"जानकार":8822,"संस्कृतिको</w>":8823,"बर्सेनि</w>":8824,"कुनैपनि</w>":8825,"विषयको</w>":8826,"मालपोत</w>":8827,"साधन":8828,"यात्रा":8829,"जनजाति</w>":8830,"बल्ल</w>":8831,"सेती</w>":8832,"जोन</w>":8833,"रजत</w>":8834,"क्रियाकलाप</w>":8835,"वरी":8836,"ण्ट</w>":8837,"सावधा":8838,"सेका</w>":8839,"लागुऔषध</w>":8840,"ीत</w>":8841,"मिलाएर</w>":8842,"देखेको</w>":8843,"शहरी</w>":8844,"एशो":8845,"लाय":8846,"सुचारु</w>":8847,"१४":8848,"शील":8849,"वेबसाइ":8850,"भाइरसका</w>":8851,"भोजपुर</w>":8852,"ेमा</w>":8853,"सप":8854,"राम्ररी</w>":8855,"बढि</w>":8856,"शौचालय</w>":8857,"छापा":8858,"पेर</w>":8859,"सङ्गठन</w>":8860,"मीमा</w>":8861,"चय":8862,"कार्यदल</w>":8863,"सहिद</w>":8864,"अधिकारीलाई</w>":8865,"तिवा":8866,"हितमा</w>":8867,"वडाध्यक्ष":8868,"जितमा</w>":8869,"यादव":8870,"बद्री":8871,"मह</w>":8872,"काउन्सि":8873,"कल्याण</w>":8874,"ललितपुरमा</w>":8875,"चेर</w>":8876,"निकायलाई</w>":8877,"आइरहेका</w>":8878,"मध्या":8879,"रूपले</w>":8880,"मिहि":8881,"घट्दै</w>":8882,"योजित</w>":8883,"ऐनको</w>":8884,"क्षेत्रफलमा</w>":8885,"गाली</w>":8886,"तसर्":8887,"मुग्लिन</w>":8888,"आइसोलेसन</w>":8889,"पाउनुपर्ने</w>":8890,"सम्या":8891,"भूमिमा</w>":8892,"स्थानबाट</w>":8893,"निवारण</w>":8894,"लागू":8895,"पान</w>":8896,"मेगावा":8897,"तहलाई</w>":8898,"एकीकरण</w>":8899,"सङ्गठ":8900,"लाइफ</w>":8901,"तसर्थ</w>":8902,"केशव</w>":8903,"अध्यक्षको</w>":8904,"एप</w>":8905,"भैर":8906,"क्रिकेटमा</w>":8907,"रसिंह</w>":8908,"निरीक्षण</w>":8909,"दाहालको</w>":8910,"त्यसमध्ये</w>":8911,"चलाइ":8912,"डाटा</w>":8913,"सबस्टे":8914,"छनौट</w>":8915,"सदनमा</w>":8916,"जथा":8917,"बाक्":8918,"रेड</w>":8919,"मूल्याङ्कन</w>":8920,"ङ्ख":8921,"आचारसंहिता</w>":8922,"पैदा</w>":8923,"यता":8924,"निएका</w>":8925,"उनीहरु":8926,"शालिकराम</w>":8927,"असारमा</w>":8928,"पेशा":8929,"ससँग</w>":8930,"तिमी</w>":8931,"विश्वविद्यालयका</w>":8932,"लोभ":8933,"बताइन्छ</w>":8934,"प्रयोगशाला</w>":8935,"पालु":8936,"त्रिपाठ":8937,"इमेल</w>":8938,"प्रजातान्त्रिक</w>":8939,"बजेर</w>":8940,"उखु</w>":8941,"याममा</w>":8942,"सीआई":8943,"कलेजमा</w>":8944,"नेगेटिभ</w>":8945,"तोड":8946,"भन्नेबारे</w>":8947,"मैत्री":8948,"समग्रमा</w>":8949,"कठिना":8950,"प्रशिक्षणमा</w>":8951,"नामको</w>":8952,"भइन्</w>":8953,"कार्यसमिति</w>":8954,"भाषा":8955,"अन्तराष्ट्रिय</w>":8956,"मिनेट":8957,"चरित्र</w>":8958,"डीएसपी</w>":8959,"बताउँछिन्</w>":8960,"निगमको</w>":8961,"मेयरमा</w>":8962,"समूहलाई</w>":8963,"डरा":8964,"महिनाअघि</w>":8965,"सुन्न</w>":8966,"दुर्गम</w>":8967,"विदेशमन्त्री</w>":8968,"पेट</w>":8969,"निर्देशनालय":8970,"शीर्षकमा</w>":8971,"बनाउनका</w>":8972,"युद्धमा</w>":8973,"पोष्ट":8974,"मिलि":8975,"आयोजकले</w>":8976,"खोजिएको</w>":8977,"उत्स":8978,"खरीद</w>":8979,"फोरम</w>":8980,"सदस्यका</w>":8981,"गायिका</w>":8982,"आवतजावत</w>":8983,"घ्र</w>":8984,"मिलन</w>":8985,"णात्मक</w>":8986,"सकेकाले</w>":8987,"चिन्तित</w>":8988,"टेस्ट</w>":8989,"भ्रम</w>":8990,"उप</w>":8991,"विद्युत्":8992,"अचानक</w>":8993,"बिहानै</w>":8994,"रिसो":8995,"एसएसपी</w>":8996,"त्यो":8997,"याम</w>":8998,"हुनुहुन्थ्यो</w>":8999,"उकालो</w>":9000,"बजेतिर</w>":9001,"निर्देशनमा</w>":9002,"रोजा":9003,"कीकरण</w>":9004,"जनार्दन</w>":9005,"कोरोनाबाट</w>":9006,"क्यान्सर":9007,"कोछ</w>":9008,"अर्काे</w>":9009,"रानाले</w>":9010,"बोर्डका</w>":9011,"राश":9012,"दिन्छु</w>":9013,"छरि":9014,"नकुमार</w>":9015,"स्याउ</w>":9016,"चुहा":9017,"पीडितको</w>":9018,"आयुर्":9019,"शित</w>":9020,"क्रस</w>":9021,"पिङ</w>":9022,"गर्दैन</w>":9023,"यतामा</w>":9024,"रेग्मी</w>":9025,"सुशील</w>":9026,"कुवा</w>":9027,"वन्यजन्तु</w>":9028,"चोक":9029,"ठाउँका</w>":9030,"प्रचलित</w>":9031,"स्थापनाको</w>":9032,"लोजी</w>":9033,"तत्कालिन</w>":9034,"संयन्त्र</w>":9035,"चे</w>":9036,"पुरबाट</w>":9037,"सामयिक</w>":9038,"युएई</w>":9039,"उम्मेदवारले</w>":9040,"फोर्":9041,"उनीहरू":9042,"संलग्नता</w>":9043,"धिकार</w>":9044,"सडकअन्तर्गत</w>":9045,"कर्ताको</w>":9046,"दलि":9047,"बनाउँ":9048,"बीको</w>":9049,"रोपाइ":9050,"रोले</w>":9051,"रमै</w>":9052,"तीर्थ":9053,"भैरहेको</w>":9054,"गर्नुपरेको</w>":9055,"ट्याङ्कर</w>":9056,"मेलमिला":9057,"निकालेर</w>":9058,"समेटेर</w>":9059,"बग":9060,"चौधरीको</w>":9061,"भ्रमणको</w>":9062,"शान्त</w>":9063,"किम</w>":9064,"यमान</w>":9065,"बैठकबाट</w>":9066,"पठाएका</w>":9067,"देखिको</w>":9068,"पोजि":9069,"बालुवा</w>":9070,"नियन्त्रित</w>":9071,"महर्जन</w>":9072,"प्यारा":9073,"महाधिवेशनको</w>":9074,"गएराति</w>":9075,"उद्योगले</w>":9076,"पिसिआर</w>":9077,"चेल्":9078,"व्यवहारमा</w>":9079,"ज्योति</w>":9080,"टाउ":9081,"महासंघको</w>":9082,"राहदानी</w>":9083,"क्का":9084,"सुनचाँदी</w>":9085,"पृथ्वी</w>":9086,"सला</w>":9087,"सिधै</w>":9088,"देखेपछि</w>":9089,"स्वास्थ्यका</w>":9090,"हिमपात</w>":9091,"अप्ठ्यारो</w>":9092,"प्रतिशतको</w>":9093,"कादेखि</w>":9094,"याबाट</w>":9095,"संरक्षणका</w>":9096,"४८":9097,"प्रदर्शन":9098,"एकदिवसीय</w>":9099,"प्रत्यारोपण</w>":9100,"फला":9101,"मोड</w>":9102,"सायनिक</w>":9103,"केही":9104,"बिहि":9105,"नराम्रो</w>":9106,"सरोकार</w>":9107,"तिहार</w>":9108,"यात्राको</w>":9109,"ब्ल":9110,"कांग्रेसलाई</w>":9111,"चीनबाट</w>":9112,"सांग":9113,"डाँडामा</w>":9114,"प्रतिष्ठानका</w>":9115,"उपत्यकाको</w>":9116,"फिलि":9117,"फर्कन</w>":9118,"होलान्</w>":9119,"लकडाउनको</w>":9120,"मुआब्जा</w>":9121,"बढीमा</w>":9122,"रुपन्देही</w>":9123,"अँ":9124,"पन्तले</w>":9125,"जीलाई</w>":9126,"असर":9127,"कान्त</w>":9128,"पाउनु</w>":9129,"आउँछन्</w>":9130,"माफी</w>":9131,"तीव्रता</w>":9132,"ओरालो</w>":9133,"कीर्तिमान</w>":9134,"उपसभापति</w>":9135,"पोष":9136,"सुर":9137,"समै</w>":9138,"गरेँ</w>":9139,"सुनिश्चित":9140,"नगर्दा</w>":9141,"लड्":9142,"मनसुन</w>":9143,"सिरहा":9144,"रहनुभएको</w>":9145,"दीका</w>":9146,"तथ्याङ्":9147,"आदेश":9148,"फुटपा":9149,"भ्रा":9150,"स्ट्रा":9151,"टाइन</w>":9152,"सक्दो</w>":9153,"पैदल</w>":9154,"डेभल":9155,"विरुद्धमा</w>":9156,"वृद्ध":9157,"इजरायली</w>":9158,"आजका</w>":9159,"नमाथि</w>":9160,"रोजगार":9161,"असा":9162,"घुस</w>":9163,"राष्ट्रियसभाको</w>":9164,"यकिन</w>":9165,"सँगसँगै</w>":9166,"संगठनको</w>":9167,"गर्नुपर्नेछ</w>":9168,"बोलि":9169,"गैरसरकारी</w>":9170,"थप्":9171,"णु":9172,"खोजीमा</w>":9173,"परिस्थितिमा</w>":9174,"रगत":9175,"१५०</w>":9176,"मानले</w>":9177,"घटनाबारे</w>":9178,"केपछि</w>":9179,"अपराह्न</w>":9180,"स्वयं</w>":9181,"बानी</w>":9182,"दीप":9183,"तिहाइ</w>":9184,"सनका</w>":9185,"कडाइ</w>":9186,"कोरियाली</w>":9187,"रहेकै</w>":9188,"अस्पताललाई</w>":9189,"पुनरा":9190,"कार्यसम्पादन</w>":9191,"भैरहवा</w>":9192,"वडाका</w>":9193,"अन्तर</w>":9194,"खुल्न</w>":9195,"४००</w>":9196,"झो</w>":9197,"उद्यम":9198,"णी":9199,"ओपनर</w>":9200,"इञ्जि":9201,"सामग्रीको</w>":9202,"जडीबुटी</w>":9203,"तार":9204,"प्याकेज</w>":9205,"मिल</w>":9206,"थालनी</w>":9207,"चीनका</w>":9208,"अनुसन्धानको</w>":9209,"वृत्त</w>":9210,"हस्पि":9211,"कञ्चनपुर</w>":9212,"रुचा":9213,"विभाजित</w>":9214,"प्रगति":9215,"बोर्डको</w>":9216,"जम्कट्":9217,"अधिकारीहरूले</w>":9218,"भोलिपल्ट</w>":9219,"बोले":9220,"मानिसहरू</w>":9221,"सुरेश</w>":9222,"विश्वकै</w>":9223,"प्रज्ञा</w>":9224,"पाउँछन्</w>":9225,"गैर</w>":9226,"कार्यकालमा</w>":9227,"हार्दिक</w>":9228,"उपप्रधान</w>":9229,"भाइरसबाट</w>":9230,"जस्ता":9231,"सभालाई</w>":9232,"गिरावट</w>":9233,"स्थायि":9234,"सन्धि":9235,"अफर</w>":9236,"सेल</w>":9237,"वातावरणीय</w>":9238,"मुलुकले</w>":9239,"नाल्ड</w>":9240,"गर्दे</w>":9241,"सिङ्गो</w>":9242,"बाहिरी</w>":9243,"माल्दिभ्":9244,"लिङ्":9245,"काठमाडौंबाट</w>":9246,"सर्भि":9247,"केदार</w>":9248,"कोल":9249,"निषेध</w>":9250,"पदको</w>":9251,"लगानीकर्ताले</w>":9252,"दमौली</w>":9253,"वञ्चित</w>":9254,"जवाफ":9255,"कतिपयले</w>":9256,"क्ला":9257,"राजनीतिका</w>":9258,"रकमको</w>":9259,"अध्ययनका</w>":9260,"बेड</w>":9261,"शनमा</w>":9262,"सञ्जाल":9263,"जमिनमा</w>":9264,"सट्टा</w>":9265,"पूँजी</w>":9266,"खेल्नेछ</w>":9267,"पोस्ट":9268,"परमा":9269,"गराई</w>":9270,"सहमतिको</w>":9271,"दिलाउन</w>":9272,"नसम्बन्धी</w>":9273,"दार":9274,"रथ":9275,"सफाइ":9276,"ओस्</w>":9277,"पुर्ण</w>":9278,"वाका</w>":9279,"भुसाल</w>":9280,"रेष्ट":9281,"हिन्दु</w>":9282,"छोरी":9283,"वसन्त</w>":9284,"चौर</w>":9285,"अटो":9286,"डेन</w>":9287,"बालक</w>":9288,"प्रचारप्रसार</w>":9289,"बुवा</w>":9290,"माला</w>":9291,"त्ती":9292,"संकटमा</w>":9293,"समझदा":9294,"मिर्गौला</w>":9295,"कालोपत्र</w>":9296,"तराईका</w>":9297,"निका</w>":9298,"न्दै</w>":9299,"वो":9300,"जुमा</w>":9301,"भानु":9302,"अभियन्":9303,"साइबर</w>":9304,"भूकम्पले</w>":9305,"उत्पादक</w>":9306,"करिव</w>":9307,"घरधु":9308,"बिन</w>":9309,"असंवैधानिक</w>":9310,"जीवी</w>":9311,"खेतमा</w>":9312,"कहरूको</w>":9313,"तहबाट</w>":9314,"घरका</w>":9315,"राजमार्गमा</w>":9316,"दलहरूले</w>":9317,"गुरुङको</w>":9318,"चिकित्सकले</w>":9319,"राना":9320,"नेताहरूको</w>":9321,"बैङ्क</w>":9322,"लोस":9323,"छाड्":9324,"गर्नेगरी</w>":9325,"कार्यकर्ताले</w>":9326,"भ्याक्सि":9327,"पीको</w>":9328,"प्रतिफल</w>":9329,"खतिवडा</w>":9330,"मार</w>":9331,"छोड्":9332,"पौडेललाई</w>":9333,"आकार</w>":9334,"दाङमा</w>":9335,"डेब्य":9336,"नगरे</w>":9337,"लिनु</w>":9338,"सम्मेलनको</w>":9339,"टिका</w>":9340,"महर्जनले</w>":9341,"किर्":9342,"कुराले</w>":9343,"टावर</w>":9344,"सचिवको</w>":9345,"नहोस्</w>":9346,"गीता</w>":9347,"मुग्लिङ</w>":9348,"धनुषा</w>":9349,"समस्याका</w>":9350,"खानी</w>":9351,"फ्ट</w>":9352,"कान</w>":9353,"खोज</w>":9354,"वैशाख":9355,"वेस्ट</w>":9356,"निराश</w>":9357,"सिया</w>":9358,"कहरुको</w>":9359,"अन्ततः</w>":9360,"तपाईले</w>":9361,"तु</w>":9362,"माइक्रो":9363,"जोडिन</w>":9364,"शिलान्यास</w>":9365,"अलै":9366,"विद्या</w>":9367,"श्वरस्थित</w>":9368,"लेश्वर</w>":9369,"पसलमा</w>":9370,"नजिकैको</w>":9371,"सुन्दर":9372,"खर्चको</w>":9373,"सिन</w>":9374,"प्रतिशतमा</w>":9375,"दोस्रो":9376,"यी":9377,"चाहे":9378,"चापा":9379,"पतको</w>":9380,"बाह्र":9381,"जोर्":9382,"खत्री</w>":9383,"अवस्थालाई</w>":9384,"किने</w>":9385,"बस्दैछ</w>":9386,"एमालेमा</w>":9387,"लड्ने</w>":9388,"फाइनान्स</w>":9389,"जाजरकोट</w>":9390,"निष्कर्षमा</w>":9391,"पहाड</w>":9392,"सिरिज</w>":9393,"०८</w>":9394,"कोटका</w>":9395,"ज्ञापन":9396,"एन्फा":9397,"समस्यालाई</w>":9398,"सुरक्षामा</w>":9399,"रुचि</w>":9400,"व्यापारमा</w>":9401,"सास्ती</w>":9402,"टेपछि</w>":9403,"सेटमा</w>":9404,"उन्ड</w>":9405,"मेलामा</w>":9406,"जाने":9407,"स्तरका</w>":9408,"लक्ष्मण</w>":9409,"अनुशा":9410,"सै</w>":9411,"बीले</w>":9412,"निर्णयको</w>":9413,"वाङ</w>":9414,"इन्डो":9415,"सिंगो</w>":9416,"दृश्य":9417,"छुट्टाछुट्टै</w>":9418,"कात्ति":9419,"गर्नुहोला</w>":9420,"पुँजीगत</w>":9421,"चिसो":9422,"जेको</w>":9423,"भिर</w>":9424,"निशा":9425,"यती</w>":9426,"सुक्":9427,"द्वन्द्व":9428,"उपभोग्य</w>":9429,"हुँदाहुँदै</w>":9430,"अनेक":9431,"तब</w>":9432,"जनसंख्या":9433,"भते":9434,"उपस्थितिमा</w>":9435,"निकास</w>":9436,"चोकको</w>":9437,"दिइरहेको</w>":9438,"कम्प्युटर</w>":9439,"चैत्र</w>":9440,"आदान":9441,"रुस</w>":9442,"भन्नुहुन्छ</w>":9443,"बढ्यो</w>":9444,"डभाड</w>":9445,"अध्ययनले</w>":9446,"द्रु":9447,"खानेकुरा</w>":9448,"समानता</w>":9449,"सबैमा</w>":9450,"आएकाले</w>":9451,"संरक्षणमा</w>":9452,"वार्षि":9453,"नेपालकै</w>":9454,"ज्ज":9455,"लिस</w>":9456,"कार्यका</w>":9457,"महाशाखा</w>":9458,"नँ</w>":9459,"पाइप</w>":9460,"बोट</w>":9461,"कालीगण्डकी</w>":9462,"आसपासका</w>":9463,"सापकोटा":9464,"खोला":9465,"देवी":9466,"गर्नुहुन्छ</w>":9467,"पुस्तका":9468,"निज":9469,"दाँ":9470,"व्यवस्थामा</w>":9471,"गौरी":9472,"२०६४</w>":9473,"काठ</w>":9474,"द्धिक</w>":9475,"माथिका</w>":9476,"कारण":9477,"प्रधानाध्यापक</w>":9478,"हुनुका</w>":9479,"पक्षबाट</w>":9480,"प्रस्तुति</w>":9481,"साग</w>":9482,"ज्ञवाली</w>":9483,"चिना":9484,"केन्द्रिय</w>":9485,"ग्ला":9486,"मिहिने":9487,"बिति":9488,"अधिक</w>":9489,"स्कू":9490,"दस्तावे":9491,"समयपछि</w>":9492,"बुझाएका</w>":9493,"फोनमा</w>":9494,"बाँस्":9495,"बाँदर</w>":9496,"बडा":9497,"बिभिन्न</w>":9498,"अनुभव":9499,"काङ्ग्र":9500,"सोचे":9501,"गरिदिएको</w>":9502,"हुनुको</w>":9503,"कैदी":9504,"जगत":9505,"साप्ता":9506,"सरोज</w>":9507,"संगठित</w>":9508,"पन्त</w>":9509,"महतोले</w>":9510,"सिंहदरबारमा</w>":9511,"आइसकेको</w>":9512,"कम्प्ले":9513,"झण्डा</w>":9514,"वर्गी":9515,"कार्कीको</w>":9516,"ँदैछ</w>":9517,"दृष्टिकोण</w>":9518,"चलायमान</w>":9519,"नसकेका</w>":9520,"चल</w>":9521,"मजबु":9522,"पुरि":9523,"धर":9524,"यादवलाई</w>":9525,"लम्प":9526,"चुक्ता</w>":9527,"सोध्":9528,"बार्":9529,"बटु":9530,"टरबाट</w>":9531,"मैत्रीपूर्ण</w>":9532,"चाड</w>":9533,"राजनीतिको</w>":9534,"रासायनिक</w>":9535,"पूर्णिमाका</w>":9536,"चितवनका</w>":9537,"हाउस</w>":9538,"विश्वस":9539,"हमा</w>":9540,"म्यान":9541,"पस्":9542,"त्रिवे":9543,"टेक</w>":9544,"सहभागी":9545,"सुम":9546,"ब्याटि":9547,"राजमार्गअन्तर्गत</w>":9548,"मला":9549,"टरमार्फत</w>":9550,"उन्मुख</w>":9551,"ट्रेड</w>":9552,"मिलाइएको</w>":9553,"रेबि":9554,"बोनस</w>":9555,"डटकम</w>":9556,"टिमको</w>":9557,"विपद्":9558,"स्टमा</w>":9559,"भक्तपुरको</w>":9560,"वस्तुमा</w>":9561,"रुपैयाँसम्म</w>":9562,"थ्र्यो</w>":9563,"सचिवालयका</w>":9564,"ऐनमा</w>":9565,"विराटनगरमा</w>":9566,"सत्ताको</w>":9567,"मका":9568,"शिवा":9569,"अन्त्यमा</w>":9570,"प्रजिअ</w>":9571,"भन्छ</w>":9572,"सकियो</w>":9573,"स्थानीयवासीले</w>":9574,"रुपले</w>":9575,"जेलमा</w>":9576,"हारको</w>":9577,"मारमा</w>":9578,"सम्झा":9579,"बन्दर":9580,"बोक्ने</w>":9581,"डिफे":9582,"स्वर</w>":9583,"वातावरणमन्त्री</w>":9584,"दैलेख":9585,"सभापतिमा</w>":9586,"प्रमो":9587,"जावला":9588,"मद":9589,"पुरस्कृत</w>":9590,"क्वारेन्टि":9591,"सरा":9592,"छिन</w>":9593,"गं":9594,"डोनाल्ड</w>":9595,"एकतालाई</w>":9596,"स्थापना":9597,"बाक्लो</w>":9598,"फुटा":9599,"चेत":9600,"अमा":9601,"पाइल":9602,"त्ता":9603,"११०":9604,"चलचित्रको</w>":9605,"जनमोर्चा":9606,"मेस्":9607,"पहिरोको</w>":9608,"संगठनले</w>":9609,"मिल्छ</w>":9610,"फ्रेन्":9611,"ंदा</w>":9612,"विश्वस्त</w>":9613,"देखाउँदै</w>":9614,"संखुवासभा</w>":9615,"चारवटा</w>":9616,"जबर्":9617,"पुत":9618,"साविक</w>":9619,"उत्र":9620,"क्षेत्री</w>":9621,"केभी</w>":9622,"गर्न":9623,"क्यौ":9624,"स्थाना":9625,"दम्प":9626,"त्यहीँ</w>":9627,"काँग्रेसले</w>":9628,"मकवानपुर</w>":9629,"बाघ</w>":9630,"५०३</w>":9631,"पठनपाठन</w>":9632,"९७७</w>":9633,"पलाञ्":9634,"लोको</w>":9635,"आतंक":9636,"समाजवादीले</w>":9637,"बाला":9638,"बर्दिया</w>":9639,"कारखाना</w>":9640,"अग्लो</w>":9641,"नजिकि":9642,"विजेताले</w>":9643,"गराउनु</w>":9644,"समेटि":9645,"शुभार":9646,"अपाङ्गता</w>":9647,"जानेछ</w>":9648,"व्रत</w>":9649,"तिष्":9650,"पोषण</w>":9651,"बाध्यतामा</w>":9652,"निर्मला</w>":9653,"करबाट</w>":9654,"रेष्टु":9655,"नुभन्दा</w>":9656,"सता":9657,"भनिने</w>":9658,"अनेरास्व":9659,"राणाले</w>":9660,"अन्दा":9661,"त्रास</w>":9662,"ठग":9663,"गरेकाे</w>":9664,"हजारौं</w>":9665,"खर्चि":9666,"आयातमा</w>":9667,"फेरी</w>":9668,"दिइरहेका</w>":9669,"सदन</w>":9670,"एमालेलाई</w>":9671,"सिनेमा</w>":9672,"सुपर":9673,"मन्त्रीलाई</w>":9674,"सेवालाई</w>":9675,"सर्ने</w>":9676,"गुणा</w>":9677,"केटा":9678,"गर्नसक्ने</w>":9679,"जनी</w>":9680,"फर्किएको</w>":9681,"दिशा</w>":9682,"अर्घा":9683,"क्याम":9684,"डीका</w>":9685,"मानेर</w>":9686,"स्थानका</w>":9687,"सिनियर</w>":9688,"चुरे</w>":9689,"विन्दु</w>":9690,"२०७१</w>":9691,"स्र्":9692,"नेशनल</w>":9693,"कार्यतालिका</w>":9694,"बिरा":9695,"डिल्ली":9696,"राष्ट्रका</w>":9697,"उनीसँग</w>":9698,"संकट":9699,"खेत":9700,"धू":9701,"प्रधानमन्त्रीका</w>":9702,"दिई</w>":9703,"जिन्द":9704,"गई</w>":9705,"पोष्ट</w>":9706,"पहिरोमा</w>":9707,"खत्रीले</w>":9708,"श्रीम":9709,"भारतलाई</w>":9710,"बढेसँगै</w>":9711,"महोत्सवमा</w>":9712,"उपर</w>":9713,"तिय</w>":9714,"जेठमा</w>":9715,"उत्साह":9716,"सिलसिलामा</w>":9717,"प्रकृतिको</w>":9718,"अवधारण":9719,"पूर्णरुपमा</w>":9720,"बन्दा</w>":9721,"फेर</w>":9722,"इन्दिरा</w>":9723,"तीज</w>":9724,"पेन्द्र":9725,"टिभी</w>":9726,"ड्स</w>":9727,"भण्डारण</w>":9728,"आइपुगेको</w>":9729,"सारिएको</w>":9730,"शहरमा</w>":9731,"तापनि</w>":9732,"स्क्रि":9733,"कालिका</w>":9734,"निकासी</w>":9735,"टुंग्या":9736,"कार्यालयलाई</w>":9737,"बेलायतमा</w>":9738,"हजुर":9739,"पतिका</w>":9740,"पुर्जा</w>":9741,"रोकिएका</w>":9742,"साई":9743,"कृषिमा</w>":9744,"सिंहको</w>":9745,"महिलाका</w>":9746,"प्रमाणीकरण</w>":9747,"कर्जाको</w>":9748,"प्लि":9749,"दय</w>":9750,"नप":9751,"गर्नुहोस्</w>":9752,"श्र</w>":9753,"एला</w>":9754,"व्यवस्थालाई</w>":9755,"रोको</w>":9756,"भतेरीमा</w>":9757,"प्रिय":9758,"वायुसेवा</w>":9759,"गोष्ठ":9760,"डाँडा":9761,"गङ्गा</w>":9762,"मान्छेले</w>":9763,"प्रयासमा</w>":9764,"हात":9765,"मिलियन</w>":9766,"भिड</w>":9767,"पियन</w>":9768,"अभियानका</w>":9769,"मञ्च</w>":9770,"सबभन्दा</w>":9771,"डलरको</w>":9772,"रान</w>":9773,"कमला</w>":9774,"अनेरास्ववि":9775,"प्रक्षेपण</w>":9776,"विवादित</w>":9777,"इमान्दा":9778,"औषधी</w>":9779,"विस्तारका</w>":9780,"नलाग्ने</w>":9781,"कटान</w>":9782,"म्यान</w>":9783,"विगतको</w>":9784,"वर्गको</w>":9785,"डिसेम्बर</w>":9786,"हेल्थ</w>":9787,"ठित</w>":9788,"साउनमा</w>":9789,"सोलुखु":9790,"बिग्रि":9791,"न्छौँ</w>":9792,"राख्दा</w>":9793,"अपराध":9794,"ंका</w>":9795,"मृतकको</w>":9796,"गर्नको</w>":9797,"गरिँदै</w>":9798,"धुनिक</w>":9799,"जोख":9800,"ब्रान्ड</w>":9801,"देखिएकाले</w>":9802,"ठी":9803,"वाई":9804,"शीलता</w>":9805,"रहरू</w>":9806,"शृंख":9807,"माओवादी":9808,"नीलक":9809,"उम्मेदवारलाई</w>":9810,"शिविरमा</w>":9811,"हालतमा</w>":9812,"निय</w>":9813,"हालेर</w>":9814,"रहरु</w>":9815,"टेलिफोन</w>":9816,"जवाफमा</w>":9817,"निम्तो</w>":9818,"सामाग्री</w>":9819,"यसबाहेक</w>":9820,"धेरैको</w>":9821,"जथाभावी</w>":9822,"तथ्यांक":9823,"कियो</w>":9824,"दण्ड</w>":9825,"मन्त":9826,"लिँदा</w>":9827,"तथा":9828,"अभियानलाई</w>":9829,"नाकाबाट</w>":9830,"सक्दैनन्</w>":9831,"बाहिरिएको</w>":9832,"सर्वसाधारणलाई</w>":9833,"जानुपर्छ</w>":9834,"आठौं</w>":9835,"देख्दा</w>":9836,"भेटेर</w>":9837,"युवाको</w>":9838,"एमसि":9839,"माझ</w>":9840,"चितु":9841,"सुरुवाती</w>":9842,"वरण</w>":9843,"रिक":9844,"फेसबुकमा</w>":9845,"बुढा</w>":9846,"स्वतः</w>":9847,"शंकास्पद</w>":9848,"टम</w>":9849,"ताजा</w>":9850,"घरदै":9851,"शकुमार</w>":9852,"अघिदेखि</w>":9853,"०२</w>":9854,"बृद्धि</w>":9855,"देउखु":9856,"सर्लाही</w>":9857,"यथार्थ</w>":9858,"प्रतिबद्ध":9859,"फी":9860,"जुट</w>":9861,"व्यापारी":9862,"विस्तारको</w>":9863,"सङ्क":9864,"लाईन</w>":9865,"आशिस</w>":9866,"छाडेको</w>":9867,"समसामयिक</w>":9868,"आफूहरूले</w>":9869,"घटाउन</w>":9870,"अपरि":9871,"पबाट</w>":9872,"साउन":9873,"सिस्टम</w>":9874,"गाइ":9875,"बद्रीप्रसाद</w>":9876,"सद्भाव</w>":9877,"प्रयोगशालामा</w>":9878,"राजमार्गको</w>":9879,"निकाल्":9880,"तेह्र":9881,"उपाधि":9882,"भित्रमा</w>":9883,"छनोटमा</w>":9884,"सहयोगका</w>":9885,"अर्थतन्त्रलाई</w>":9886,"दृष्टिले</w>":9887,"कटु":9888,"चारिक</w>":9889,"बेरु":9890,"तोडफो":9891,"झगडा</w>":9892,"बित्":9893,"कोषका</w>":9894,"रोय":9895,"जनवरी</w>":9896,"किमी</w>":9897,"परिषद्का</w>":9898,"खुल्ने</w>":9899,"छेउमा</w>":9900,"लहर</w>":9901,"संस्कृति":9902,"सप्तरी</w>":9903,"कहिलेकाहीँ</w>":9904,"अत्याधुनिक</w>":9905,"फागुनमा</w>":9906,"अमेरिकाका</w>":9907,"चेस्टर</w>":9908,"प्रदायक</w>":9909,"जुलु":9910,"दिलाए</w>":9911,"वीरेन्द्र</w>":9912,"बायो":9913,"व्यास</w>":9914,"बिहानैदेखि</w>":9915,"दर्श</w>":9916,"उमेश</w>":9917,"नवि":9918,"बौद्धिक</w>":9919,"महोत्तरी</w>":9920,"र्दै</w>":9921,"खुद</w>":9922,"गृहकार्य</w>":9923,"समुन्न":9924,"हल्कादेखि</w>":9925,"मौसमी</w>":9926,"तनहुँमा</w>":9927,"प्रवृत्ति":9928,"मित्र</w>":9929,"बुझेर</w>":9930,"गिरि":9931,"हँु":9932,"डेपछि</w>":9933,"देखाउँछ</w>":9934,"थ्य":9935,"अर्घाखाँ":9936,"जुलाई</w>":9937,"टिममा</w>":9938,"वरिपरि</w>":9939,"दोश्रो</w>":9940,"आफूहरू</w>":9941,"सिद्धार्थ</w>":9942,"सरह</w>":9943,"रोह</w>":9944,"अनुभ":9945,"प्रता":9946,"सूचना":9947,"दशरथ</w>":9948,"बाख्रा</w>":9949,"खाजा</w>":9950,"नाग":9951,"मिश्र</w>":9952,"रसँग</w>":9953,"एभरे":9954,"पर्छन्</w>":9955,"कार्यदलले</w>":9956,"मामि":9957,"नवनियुक्त</w>":9958,"राति":9959,"यम":9960,"२०५०३</w>":9961,"११०८०</w>":9962,"४८११०८०</w>":9963,"जनरल</w>":9964,"सक्नु</w>":9965,"थ्री</w>":9966,"दलाई</w>":9967,"त्रिवि":9968,"निभा":9969,"स्तोमा</w>":9970,"रुपियाँ":9971,"थन्":9972,"प्रश्न":9973,"चालकको</w>":9974,"सचेतना</w>":9975,"नायक</w>":9976,"रेस्टु":9977,"अस्पतालबाट</w>":9978,"राजेन्द्र":9979,"श्रीलंका</w>":9980,"दलहरू</w>":9981,"अभियान":9982,"एक्का":9983,"रोशन</w>":9984,"साम्रा":9985,"बन</w>":9986,"ढुक्क</w>":9987,"टुङ्गो</w>":9988,"ठेगा":9989,"अंग्रेजी</w>":9990,"अप्रिल</w>":9991,"प्लस</w>":9992,"नन्द</w>":9993,"मान्छेको</w>":9994,"स्क</w>":9995,"जुम्ला</w>":9996,"रोका":9997,"सेयर":9998,"नसकि":9999,"वासीको</w>":10000,"बनाउँछ</w>":10001,"पित</w>":10002,"हावाहु":10003,"प्लान्ट</w>":10004,"गैरकानुनी</w>":10005,"परिषद्ले</w>":10006,"सम्मकै</w>":10007,"श्रीमत":10008,"मिलाउने</w>":10009,"तर्फका</w>":10010,"होस</w>":10011,"सम्झौताको</w>":10012,"आषा":10013,"शहीद</w>":10014,"शर्त</w>":10015,"स्मा":10016,"चैतमा</w>":10017,"एनआई":10018,"नित</w>":10019,"जुत्ता</w>":10020,"राज्यमा</w>":10021,"डाक्टर":10022,"खाका</w>":10023,"शीघ्र</w>":10024,"स्थलमै</w>":10025,"गजु":10026,"ङ्गे</w>":10027,"वारि":10028,"त्तम</w>":10029,"हटाएर</w>":10030,"सागर":10031,"भैँ":10032,"कारागारमा</w>":10033,"मौसममा</w>":10034,"रफ्":10035,"गैं":10036,"गुमाउँदै</w>":10037,"फैसलाको</w>":10038,"अविश्वासको</w>":10039,"पर्दो</w>":10040,"दिप</w>":10041,"सर्वसाधारणको</w>":10042,"मणि":10043,"गर्दा":10044,"मान्न</w>":10045,"युनिभर्":10046,"कार्यसूची</w>":10047,"चिकित्सकको</w>":10048,"२०६३</w>":10049,"तीर्ण</w>":10050,"ताना":10051,"मुटु</w>":10052,"दलहरुले</w>":10053,"षा</w>":10054,"खरिदमा</w>":10055,"छोराको</w>":10056,"वंश":10057,"पानीले</w>":10058,"नीबाट</w>":10059,"भ्रष्टाचा":10060,"वृद्धिदर</w>":10061,"षड्य":10062,"शाहको</w>":10063,"राशि</w>":10064,"किनबे":10065,"जेल":10066,"सुधारको</w>":10067,"दिलाएका</w>":10068,"मन्त्रालयबाट</w>":10069,"आग्रह":10070,"स्वभाविक</w>":10071,"नगरे":10072,"अघिसम्म</w>":10073,"सम्झना</w>":10074,"चार्य</w>":10075,"आन्दोलन":10076,"हीलाई</w>":10077,"रामप्रसाद</w>":10078,"मृत्युको</w>":10079,"उद्धृत</w>":10080,"मानसि":10081,"स्वामित्व</w>":10082,"घाम</w>":10083,"खरिददर</w>":10084,"उनुपर्नेमा</w>":10085,"र्सा":10086,"प्रतिरो":10087,"अब्दु":10088,"समृद्धिका</w>":10089,"गौरवको</w>":10090,"उँदो</w>":10091,"गुट":10092,"खानले</w>":10093,"युग":10094,"जानकारी":10095,"नस्थित</w>":10096,"पर्यो</w>":10097,"महानगरका</w>":10098,"लड्न</w>":10099,"महान्यायाधि":10100,"वसन्त":10101,"सोधि":10102,"हेड":10103,"नेट</w>":10104,"बृहत्</w>":10105,"बस्दा</w>":10106,"ङ्गे":10107,"मस्तिष्":10108,"तनहुँको</w>":10109,"प्रवासी</w>":10110,"मानवअधिकार</w>":10111,"सांसदलाई</w>":10112,"स्टेडि":10113,"पुरी</w>":10114,"नजिकको</w>":10115,"बराल</w>":10116,"चालकलाई</w>":10117,"विमानस्थलबाट</w>":10118,"आषाढ</w>":10119,"टोलमा</w>":10120,"आदर्श</w>":10121,"वक्":10122,"विश्वकपको</w>":10123,"गरिदिन</w>":10124,"उठेका</w>":10125,"०५</w>":10126,"युनाइटेड</w>":10127,"गठबन्धनबाट</w>":10128,"रन":10129,"आकाश</w>":10130,"कुखुरा</w>":10131,"काभ्रेपलाञ्":10132,"पहुँच":10133,"१३":10134,"राजदूतावा":10135,"तत्व</w>":10136,"कारक</w>":10137,"कार्यक्रमले</w>":10138,"शेर्पाले</w>":10139,"साफ</w>":10140,"अन्तरक्रिया</w>":10141,"बूढा":10142,"तत्कालका</w>":10143,"चेको</w>":10144,"छैनौं</w>":10145,"स्थलको</w>":10146,"दाउ":10147,"उपकुलपति</w>":10148,"गाविस</w>":10149,"यरले</w>":10150,"गुराँ":10151,"उद्यमी</w>":10152,"अध्ययनमा</w>":10153,"अराज":10154,"पोखरीमा</w>":10155,"सुनसरीको</w>":10156,"खो</w>":10157,"पछिका</w>":10158,"राजवि":10159,"शरीरको</w>":10160,"हात्त":10161,"सभामुखले</w>":10162,"फिल्म":10163,"कोटे":10164,"संरचनामा</w>":10165,"विवेक":10166,"नसक्नु</w>":10167,"अनुशासन</w>":10168,"प्रतिकूल</w>":10169,"मंसिरमा</w>":10170,"च्याम्पियनसिपमा</w>":10171,"रवीन्द्र</w>":10172,"योग्यता</w>":10173,"दिनमै</w>":10174,"सम्मि":10175,"राप्रपाका</w>":10176,"एशिया</w>":10177,"हिमालय</w>":10178,"थिन्</w>":10179,"टाले</w>":10180,"रणीय</w>":10181,"अवार्":10182,"इन्स्योरेन्स</w>":10183,"रुसले</w>":10184,"मुर्":10185,"तिम्रो</w>":10186,"पारस</w>":10187,"नपाउँदा</w>":10188,"मनाइने</w>":10189,"परेकाले</w>":10190,"ट्दै</w>":10191,"अवकाश</w>":10192,"झडप</w>":10193,"सान्":10194,"ताला":10195,"पुनःनिर्माण</w>":10196,"स्नातक</w>":10197,"क्लबका</w>":10198,"रोपाइँ</w>":10199,"उपसचिव</w>":10200,"ैको</w>":10201,"स्ट्या":10202,"विन्दुमा</w>":10203,"कक्षा":10204,"न्युजि":10205,"सगरमाथा":10206,"बेचबि":10207,"तिनको</w>":10208,"भोगेका</w>":10209,"संकल":10210,"तिर्नुपर्ने</w>":10211,"फुटबलमा</w>":10212,"विश्वकर्मा</w>":10213,"सूचनामा</w>":10214,"सम्वन्":10215,"स्र":10216,"क्याम्पसमा</w>":10217,"संविधानसभा</w>":10218,"आफैले</w>":10219,"ब्याट्":10220,"उनीमाथि</w>":10221,"त्यसमाथि</w>":10222,"तालको</w>":10223,"दुख्ने</w>":10224,"सिभि":10225,"शुद्ध":10226,"एसियन</w>":10227,"अविरल</w>":10228,"बीच":10229,"शुभारम्भ</w>":10230,"उठ्ने</w>":10231,"नेतृ</w>":10232,"प्रिन्":10233,"हङकङ</w>":10234,"भदौमा</w>":10235,"कर्णालीमा</w>":10236,"बाँध</w>":10237,"बाबा</w>":10238,"भर्चुअल</w>":10239,"निकाल्दै</w>":10240,"इनि":10241,"मानिसमा</w>":10242,"परियोजनाको</w>":10243,"महसुल</w>":10244,"लगानीका</w>":10245,"सार्ने</w>":10246,"सिन्धुपाल्चोक</w>":10247,"घटनास्थलमा</w>":10248,"तर्जुमा</w>":10249,"कुँवरले</w>":10250,"सहकारीको</w>":10251,"व्यक्तिका</w>":10252,"म्यानमा":10253,"सांसदहरूले</w>":10254,"पूँजी":10255,"केन्द्रलाई</w>":10256,"आजसम्म</w>":10257,"प्लेट":10258,"इसकेका</w>":10259,"लेन":10260,"सीता":10261,"दिनभर</w>":10262,"ब्रह्":10263,"शेख</w>":10264,"ओभरको</w>":10265,"अस्तित्व</w>":10266,"सन्तुलन</w>":10267,"इमान":10268,"शेष</w>":10269,"ऋषि":10270,"मुख्या":10271,"मुस्किल</w>":10272,"स्थापनाका</w>":10273,"तेजा":10274,"फाउण्ड":10275,"खेलका</w>":10276,"तस्वीर</w>":10277,"माया":10278,"ठुला</w>":10279,"साहित्यकार</w>":10280,"गौतम":10281,"गोपन":10282,"फाउन्ड":10283,"समापन</w>":10284,"टरका</w>":10285,"पुर्याउन</w>":10286,"यसपछि</w>":10287,"लेखन</w>":10288,"राउत</w>":10289,"मिश्रले</w>":10290,"जनजीवन</w>":10291,"नृत्य</w>":10292,"सातै</w>":10293,"फाई":10294,"आमालाई</w>":10295,"घटाउने</w>":10296,"घन्टा</w>":10297,"ओलीसँग</w>":10298,"लिमिटेडको</w>":10299,"भ्रष्टाचार":10300,"प्रमुखले</w>":10301,"त्रैमा":10302,"जितसँगै</w>":10303,"दैनौं</w>":10304,"जापानी</w>":10305,"र्ट":10306,"मिता</w>":10307,"प्रणालीलाई</w>":10308,"फर्किन</w>":10309,"नुवाकोट</w>":10310,"समेतको</w>":10311,"अविजित</w>":10312,"मिल":10313,"धादिङ</w>":10314,"परियार</w>":10315,"माग्न</w>":10316,"चरा</w>":10317,"आफु</w>":10318,"एलि":10319,"बोध</w>":10320,"प्रश्नमा</w>":10321,"बीपी</w>":10322,"मो</w>":10323,"अगावै</w>":10324,"फ्लो":10325,"घरा":10326,"बढ्दा</w>":10327,"बलिउड</w>":10328,"दिक्":10329,"आक्रोश</w>":10330,"चरा":10331,"पाल्पा</w>":10332,"उचाइमा</w>":10333,"पह":10334,"निषेधाज्ञा":10335,"रसहित</w>":10336,"न्मुख</w>":10337,"यज्ञ":10338,"क्षमता":10339,"हाइड्रोपावर</w>":10340,"विद्":10341,"बढाएका</w>":10342,"फुर्":10343,"मद</w>":10344,"जसपाका</w>":10345,"एएफसी</w>":10346,"प्रभावशाली</w>":10347,"मातहतका</w>":10348,"परिणाम":10349,"सोधपु":10350,"तातोपानी</w>":10351,"देवराज</w>":10352,"नदेखिएको</w>":10353,"गाउँपालिकालाई</w>":10354,"प्रदूषण</w>":10355,"बुझेको</w>":10356,"हारिक</w>":10357,"सम्भाव्य":10358,"अक्टोबर</w>":10359,"एकोले</w>":10360,"घाँस</w>":10361,"वैचारिक</w>":10362,"सम्मिलित</w>":10363,"उत्तरदायी</w>":10364,"साप्ताहिक</w>":10365,"विधेयक":10366,"खबरसँग</w>":10367,"विकृति</w>":10368,"मासु":10369,"पन्छा":10370,"ओम":10371,"कामले</w>":10372,"अन्तरराष्ट्रिय</w>":10373,"भरपर्दो</w>":10374,"सिकार</w>":10375,"जिप</w>":10376,"मुम्बई</w>":10377,"श्याम":10378,"रोनाल्डो":10379,"खुकुलो</w>":10380,"अतिथि</w>":10381,"म्याच</w>":10382,"हनु":10383,"उपयोगी</w>":10384,"इका</w>":10385,"नैपर्छ</w>":10386,"ठाउँको</w>":10387,"आराध":10388,"लगाई</w>":10389,"तल्":10390,"विरूद्ध</w>":10391,"अघिल्":10392,"नगरको</w>":10393,"अग्रसर</w>":10394,"नक":10395,"बेच्":10396,"भाषण</w>":10397,"अविश्वास</w>":10398,"कोत्स":10399,"अग्नि":10400,"अर्कोतिर</w>":10401,"अधिकृत":10402,"छात्रा":10403,"बिना":10404,"माइती":10405,"रौतहट</w>":10406,"उजा":10407,"नत्र</w>":10408,"इटहर":10409,"प्रेरणा</w>":10410,"हावा</w>":10411,"ल्हो":10412,"हमला</w>":10413,"बगाएको</w>":10414,"राजनैतिक</w>":10415,"राउतले</w>":10416,"खेत</w>":10417,"भ्रष्टाचारको</w>":10418,"समर्थनमा</w>":10419,"बलिङ</w>":10420,"सर्जन</w>":10421,"कुल्":10422,"एसोसि":10423,"ट्रम्प</w>":10424,"नुले</w>":10425,"नारी</w>":10426,"यसपालि</w>":10427,"सैनि":10428,"रहेका":10429,"नसहित</w>":10430,"बक्यौ":10431,"उत्तीर्ण</w>":10432,"विनिमय</w>":10433,"हिँड्ने</w>":10434,"पाँचथर</w>":10435,"अर्कै</w>":10436,"जीवि":10437,"कार्यविधि":10438,"भरत</w>":10439,"फेब्रुअरी</w>":10440,"तात्":10441,"ेँ</w>":10442,"दैनौँ</w>":10443,"काट्ने</w>":10444,"प्रतिष्ठानले</w>":10445,"राखिने</w>":10446,"आनन्द":10447,"सिग्":10448,"ढाका</w>":10449,"डडेल्धु":10450,"लाइनको</w>":10451,"प्रतिष्ठानमा</w>":10452,"किनेर</w>":10453,"बेच्ने</w>":10454,"लम्पिक</w>":10455,"रुण</w>":10456,"बंगलादेश":10457,"उँछु</w>":10458,"स्त्री</w>":10459,"फुटपाथ</w>":10460,"मान्छेलाई</w>":10461,"लाखौं</w>":10462,"पत्रिकाले</w>":10463,"भरो":10464,"देखाएका</w>":10465,"साँघु":10466,"बैतडी</w>":10467,"कमाएको</w>":10468,"अर्काको</w>":10469,"एको":10470,"रहेकाे</w>":10471,"विचारा":10472,"जानकार</w>":10473,"श्वरमा</w>":10474,"सुहा":10475,"कोटी</w>":10476,"कीर्":10477,"सभामुखको</w>":10478,"चहल":10479,"चन्दले</w>":10480,"आपरा":10481,"घण्टाको</w>":10482,"चाप":10483,"बस्नु</w>":10484,"चासो":10485,"दैमा</w>":10486,"जुटेको</w>":10487,"इलामको</w>":10488,"ड्राइ":10489,"भगवान</w>":10490,"अवस्थाका</w>":10491,"ढोर":10492,"अधिवेशनमा</w>":10493,"पिका</w>":10494,"सियल</w>":10495,"सदस्यहरु</w>":10496,"बैठकपछि</w>":10497,"कहाँ":10498,"०००</w>":10499,"पाई":10500,"भेगमा</w>":10501,"विश्वविद्यालयले</w>":10502,"एकैपटक</w>":10503,"शासक":10504,"जफत</w>":10505,"आयोगलाई</w>":10506,"प्रदेशबाट</w>":10507,"तुला":10508,"मुखमा</w>":10509,"ङसहित</w>":10510,"न्यायको</w>":10511,"ओलम्पिक</w>":10512,"सचिवालयमा</w>":10513,"सम्भव":10514,"विस्फोट</w>":10515,"मत्":10516,"मारिएका</w>":10517,"ध्र</w>":10518,"फाल्":10519,"महाभि":10520,"रिटमा</w>":10521,"मिका</w>":10522,"तपाई</w>":10523,"ज्वा":10524,"२०६८</w>":10525,"वृद्धा":10526,"चिह्न</w>":10527,"पहे":10528,"अलिकति</w>":10529,"सबल</w>":10530,"बिन्दु</w>":10531,"सिया":10532,"बन्नु</w>":10533,"छात्रवृत्ति</w>":10534,"सकेकी</w>":10535,"डरले</w>":10536,"पुटि":10537,"माउ":10538,"प्रावधान":10539,"काटेर</w>":10540,"बासी</w>":10541,"सक्नुपर्ने</w>":10542,"किस्ता</w>":10543,"टाका</w>":10544,"अपहरण</w>":10545,"तरिका</w>":10546,"बसमा</w>":10547,"प्रसाई":10548,"बरालले</w>":10549,"स्थानहरूमा</w>":10550,"जनलाई</w>":10551,"विधामा</w>":10552,"ऋणको</w>":10553,"देशीय</w>":10554,"बाँकेका</w>":10555,"टिकल</w>":10556,"त्यसयता</w>":10557,"उर्जा</w>":10558,"उपस्थि":10559,"बाँकेको</w>":10560,"सर्वोच्चको</w>":10561,"सचेतकमा</w>":10562,"दुर":10563,"बुक</w>":10564,"तपाईंलाई</w>":10565,"अचम्":10566,"संक्रमणका</w>":10567,"उसका</w>":10568,"तेलको</w>":10569,"घट्ने</w>":10570,"लगानीकर्ता</w>":10571,"स्कट":10572,"चन्द्रा":10573,"संस्थापन</w>":10574,"घेरा":10575,"डेंग":10576,"निधि":10577,"बसपार्क</w>":10578,"२००७</w>":10579,"गठबन्धन":10580,"कांग्रेसबाट</w>":10581,"च्यान":10582,"सवालमा</w>":10583,"घिसिङले</w>":10584,"किन्":10585,"विन":10586,"हेरफेर</w>":10587,"सेप्टेम्बर</w>":10588,"आपराधिक</w>":10589,"विधिबाट</w>":10590,"उद्योगलाई</w>":10591,"सावधानी</w>":10592,"कसलाई</w>":10593,"णपछि</w>":10594,"मतपत्र</w>":10595,"बेच्न</w>":10596,"जेने":10597,"अनुमतिपत्र</w>":10598,"भाज":10599,"पुनराव":10600,"वागढी</w>":10601,"गोर्खा</w>":10602,"मिर</w>":10603,"सुकुम्बा":10604,"इजा":10605,"बिघा</w>":10606,"सयौं</w>":10607,"नाति":10608,"सञ्चारकर्म":10609,"ब्याट्सम्या":10610,"छर्":10611,"ट्याक्":10612,"भगवान्</w>":10613,"सफ्ट":10614,"बेलुकी</w>":10615,"ग्राहकलाई</w>":10616,"सेवक</w>":10617,"नगरका</w>":10618,"कारीको</w>":10619,"नबिल</w>":10620,"प्रकृतिका</w>":10621,"जबर्जस्ती</w>":10622,"कने":10623,"तिनका</w>":10624,"राप्रपाले</w>":10625,"परामर्श":10626,"डेरी</w>":10627,"कृति":10628,"पर्खाल</w>":10629,"यात्रुको</w>":10630,"पोखराका</w>":10631,"श्रमिकको</w>":10632,"महन्थ</w>":10633,"बुझिएको</w>":10634,"समाजवाद</w>":10635,"शुद्ध</w>":10636,"आफूसँग</w>":10637,"बनाइने</w>":10638,"आंशिकदेखि</w>":10639,"महशु":10640,"बहाव</w>":10641,"सेनापति</w>":10642,"जीत</w>":10643,"पन्ध्र</w>":10644,"अत्याधिक</w>":10645,"ढल्":10646,"पालामा</w>":10647,"भाषाको</w>":10648,"भट्टराईको</w>":10649,"यात्री</w>":10650,"काटि":10651,"हिसाब</w>":10652,"भव्य</w>":10653,"संसारमा</w>":10654,"हेटौँडा</w>":10655,"रुपान्तरण</w>":10656,"चतु":10657,"ओसार":10658,"बुल</w>":10659,"राजपा</w>":10660,"व्यक्तिमा</w>":10661,"गोल्ड":10662,"देउखुरी</w>":10663,"बजेका</w>":10664,"आधुनि":10665,"उपमेयर</w>":10666,"प्रोजे":10667,"उठाउँदै</w>":10668,"किनबेच</w>":10669,"वकिल</w>":10670,"देशै":10671,"एसोसिए":10672,"ऋषि</w>":10673,"बालिकालाई</w>":10674,"गग":10675,"फले</w>":10676,"इन्टरनेसनल</w>":10677,"सङ्क्रमणको</w>":10678,"पाकिस्तानी</w>":10679,"गुण</w>":10680,"पर्यटकले</w>":10681,"अवधिको</w>":10682,"फर्केका</w>":10683,"गाँजा</w>":10684,"भिड":10685,"प्रतिदिन</w>":10686,"फौज":10687,"निगम</w>":10688,"प्रतिष्ठानको</w>":10689,"घटनाले</w>":10690,"ठ्":10691,"आश्चर्":10692,"असार":10693,"करले</w>":10694,"फ्रान्स</w>":10695,"चाहे</w>":10696,"जातको</w>":10697,"ओर्":10698,"गान्":10699,"एजेण्डा</w>":10700,"सार्थ":10701,"उनीहरूका</w>":10702,"खुलासा</w>":10703,"अगुवा</w>":10704,"स्थानहरुमा</w>":10705,"ईन</w>":10706,"भइसक्यो</w>":10707,"खुम्":10708,"बाहिरका</w>":10709,"बहिष्":10710,"कठिनाइ</w>":10711,"यिनै</w>":10712,"तातो</w>":10713,"गुठी</w>":10714,"पालाई</w>":10715,"क्षेत्रीले</w>":10716,"०७</w>":10717,"वर्ण":10718,"पुटी</w>":10719,"सदै":10720,"चाहन्छन्</w>":10721,"सीमामा</w>":10722,"नआउने</w>":10723,"लिपु":10724,"योजनाले</w>":10725,"उद्देश्यका</w>":10726,"नेपालसँग</w>":10727,"०९</w>":10728,"किन्ने</w>":10729,"प्रयोगशा":10730,"विद्रोह</w>":10731,"जोडे</w>":10732,"अर्जुन":10733,"वादी":10734,"देवकोटा":10735,"कुँवर</w>":10736,"ञ्जली</w>":10737,"मिक":10738,"अज्ञा":10739,"अध्यक्षले</w>":10740,"खोज्दै</w>":10741,"नागरिकका</w>":10742,"गरेनन्</w>":10743,"विशेषता</w>":10744,"ग्री":10745,"दया":10746,"लक्ष्यमा</w>":10747,"खर":10748,"लिनका</w>":10749,"तेह्रथु":10750,"क्रा</w>":10751,"कोर्":10752,"नियाँ</w>":10753,"आइपुगेका</w>":10754,"उपकरण":10755,"तला":10756,"गेट</w>":10757,"जवान</w>":10758,"झर":10759,"त्रो</w>":10760,"आदानप्रदान</w>":10761,"जुद</w>":10762,"आफन्तले</w>":10763,"नन</w>":10764,"चौपा":10765,"विवेक</w>":10766,"ज्ञानेन्द्र":10767,"असहज</w>":10768,"खर्चमा</w>":10769,"पोल</w>":10770,"बिरामी":10771,"थारू</w>":10772,"जुटेका</w>":10773,"पाँचथ":10774,"स्टिक</w>":10775,"नह":10776,"उही</w>":10777,"फोक्":10778,"बजारी":10779,"ौंदेखि</w>":10780,"एजेन्डा</w>":10781,"बिपी</w>":10782,"डेभलप":10783,"यममा</w>":10784,"आदेशमा</w>":10785,"हारेर</w>":10786,"रहेकामा</w>":10787,"ेश्वर</w>":10788,"चरित्र":10789,"हृदय":10790,"भित्रिएको</w>":10791,"बसेकी</w>":10792,"भान</w>":10793,"भूमिगत</w>":10794,"भित्र्याउने</w>":10795,"घातक</w>":10796,"पायो</w>":10797,"वातावरणमा</w>":10798,"ताप्लेजुङ</w>":10799,"सिजनमा</w>":10800,"वडाको</w>":10801,"वधि</w>":10802,"मझ":10803,"म्यारा":10804,"दलहरु</w>":10805,"गौशाला</w>":10806,"मजबुत</w>":10807,"जि</w>":10808,"मेगावाटको</w>":10809,"सोसाइ":10810,"मेहनत</w>":10811,"सातादेखि</w>":10812,"निमा</w>":10813,"कमाउने</w>":10814,"गृहमा</w>":10815,"अघिका</w>":10816,"वीरगन्ज</w>":10817,"कुराहरु</w>":10818,"च्छेद</w>":10819,"थलो</w>":10820,"हेलिकप्टर</w>":10821,"सेमिफाइनल</w>":10822,"यथार्थ":10823,"खान":10824,"दुबै":10825,"घटनालाई</w>":10826,"ठकु":10827,"वीरगञ्":10828,"रूपैयाँ":10829,"बेल्जि":10830,"पीडितले</w>":10831,"तालिकाको</w>":10832,"भड्":10833,"भईरहेको</w>":10834,"पाएर</w>":10835,"कड":10836,"बक्यौता</w>":10837,"पिन</w>":10838,"युवाले</w>":10839,"पर्वमा</w>":10840,"अभिलेख</w>":10841,"थित</w>":10842,"टिमका</w>":10843,"सक्नेछ</w>":10844,"खाएको</w>":10845,"आसन्न</w>":10846,"डेपुटी</w>":10847,"नाहरु</w>":10848,"सक्नुपर्छ</w>":10849,"असोजमा</w>":10850,"उन्न":10851,"तालमा</w>":10852,"संसदबाट</w>":10853,"तेज":10854,"०६</w>":10855,"घाट":10856,"नुहोला</w>":10857,"ध्वस्त</w>":10858,"जातिको</w>":10859,"ज्ञापन</w>":10860,"बोकेका</w>":10861,"बोलको</w>":10862,"तेर</w>":10863,"सुरुङ":10864,"लेख्ने</w>":10865,"विद्यालयलाई</w>":10866,"चैत":10867,"नजाने</w>":10868,"नेपछि</w>":10869,"सपथ</w>":10870,"भेद":10871,"लेख्न</w>":10872,"राजधानीको</w>":10873,"बोहरा</w>":10874,"स्वास्थ्यको</w>":10875,"जहि":10876,"वर्षयता</w>":10877,"नेप्से":10878,"देवेन्द्र</w>":10879,"हित":10880,"पद्":10881,"आगमन</w>":10882,"क्वारेन्टाइन</w>":10883,"गरिनुपर्ने</w>":10884,"न्डमा</w>":10885,"लियाले</w>":10886,"मण्डलले</w>":10887,"पराजुलीले</w>":10888,"भएकामा</w>":10889,"होमि":10890,"रङ</w>":10891,"गाँउ":10892,"आइपुग्दा</w>":10893,"सर्त</w>":10894,"किटा":10895,"उपभोक्ता":10896,"सेनामा</w>":10897,"जाय":10898,"टेन</w>":10899,"रोगी</w>":10900,"रुवा":10901,"लगाउनु</w>":10902,"क्रमा</w>":10903,"उज्यालो</w>":10904,"रहा</w>":10905,"अभावका</w>":10906,"चले</w>":10907,"नौलो</w>":10908,"एकाएक</w>":10909,"अहिलेका</w>":10910,"नेपालीहरुलाई</w>":10911,"रबहादुर</w>":10912,"टरी</w>":10913,"क्रो</w>":10914,"भन्नुभएको</w>":10915,"पेनाल्टी</w>":10916,"ब्रेक</w>":10917,"लिग":10918,"सेल्सि":10919,"पृथ्व":10920,"क्विन्टल</w>":10921,"लेखे":10922,"चौधरीलाई</w>":10923,"ख्यक</w>":10924,"अंग</w>":10925,"मध्ये":10926,"फुटबलको</w>":10927,"भक्तपुरका</w>":10928,"समुन्नत</w>":10929,"बहादुरसिंह</w>":10930,"ओले</w>":10931,"दोहोरि":10932,"स्टाइ":10933,"रोका</w>":10934,"डेङ्ग":10935,"दीपेन्द्र</w>":10936,"खोजेका</w>":10937,"नुहा":10938,"नेताका</w>":10939,"प्रलोभ":10940,"प्राप्ति</w>":10941,"साइड</w>":10942,"खोलेर</w>":10943,"न्ह</w>":10944,"वली</w>":10945,"सुनिश्चितता</w>":10946,"ङटार</w>":10947,"हैसियत</w>":10948,"हुन्थे</w>":10949,"बजेटले</w>":10950,"ँलाई</w>":10951,"दुईजना</w>":10952,"दुवैको</w>":10953,"ौंको</w>":10954,"देवकोटाले</w>":10955,"अन्यथा</w>":10956,"उत्खनन</w>":10957,"सिटमा</w>":10958,"युनिट</w>":10959,"रदेखि</w>":10960,"इन्डोने":10961,"प्रतियोगिता":10962,"सन्धि</w>":10963,"रूढ</w>":10964,"र्त":10965,"बेग्":10966,"जंग</w>":10967,"खाँचो</w>":10968,"नुमा</w>":10969,"चिया":10970,"जातका</w>":10971,"संस्करणमा</w>":10972,"योगदानको</w>":10973,"पवित्र</w>":10974,"प्रक्रियालाई</w>":10975,"खोकी</w>":10976,"देखिएन</w>":10977,"ल्यान्":10978,"अटो</w>":10979,"पुग्नेछ</w>":10980,"कोसिस</w>":10981,"जुटाउन</w>":10982,"दिल्लीमा</w>":10983,"सिद्ध":10984,"खानेपानी":10985,"दैनथ्यो</w>":10986,"डेमो":10987,"यात्रुलाई</w>":10988,"श्रीलङ्":10989,"मालिक</w>":10990,"नोक्सानी</w>":10991,"सङ्घर्ष</w>":10992,"सर्वसाधारणले</w>":10993,"शास्त्र</w>":10994,"फर्केर</w>":10995,"तोलामा</w>":10996,"योगेश</w>":10997,"प्रदेशलाई</w>":10998,"निरं":10999,"पुरे":11000,"भाग्य</w>":11001,"स्टे</w>":11002,"तथ्यांकअनुसार</w>":11003,"सदैव</w>":11004,"नहुनु</w>":11005,"जनकपुरधाम</w>":11006,"युनाइटेडले</w>":11007,"कार्यक्रमअन्तर्गत</w>":11008,"बनाउनुपर्छ</w>":11009,"पाबाट</w>":11010,"पुसमा</w>":11011,"स्वे":11012,"नवनिर्वाचित</w>":11013,"कल्याण":11014,"पद्धति</w>":11015,"चौता":11016,"मनाइ":11017,"झोलु":11018,"पुच्छ":11019,"सत्तारूढ</w>":11020,"जिते</w>":11021,"गर्नै</w>":11022,"कारीले</w>":11023,"सिन्धुलीबाट</w>":11024,"शिक्षकको</w>":11025,"वार्षिकोत्स":11026,"कसुर</w>":11027,"जलेर</w>":11028,"पिएको</w>":11029,"धनी":11030,"तोडफोड</w>":11031,"निरु":11032,"बेल</w>":11033,"रारा</w>":11034,"बसपार्":11035,"गएकाले</w>":11036,"तुलसीपुर</w>":11037,"कहरुलाई</w>":11038,"गर्दैछन्</w>":11039,"दाका</w>":11040,"दुवैले</w>":11041,"हदसम्म</w>":11042,"झापामा</w>":11043,"न्ज</w>":11044,"लामिछानेलाई</w>":11045,"सेनालाई</w>":11046,"शो</w>":11047,"तिरेर</w>":11048,"चहलपहल</w>":11049,"ल्यान्डले</w>":11050,"ेरो</w>":11051,"रेमिट्यान्स</w>":11052,"देशकै</w>":11053,"निक्षे":11054,"कारणबाट</w>":11055,"रहनुभएका</w>":11056,"थियाे</w>":11057,"सकिन्न</w>":11058,"अल्पमतमा</w>":11059,"जोखबहादुर</w>":11060,"नाघेको</w>":11061,"जोर</w>":11062,"निरपे":11063,"उनेको</w>":11064,"जनयुद्ध</w>":11065,"दमक</w>":11066,"औचित्य</w>":11067,"सुरू":11068,"ताला</w>":11069,"पुगिसकेको</w>":11070,"पछि":11071,"ल्याउँदा</w>":11072,"मीन</w>":11073,"महरा</w>":11074,"ब्युरो</w>":11075,"निस्कने</w>":11076,"हजारौँ</w>":11077,"रिजाल</w>":11078,"अदालत":11079,"निर्णयलाई</w>":11080,"भगवती</w>":11081,"मुद्राको</w>":11082,"१९९९</w>":11083,"शिल</w>":11084,"बलर</w>":11085,"सर्वदलीय</w>":11086,"भेन्टिलेटर</w>":11087,"ल्ट</w>":11088,"एप्प":11089,"जात्र":11090,"आलोच":11091,"पौडेल":11092,"गोठ</w>":11093,"श्रीलंकाको</w>":11094,"जसअनुसार</w>":11095,"बाहिरिने</w>":11096,"सुनुवाई</w>":11097,"प्ले</w>":11098,"संस्कृत</w>":11099,"निर्म":11100,"डोजर</w>":11101,"०७४</w>":11102,"ल्याउनुपर्ने</w>":11103,"शार":11104,"कष्ट":11105,"रक्षक</w>":11106,"अनुदानमा</w>":11107,"ओसारप":11108,"सुलभ</w>":11109,"अनलाईन</w>":11110,"लगानीकर्ता":11111,"रातो":11112,"जम्कट्टेलले</w>":11113,"पाकिस्तानको</w>":11114,"सूर्यो":11115,"बजारबाट</w>":11116,"पासमा</w>":11117,"लेन्द्र":11118,"पुगेकी</w>":11119,"जान्":11120,"कोरियाले</w>":11121,"शाखाले</w>":11122,"जवाफदे":11123,"भर्न</w>":11124,"योजनाका</w>":11125,"पाठ्यक्रम</w>":11126,"ंगु":11127,"प्रतिबन्ध":11128,"योजनालाई</w>":11129,"सबैका</w>":11130,"स्थानान्तरण</w>":11131,"नताको</w>":11132,"कञ्चनपुरको</w>":11133,"तिर्ने</w>":11134,"वामपन्थी</w>":11135,"पतन</w>":11136,"बन्नेछ</w>":11137,"ठक्करबाट</w>":11138,"त्यसतर्फ</w>":11139,"अवस्थाबारे</w>":11140,"कागज</w>":11141,"कामहरु</w>":11142,"बास":11143,"संरचनाको</w>":11144,"चिन":11145,"रत्न</w>":11146,"क्वारेन्टिनमा</w>":11147,"बाइडेनले</w>":11148,"प्रकाशशरण</w>":11149,"उज्":11150,"सर्वोच्चमा</w>":11151,"सर्ट</w>":11152,"डिजेल</w>":11153,"णविक</w>":11154,"बनाइएका</w>":11155,"नेल</w>":11156,"यिनी":11157,"वक्तव्य":11158,"विष्णुप्रसाद</w>":11159,"कमिटीका</w>":11160,"आफ्नी</w>":11161,"हेल":11162,"लामा":11163,"नेकपाले</w>":11164,"एमएस</w>":11165,"चाहिएको</w>":11166,"नुन</w>":11167,"निकालिएको</w>":11168,"अर्कोतर्फ</w>":11169,"ल्याउँदै</w>":11170,"संघमा</w>":11171,"२०१३</w>":11172,"धर्ना</w>":11173,"आउने":11174,"आराधना</w>":11175,"उमेरका</w>":11176,"संगठनका</w>":11177,"खुट्":11178,"अर्पण</w>":11179,"मन्त्रीमा</w>":11180,"नर्स</w>":11181,"नरी</w>":11182,"निर्णयले</w>":11183,"अस":11184,"वेयर</w>":11185,"पुर्याएको</w>":11186,"गुन्":11187,"होली</w>":11188,"समाजलाई</w>":11189,"बैंकिङ्ग</w>":11190,"नभइ</w>":11191,"सत्र</w>":11192,"च्चि":11193,"कालीकोट</w>":11194,"नपाएर</w>":11195,"ङ्</w>":11196,"पिसा":11197,"स्वर्ग":11198,"प्रालि</w>":11199,"मुलुकबाट</w>":11200,"भनिएका</w>":11201,"पेरिस</w>":11202,"पुस्तकमा</w>":11203,"उपचारपछि</w>":11204,"ीमाथि</w>":11205,"टर्स</w>":11206,"सारा</w>":11207,"नाच</w>":11208,"झापाका</w>":11209,"इन्जिनियरिङ</w>":11210,"काहरु</w>":11211,"लागिरहेको</w>":11212,"घु</w>":11213,"बन्दीको</w>":11214,"बैङ्कले</w>":11215,"कारखा":11216,"भित्रिने</w>":11217,"सर्किट</w>":11218,"भइसकेपछि</w>":11219,"कुवेत</w>":11220,"मनिष</w>":11221,"पीपी":11222,"नाबाट</w>":11223,"सीई":11224,"झन्झ":11225,"बैंकबाट</w>":11226,"सुन्ने</w>":11227,"तेक्वा":11228,"अडा":11229,"सातौं</w>":11230,"सञ्चि":11231,"धोका</w>":11232,"यौन":11233,"बहरा":11234,"बेइजि":11235,"पूर्णरूपमा</w>":11236,"प्रेममा</w>":11237,"संयोजन</w>":11238,"वधिक</w>":11239,"संघीय":11240,"माध्यम":11241,"वर्षाले</w>":11242,"लुगा</w>":11243,"कान्तिपुर</w>":11244,"संशोधनको</w>":11245,"भएँ</w>":11246,"बेग्लै</w>":11247,"सेन्टरमा</w>":11248,"एपिएफले</w>":11249,"नेसनल</w>":11250,"त्तो</w>":11251,"णिक</w>":11252,"अरुलाई</w>":11253,"माग्ने</w>":11254,"म्बु</w>":11255,"ँदो</w>":11256,"महिलामा</w>":11257,"बालिकाको</w>":11258,"साम्":11259,"सेवी</w>":11260,"मोटरसाइकलमा</w>":11261,"कहीँ</w>":11262,"बढाउँदै</w>":11263,"जिट</w>":11264,"खेले</w>":11265,"पानीका</w>":11266,"एकजुट</w>":11267,"खाको</w>":11268,"लाखौँ</w>":11269,"क्वार्":11270,"स्थानिय</w>":11271,"पश्चिममा</w>":11272,"दुग्":11273,"छठ</w>":11274,"पूर्वअध्यक्ष</w>":11275,"दरबार":11276,"इच्छुक</w>":11277,"करार</w>":11278,"औषधिको</w>":11279,"परिकल्पना</w>":11280,"जनप्रतिनिधिले</w>":11281,"कमिटीले</w>":11282,"अन्सा":11283,"नुपर्यो</w>":11284,"महाप्रबन्धक</w>":11285,"अंश</w>":11286,"सिभिल</w>":11287,"रजिष्ट":11288,"लकडाउनका</w>":11289,"टेक्नो":11290,"मेलमिलाप</w>":11291,"्यौँ</w>":11292,"रोचक</w>":11293,"नोभेम्बर</w>":11294,"सम्भाव्यता</w>":11295,"बच्चाको</w>":11296,"लाग्थ्यो</w>":11297,"नम":11298,"दिल":11299,"बासिन्दाले</w>":11300,"उत्पादनका</w>":11301,"बाले</w>":11302,"पहिलेको</w>":11303,"सिटि":11304,"जीवित</w>":11305,"अर्कालाई</w>":11306,"काट्न</w>":11307,"गरियोस्</w>":11308,"दाङको</w>":11309,"डिट</w>":11310,"मेगा</w>":11311,"अनुसन्धानबाट</w>":11312,"प्रकाशन":11313,"जोडी</w>":11314,"उठ्न</w>":11315,"कस्ता</w>":11316,"दशैं</w>":11317,"विचाराधीन</w>":11318,"पर्दै</w>":11319,"मुख्यमन्त्री":11320,"पाटी":11321,"भिटा":11322,"यरका</w>":11323,"प्रकरण</w>":11324,"ङ्गिक</w>":11325,"माथिबाट</w>":11326,"कुटनीति</w>":11327,"बिका":11328,"ओभर":11329,"इमि":11330,"विश्वविद्यालयमा</w>":11331,"ल्ड":11332,"उल्लेखनीय</w>":11333,"सत्रमा</w>":11334,"ज्ञापनपत्र</w>":11335,"प्रतिलिटर</w>":11336,"उब्":11337,"ज्यू":11338,"सकै</w>":11339,"प्रसू":11340,"खड्काको</w>":11341,"सजग</w>":11342,"बाहु":11343,"अर्थमा</w>":11344,"रहर</w>":11345,"बस्नुपर्ने</w>":11346,"दीपक":11347,"डढेलो</w>":11348,"गराइने</w>":11349,"महत्त्व</w>":11350,"मिडिया":11351,"साटो</w>":11352,"दीलाई</w>":11353,"टाढा":11354,"कममा</w>":11355,"लमजुङ</w>":11356,"चितवनले</w>":11357,"ल्टी</w>":11358,"सुखी</w>":11359,"हाल्न</w>":11360,"फिल्मले</w>":11361,"मुल</w>":11362,"व्यावहारिक</w>":11363,"ट्याक्सी</w>":11364,"खेलले</w>":11365,"घटनास्थलमै</w>":11366,"जाडो</w>":11367,"उठाएर</w>":11368,"गुणस्त":11369,"ताली":11370,"बेलायतको</w>":11371,"धुलिखेल</w>":11372,"माघमा</w>":11373,"दाइ":11374,"इन्भे":11375,"अधिकारीका</w>":11376,"परेकी</w>":11377,"विनायक</w>":11378,"चलखेल</w>":11379,"प्रर्":11380,"सेस</w>":11381,"जू":11382,"एटी":11383,"रोगबाट</w>":11384,"पेको</w>":11385,"पाँचौ</w>":11386,"२५०</w>":11387,"बढाइ":11388,"बादल</w>":11389,"वर्गीकरण</w>":11390,"जीप</w>":11391,"भनेकै</w>":11392,"दायरा</w>":11393,"स्नात":11394,"लोप</w>":11395,"विषयगत</w>":11396,"प्रयास":11397,"रक्षामन्त्री</w>":11398,"जंगलमा</w>":11399,"हेर्दै</w>":11400,"यहि</w>":11401,"कँडेलले</w>":11402,"उपाध्यायले</w>":11403,"भरिएको</w>":11404,"साधनमा</w>":11405,"नर्सिङ</w>":11406,"बिषयमा</w>":11407,"मिडियामा</w>":11408,"त्रिवेणी</w>":11409,"बिहिबार</w>":11410,"नेताहरुलाई</w>":11411,"कार्यपालिका</w>":11412,"जरी</w>":11413,"अद्या":11414,"आक्रामक</w>":11415,"कुण्ड</w>":11416,"लागूऔषध</w>":11417,"म्यानचेस्टर</w>":11418,"पखा":11419,"उठेर</w>":11420,"हैसियतमा</w>":11421,"युरोपियन</w>":11422,"ट्वान्":11423,"रणमा</w>":11424,"शृङ्ख":11425,"कोरियाको</w>":11426,"दबाबमा</w>":11427,"बोक्":11428,"निमन्त्र":11429,"मार्क</w>":11430,"पथ्र्यो</w>":11431,"बढाउनुपर्ने</w>":11432,"कमाइ</w>":11433,"बताउने</w>":11434,"डेन":11435,"कांग्रेसमा</w>":11436,"अभियुक्त":11437,"मेक्सि":11438,"तरलता</w>":11439,"भित्र्याउन</w>":11440,"बक्स</w>":11441,"गठनका</w>":11442,"रूपान्तरण</w>":11443,"निगमका</w>":11444,"वनस्प":11445,"गराउनुपर्ने</w>":11446,"नाथको</w>":11447,"आत्ति":11448,"बहुमतको</w>":11449,"गम्भीर":11450,"चीनसँग</w>":11451,"समूहबाट</w>":11452,"बनिरहेको</w>":11453,"मातहत</w>":11454,"अन्तिममा</w>":11455,"अष्ट्रेलिया</w>":11456,"मानका</w>":11457,"बोलेको</w>":11458,"फौजदारी</w>":11459,"आफुले</w>":11460,"थिए":11461,"टाउन</w>":11462,"बेरुजु</w>":11463,"आकाश":11464,"एड":11465,"शंकर":11466,"लिम्बू</w>":11467,"बिरामीले</w>":11468,"तुरुन्तै</w>":11469,"पात":11470,"बनाउने":11471,"बजारका</w>":11472,"पालिकाका</w>":11473,"मागेका</w>":11474,"त्रिपुरे":11475,"शिकार</w>":11476,"कालिन</w>":11477,"मन्द":11478,"अन्ध":11479,"क्षमतामा</w>":11480,"मकि":11481,"साङ</w>":11482,"परिकार</w>":11483,"त्रिशू":11484,"रोध":11485,"तोक्ने</w>":11486,"न्वित</w>":11487,"ऊँ</w>":11488,"जीर्ण</w>":11489,"जबकि</w>":11490,"जोम":11491,"मारेको</w>":11492,"मुस्ताङ</w>":11493,"सब</w>":11494,"मुकु":11495,"डब्लु":11496,"छैटौं</w>":11497,"पलायन</w>":11498,"देवीको</w>":11499,"पंक्ति":11500,"घरघरमा</w>":11501,"मामिलामा</w>":11502,"समस्याले</w>":11503,"रोकेको</w>":11504,"लाग्नेछ</w>":11505,"हम":11506,"डब्ल":11507,"बहानामा</w>":11508,"डिया</w>":11509,"क्ष्":11510,"निर्वाचनलाई</w>":11511,"अधिवेशनको</w>":11512,"एडि":11513,"नामा":11514,"मरासि":11515,"तुलनात्मक</w>":11516,"पर्यटनको</w>":11517,"पसल":11518,"प्यान":11519,"सिरहा</w>":11520,"ेजी</w>":11521,"हिमपातको</w>":11522,"आउनेछ</w>":11523,"झन</w>":11524,"हास्य</w>":11525,"भाडा":11526,"उनुको</w>":11527,"प्रतियोगिताका</w>":11528,"सुझाव":11529,"धै":11530,"ठाकुरले</w>":11531,"छैनौँ</w>":11532,"आयर":11533,"यसी</w>":11534,"गरेन</w>":11535,"एसई":11536,"बगर":11537,"जडि":11538,"छाउप":11539,"राजस्व":11540,"मृतकका</w>":11541,"गरिदिने</w>":11542,"अव्यवस्थित</w>":11543,"मेघगर्जन</w>":11544,"अपु":11545,"डेट</w>":11546,"वरमा</w>":11547,"तसँग</w>":11548,"प्रतिभा</w>":11549,"भनिए</w>":11550,"डम्ब":11551,"कामबाट</w>":11552,"बेँ":11553,"शुक्रबारदेखि</w>":11554,"रोमा":11555,"निकासा</w>":11556,"व्यक्तित्व</w>":11557,"एक्स</w>":11558,"समयका</w>":11559,"मतगण":11560,"छोराछोरी</w>":11561,"बाहक</w>":11562,"शब्द":11563,"बाद</w>":11564,"बायाँ</w>":11565,"गिरफ्":11566,"इङ्":11567,"नाइजे":11568,"क्रु":11569,"कार्यवाहक</w>":11570,"आराम</w>":11571,"आक्रोशित</w>":11572,"कुश</w>":11573,"प्रतिवेदनले</w>":11574,"कपिलवस्तु</w>":11575,"नगरपालिकालाई</w>":11576,"पीएस":11577,"छाला</w>":11578,"बैठकलाई</w>":11579,"बरि":11580,"क्यामेरा</w>":11581,"ङ्ग्य</w>":11582,"लस्थित</w>":11583,"डुबानमा</w>":11584,"करुपमा</w>":11585,"सोम</w>":11586,"छेउ":11587,"नापी</w>":11588,"अमृत</w>":11589,"भ्याक्सिन</w>":11590,"हिनामि":11591,"सिमाना</w>":11592,"सघन</w>":11593,"सामान":11594,"चुहावट</w>":11595,"सयौँ</w>":11596,"याएर</w>":11597,"निकायबाट</w>":11598,"रक्सी</w>":11599,"रातमा</w>":11600,"उपदफा</w>":11601,"कार्यकर्ताको</w>":11602,"गाउँमै</w>":11603,"जान्छन्</w>":11604,"प्रतिष्पर्":11605,"निर्देशित</w>":11606,"लाभान्वित</w>":11607,"राईलाई</w>":11608,"जर्मन</w>":11609,"म्यान्":11610,"जनही</w>":11611,"अभावले</w>":11612,"कामदारको</w>":11613,"हरायो</w>":11614,"संस्थाबाट</w>":11615,"सावित</w>":11616,"प्रशान्त</w>":11617,"चिन्ह</w>":11618,"कालापानी</w>":11619,"जर्स</w>":11620,"पूर्वाधारको</w>":11621,"अश्":11622,"चुरो":11623,"केसन</w>":11624,"असुल</w>":11625,"शाक्य":11626,"भुर्":11627,"दासमेत</w>":11628,"रक्षाका</w>":11629,"नामले</w>":11630,"जर्मनी</w>":11631,"दक</w>":11632,"१३२</w>":11633,"एमालेकी</w>":11634,"छाड्न</w>":11635,"उभिएर</w>":11636,"टिका":11637,"पोखरा":11638,"बसे</w>":11639,"गहना</w>":11640,"कारोवार</w>":11641,"छाडि":11642,"बोहराले</w>":11643,"धर्माव":11644,"रात्रि":11645,"रस्थित</w>":11646,"अपांग":11647,"स्वस्थ":11648,"थी":11649,"नदार</w>":11650,"मधे":11651,"पेसा</w>":11652,"वर्गका</w>":11653,"बिर्ता":11654,"आपत":11655,"प्रालिले</w>":11656,"घाटन</w>":11657,"रहन्छन्</w>":11658,"शिर</w>":11659,"आक्रमणबाट</w>":11660,"स्थगन</w>":11661,"जनशक्तिको</w>":11662,"मनोबल</w>":11663,"टीलाई</w>":11664,"हिंसात्मक</w>":11665,"साक्ष":11666,"एसए":11667,"हास्य":11668,"भद्र</w>":11669,"कालदेखि</w>":11670,"संक्रमणमुक्त</w>":11671,"लामिछानेको</w>":11672,"आफूमाथि</w>":11673,"तम":11674,"सेज</w>":11675,"वासी":11676,"रस</w>":11677,"सन्तुलित</w>":11678,"उपाय":11679,"लिया":11680,"कारबाहीमा</w>":11681,"गठबन्धनलाई</w>":11682,"मर्म</w>":11683,"गे</w>":11684,"बका</w>":11685,"बैङ्कको</w>":11686,"सकिएन</w>":11687,"बढेकाले</w>":11688,"एन्ड":11689,"अग्रेजी</w>":11690,"धामा</w>":11691,"मुख्यमन्त्रीले</w>":11692,"जेठ":11693,"०४</w>":11694,"मिलाइ":11695,"फेल</w>":11696,"लाग्दै</w>":11697,"विश्वकर्माले</w>":11698,"एकताबद्ध</w>":11699,"चुनौतीपूर्ण</w>":11700,"अधिकारका</w>":11701,"बलका</w>":11702,"वासमा</w>":11703,"मुगु":11704,"संचालनमा</w>":11705,"सदस्यहरू</w>":11706,"खोजे":11707,"भन्दा":11708,"आखि":11709,"स्टेट</w>":11710,"चिन्ता":11711,"सिंहदरबार</w>":11712,"करमा</w>":11713,"लिम्पि":11714,"यतिखेर</w>":11715,"म्मे</w>":11716,"ल्याउनु</w>":11717,"खुले":11718,"नैपर्ने</w>":11719,"कारिणी</w>":11720,"सिन्धुली</w>":11721,"अम्बा":11722,"इएका</w>":11723,"आणविक</w>":11724,"दण्ड":11725,"इलाम":11726,"मार्के":11727,"करूपमा</w>":11728,"मतदान":11729,"श्मा</w>":11730,"दुखा":11731,"धान्न</w>":11732,"पैदल":11733,"गतिविधिमा</w>":11734,"पुगी</w>":11735,"सुनिता</w>":11736,"क्वे":11737,"मेची</w>":11738,"क्रेडिट</w>":11739,"यर्":11740,"बाख्रा":11741,"भत्कि":11742,"व्यङ्ग्य</w>":11743,"युवती</w>":11744,"तीनव":11745,"लम्बा":11746,"अङ्कले</w>":11747,"लियो":11748,"युरोप</w>":11749,"गतिको</w>":11750,"भूभाग</w>":11751,"कपाल</w>":11752,"६००</w>":11753,"सिल्":11754,"पतिले</w>":11755,"साधनलाई</w>":11756,"खुवाउने</w>":11757,"हप्तामा</w>":11758,"संकल्प</w>":11759,"वाही</w>":11760,"दैनिकी</w>":11761,"क्षेत्रफल</w>":11762,"सुरुआत</w>":11763,"नपाएपछि</w>":11764,"पाइन्":11765,"च्छा":11766,"अन्र्त":11767,"सन्देशमा</w>":11768,"लनमा</w>":11769,"विधेयकको</w>":11770,"न्सी</w>":11771,"कुरो</w>":11772,"खगे":11773,"प्रतिष्ठित</w>":11774,"उल्लङ्":11775,"खर्चेर</w>":11776,"हिँड्न</w>":11777,"आउनुभएको</w>":11778,"मीलाई</w>":11779,"सास</w>":11780,"गहुँ</w>":11781,"खानपा":11782,"सेली</w>":11783,"टेलिकमले</w>":11784,"बाँकेमा</w>":11785,"यहाँस्थित</w>":11786,"आइपि":11787,"घोषणापत्र</w>":11788,"पाइप":11789,"नरेश</w>":11790,"गर्नेको</w>":11791,"दुर्घटनाको</w>":11792,"वैज्ञानिक":11793,"उँथे</w>":11794,"एरै</w>":11795,"मुलुकी</w>":11796,"सुनाएको</w>":11797,"ँदैनन्</w>":11798,"अध्यागमन</w>":11799,"एसम्म</w>":11800,"रचना</w>":11801,"बुटवलमा</w>":11802,"सडकबाट</w>":11803,"धारा":11804,"त्तमा</w>":11805,"सङ्कट</w>":11806,"पोखरेलको</w>":11807,"मिसन</w>":11808,"डेल</w>":11809,"लिन्छ</w>":11810,"एटि":11811,"सक्रियता</w>":11812,"नार</w>":11813,"छाडेका</w>":11814,"विरोध":11815,"मार्न</w>":11816,"आन्दोलनलाई</w>":11817,"कुकुर</w>":11818,"बजेको</w>":11819,"आचार्यको</w>":11820,"त्यसबारे</w>":11821,"हत्यामा</w>":11822,"अपेक्षा":11823,"ओलम्":11824,"लोले</w>":11825,"सफलताको</w>":11826,"कमिटीमा</w>":11827,"ढुंगाना</w>":11828,"शिशु</w>":11829,"वृद्धिको</w>":11830,"पूर्णबहादुर</w>":11831,"यौ</w>":11832,"रायमाझी</w>":11833,"बसिरहेका</w>":11834,"दरा":11835,"कुरै</w>":11836,"१२०</w>":11837,"महासमिति</w>":11838,"रेशम</w>":11839,"औषध":11840,"चढेर</w>":11841,"तीकरण</w>":11842,"प्रकाशनगर्दे</w>":11843,"इजाज":11844,"जीव</w>":11845,"दूरीमा</w>":11846,"भाइरस":11847,"नेमकि":11848,"एशोसिए":11849,"च्चा":11850,"रातको</w>":11851,"शुरुवा":11852,"केशन</w>":11853,"ह्वाइ":11854,"म्याग":11855,"कक्षामा</w>":11856,"कैलालीमा</w>":11857,"अपरिहार्":11858,"फूलको</w>":11859,"भृ":11860,"दर्शकले</w>":11861,"स्नान</w>":11862,"कफी</w>":11863,"टाइज":11864,"पेरि":11865,"अदु":11866,"समर्थक</w>":11867,"टिमलाई</w>":11868,"धनगढीमा</w>":11869,"मिथिला</w>":11870,"अनियन्त्रित</w>":11871,"क्षतिको</w>":11872,"अपमान</w>":11873,"स्थामा</w>":11874,"भूकम्पको</w>":11875,"दशकमा</w>":11876,"जहाँ":11877,"किराँ":11878,"उदयपुरको</w>":11879,"गर्व</w>":11880,"डिजाइ":11881,"प्राचीन</w>":11882,"ऊर्जा":11883,"अगुवा":11884,"दोषीलाई</w>":11885,"यसैले</w>":11886,"ंगो</w>":11887,"जेष्ठ</w>":11888,"अन्याय</w>":11889,"मास</w>":11890,"१६८</w>":11891,"काभ्रे</w>":11892,"पर्वका</w>":11893,"ट्वान्टी</w>":11894,"क्षता</w>":11895,"गिरिजा":11896,"गरेकै</w>":11897,"थप्ने</w>":11898,"वामदेव</w>":11899,"प्रयोगकर्ता":11900,"सहजता</w>":11901,"बज्रा":11902,"राजदूतावासले</w>":11903,"हर्ष":11904,"अनौठो</w>":11905,"सिद्धि":11906,"गइ":11907,"काउन्सिल</w>":11908,"उमा":11909,"मैनालीले</w>":11910,"२०१२</w>":11911,"पोख्रे":11912,"स्मार्टफोन</w>":11913,"क्याच</w>":11914,"गाड</w>":11915,"त्वका</w>":11916,"युरो</w>":11917,"महत्वका</w>":11918,"प्रतिव्यक्ति</w>":11919,"चापीय</w>":11920,"संस्करण</w>":11921,"सहारा</w>":11922,"वनको</w>":11923,"यान</w>":11924,"जस</w>":11925,"उजागर</w>":11926,"पाएनन्</w>":11927,"घाती</w>":11928,"आक्रमणको</w>":11929,"एल्":11930,"निस्कन</w>":11931,"माने":11932,"तिवारीले</w>":11933,"सदस्यहरुले</w>":11934,"अनलाइन":11935,"टोप":11936,"गुट</w>":11937,"गर्दछौं</w>":11938,"निकटतम</w>":11939,"कहरूलाई</w>":11940,"बन्धित</w>":11941,"कन्टे":11942,"इजलास</w>":11943,"पब्लिक</w>":11944,"यन्त्र</w>":11945,"फुल</w>":11946,"चौकीमा</w>":11947,"टेलिकम</w>":11948,"मिनी</w>":11949,"बाजा</w>":11950,"एमालेसँग</w>":11951,"हितका</w>":11952,"गुल्मी</w>":11953,"नजा":11954,"व्यापारीले</w>":11955,"स्ट्रि":11956,"एकताका</w>":11957,"घरायसी</w>":11958,"रक्":11959,"मन्त्रिपरिषद्ले</w>":11960,"नसकेर</w>":11961,"भण्डारी":11962,"खल्":11963,"भुइँ":11964,"अला":11965,"नहुन</w>":11966,"दिपा":11967,"युथ</w>":11968,"गर्नुस्</w>":11969,"भंग</w>":11970,"समारोह</w>":11971,"हौसला</w>":11972,"सुख्":11973,"लीस्थित</w>":11974,"जन्मिएका</w>":11975,"पोशा":11976,"वृद्ध</w>":11977,"जिम्बा":11978,"पशुपतिनाथ</w>":11979,"ढुवा":11980,"मनोरञ्जन</w>":11981,"अञ्":11982,"बिक्रीदर</w>":11983,"बालकको</w>":11984,"नेटवर्क</w>":11985,"बोहो":11986,"बापतको</w>":11987,"रिलो</w>":11988,"पढेर</w>":11989,"कन्या</w>":11990,"बखत</w>":11991,"युक्रेन</w>":11992,"कोश":11993,"पाँचौँ</w>":11994,"लिभरपु":11995,"साथबाट</w>":11996,"पट्ट":11997,"नीलकण्ठ</w>":11998,"ओग":11999,"सलमान</w>":12000,"नामबाट</w>":12001,"प्रतिस्थापन</w>":12002,"थोक</w>":12003,"ग्रुप</w>":12004,"ब्र</w>":12005,"सोहीअनुसार</w>":12006,"कलाकारको</w>":12007,"परीक्षाको</w>":12008,"उद्घाट":12009,"ङ्गु":12010,"अरेबि":12011,"लिम्पिया":12012,"दह</w>":12013,"कालीकोटको</w>":12014,"दूध":12015,"उल्टै</w>":12016,"ठाँ":12017,"श्रीमान</w>":12018,"जिम्मेवारीमा</w>":12019,"बास्":12020,"बिचौ":12021,"लागिरि</w>":12022,"कन्स्ट्र":12023,"दैलेख</w>":12024,"लुट":12025,"आयोजनालाई</w>":12026,"प्रजन":12027,"सिकाइ</w>":12028,"एनआरएनए</w>":12029,"यहाँबाट</w>":12030,"पदमार्ग</w>":12031,"सतह</w>":12032,"देवकोटा</w>":12033,"प्रशासनको</w>":12034,"लम्ब</w>":12035,"छे</w>":12036,"गम्भिर</w>":12037,"स्थायित्व</w>":12038,"विशेषज्ञ":12039,"वापत</w>":12040,"मौज्":12041,"पाकिस्तानले</w>":12042,"जङ्गल</w>":12043,"पदाधिकारीको</w>":12044,"तपाईको</w>":12045,"विघटनको</w>":12046,"टाइम</w>":12047,"बोलपत्र</w>":12048,"विज्ञापन":12049,"आस्था</w>":12050,"थन</w>":12051,"क्लबलाई</w>":12052,"दिपक</w>":12053,"जंगल</w>":12054,"स्ववि":12055,"मराज</w>":12056,"ीतिक</w>":12057,"टारमा</w>":12058,"टप":12059,"पराजुली</w>":12060,"सेन्ट</w>":12061,"प्राय</w>":12062,"गौरव</w>":12063,"हाङ</w>":12064,"स्का":12065,"होटेल</w>":12066,"फिलिपि":12067,"ईन्":12068,"कठो":12069,"सङ्केत</w>":12070,"उपभोक्ताको</w>":12071,"कार्यभार</w>":12072,"स्वयम्":12073,"धारी</w>":12074,"संस्थान</w>":12075,"धरौटी</w>":12076,"स्वीकार्":12077,"बर्खास्त</w>":12078,"मतदाता":12079,"मुल्य</w>":12080,"अफगानिस्तान</w>":12081,"बिगा":12082,"कसको</w>":12083,"सिमेन्":12084,"एकपछि</w>":12085,"तिम्":12086,"टिकट":12087,"म्भ":12088,"हरे":12089,"अन्तर्राष्ट्रिय":12090,"रुख":12091,"दसैँ</w>":12092,"१५":12093,"आईजी":12094,"त्योभन्दा</w>":12095,"लेखेर</w>":12096,"सिलो</w>":12097,"रहेन</w>":12098,"नान्तर</w>":12099,"त्साहित</w>":12100,"कोरोनाभाइरस</w>":12101,"कत्व</w>":12102,"कार्यकारिणी</w>":12103,"उन्नत</w>":12104,"हत्याको</w>":12105,"प्रभु":12106,"रंगशाला</w>":12107,"साउने</w>":12108,"सोमपाल</w>":12109,"बुझेका</w>":12110,"बोलाउने</w>":12111,"दाना</w>":12112,"निर्विरोध</w>":12113,"प्रस्तावलाई</w>":12114,"खाँदा</w>":12115,"मतदाताले</w>":12116,"उपभोक्ताले</w>":12117,"पाइयो</w>":12118,"देखाइएको</w>":12119,"गरेकामा</w>":12120,"प्रतिनिधिसभाका</w>":12121,"शर्मालाई</w>":12122,"लगाउँदा</w>":12123,"जितको</w>":12124,"राष्ट्रियता</w>":12125,"वार्ताको</w>":12126,"श्वास":12127,"जबराले</w>":12128,"कार्कीलाई</w>":12129,"छुवा":12130,"काउन्टर</w>":12131,"नुपर्</w>":12132,"जनाभन्दा</w>":12133,"प्याड</w>":12134,"भेष":12135,"अस्ट्रेलिया</w>":12136,"स्वरमा</w>":12137,"रन्":12138,"छोरालाई</w>":12139,"पहिलेदेखि</w>":12140,"प्रताप</w>":12141,"आशं":12142,"मध्यपहाडी</w>":12143,"नपुगेको</w>":12144,"चाहन्छ</w>":12145,"स्टल</w>":12146,"रहनेछन्</w>":12147,"सक्छौं</w>":12148,"सहमतिका</w>":12149,"नामिबि":12150,"खाद्य":12151,"बेरोजगार</w>":12152,"आसपास</w>":12153,"रुट</w>":12154,"हुनुअघि</w>":12155,"रुपन्देहीको</w>":12156,"मौज्दा":12157,"वितरणमा</w>":12158,"सरसफाइ":12159,"वर्षकी</w>":12160,"मूल्यवृद्धि</w>":12161,"पिडि":12162,"राजले</w>":12163,"एजु":12164,"मालिका</w>":12165,"काज</w>":12166,"नविरुद्ध</w>":12167,"बाँच्न</w>":12168,"राहुल</w>":12169,"गीले</w>":12170,"उमेद":12171,"क्यू":12172,"देशव्यापी</w>":12173,"असहमति</w>":12174,"छवि</w>":12175,"झोला</w>":12176,"क्लो":12177,"गुम्बा</w>":12178,"युभेन्":12179,"छाउपडी</w>":12180,"दाम</w>":12181,"शक्तिलाई</w>":12182,"असि":12183,"तामाङको</w>":12184,"सञ्चारकर्मी":12185,"छाएको</w>":12186,"रेन्टी</w>":12187,"फैसला":12188,"सर्वेक्षण</w>":12189,"अन्दाजी</w>":12190,"उहाँहरुले</w>":12191,"विकले</w>":12192,"खुलेका</w>":12193,"दुबई</w>":12194,"विवादका</w>":12195,"गरिनु</w>":12196,"समर्पित</w>":12197,"जापानले</w>":12198,"दाता":12199,"बच्चालाई</w>":12200,"कानुनले</w>":12201,"त्रियु":12202,"कोभिडको</w>":12203,"साहित्यिक</w>":12204,"एनसेल</w>":12205,"कसुरमा</w>":12206,"विस्तारमा</w>":12207,"रोकेर</w>":12208,"परिक्षण</w>":12209,"बोग":12210,"ज्याला</w>":12211,"सिजनको</w>":12212,"मागमा</w>":12213,"फाइनान्":12214,"महासङ्घका</w>":12215,"करिडोर</w>":12216,"माहो":12217,"१७":12218,"मासि":12219,"धुलो</w>":12220,"समकक्ष":12221,"जोगाउने</w>":12222,"संगठन":12223,"बोका</w>":12224,"गोलमा</w>":12225,"महान्</w>":12226,"क्की</w>":12227,"निरुप":12228,"खुट्ट":12229,"दोलखा</w>":12230,"च्यालेन्":12231,"खेतीमा</w>":12232,"हेरिएको</w>":12233,"स्थानीयलाई</w>":12234,"ललिता</w>":12235,"वार्ता":12236,"जागरण</w>":12237,"अर्बको</w>":12238,"खुलेर</w>":12239,"न्यू</w>":12240,"दिइसकेको</w>":12241,"धेरैलाई</w>":12242,"गुम्":12243,"वाइस</w>":12244,"मौला":12245,"खानेपानीमन्त्री</w>":12246,"अलैँ":12247,"सञ्जय</w>":12248,"बिन्दुमा</w>":12249,"खाडी</w>":12250,"सर्च</w>":12251,"तीनवटै</w>":12252,"करणीय</w>":12253,"यताको</w>":12254,"तयारी":12255,"स्कुटर</w>":12256,"विही":12257,"भनेकी</w>":12258,"नीतिले</w>":12259,"भनि</w>":12260,"युवकको</w>":12261,"उम्":12262,"दरको</w>":12263,"ब्यक्ति":12264,"अरुको</w>":12265,"तेस्रो":12266,"अफगानिस्तानमा</w>":12267,"अज्ञात</w>":12268,"इका":12269,"डेलि":12270,"सिप</w>":12271,"कास्कीका</w>":12272,"रिटी</w>":12273,"जीका</w>":12274,"कैलाश</w>":12275,"प्रतिष्ठा</w>":12276,"लडेर</w>":12277,"आयोजनाबाट</w>":12278,"ग्राहकको</w>":12279,"शव":12280,"पश्चिम":12281,"टेकु":12282,"बढे</w>":12283,"कर्णालीका</w>":12284,"नाराका</w>":12285,"सकिन</w>":12286,"तैपनि</w>":12287,"कोहलपुर</w>":12288,"नेदरल्यान्":12289,"भिटामिन</w>":12290,"प्रद</w>":12291,"गराउँदा</w>":12292,"पाएँ</w>":12293,"बोलाएका</w>":12294,"क्षेत्रभित्रका</w>":12295,"दाबे":12296,"सम्म":12297,"वाहिक</w>":12298,"ल्याई</w>":12299,"लाग्नु</w>":12300,"मोदीको</w>":12301,"क्षय":12302,"गुराँस</w>":12303,"रेन</w>":12304,"किपर</w>":12305,"प्रविधिमा</w>":12306,"प्राथमिकताका</w>":12307,"क्षेत्रभित्र</w>":12308,"भागको</w>":12309,"पदमुक्त</w>":12310,"अवलोक":12311,"१६":12312,"सुस्त</w>":12313,"लोह":12314,"गोपाल":12315,"भूत":12316,"सुपरि":12317,"महाअभियोग</w>":12318,"एकसाथ</w>":12319,"अन्योल</w>":12320,"जाम</w>":12321,"नियामक</w>":12322,"किसिमले</w>":12323,"स्मारक</w>":12324,"समाधानको</w>":12325,"स्वीकृ":12326,"उपाध्याय</w>":12327,"सदर</w>":12328,"दाजुभाइ":12329,"हिउँदे</w>":12330,"रंग</w>":12331,"प्रधानले</w>":12332,"दुइ":12333,"लिनुपर्छ</w>":12334,"नबारे</w>":12335,"साइट</w>":12336,"०७५</w>":12337,"क्षक</w>":12338,"लोकसेवा</w>":12339,"घटनाक्रम":12340,"पछ्याएको</w>":12341,"स्ने":12342,"सातामा</w>":12343,"टक्":12344,"२०११</w>":12345,"गर्नुअघि</w>":12346,"फड्":12347,"त्कृष्ट</w>":12348,"शङ्का</w>":12349,"वरपर</w>":12350,"ढोरपाटन</w>":12351,"चय</w>":12352,"पम्":12353,"पाठकले</w>":12354,"दूर</w>":12355,"इजरायल</w>":12356,"नेम्वाङले</w>":12357,"सार्न</w>":12358,"जोशीको</w>":12359,"स्यो</w>":12360,"आईसीसी</w>":12361,"ष्य</w>":12362,"पोलिट":12363,"उपविजेता</w>":12364,"लन्ड":12365,"न्यु</w>":12366,"छोड्ने</w>":12367,"परेमा</w>":12368,"होल्":12369,"बाँडफाँट</w>":12370,"कोरियामा</w>":12371,"लघुवित्":12372,"बनेकी</w>":12373,"कारबाहीका</w>":12374,"स्नातको":12375,"मन्त्रिपरिषद</w>":12376,"नेताहरूलाई</w>":12377,"गले</w>":12378,"शिक्षाका</w>":12379,"०७६</w>":12380,"दिदी</w>":12381,"सकी</w>":12382,"पैसाको</w>":12383,"दाहाललाई</w>":12384,"देशबीच</w>":12385,"क्र्":12386,"आगो":12387,"आति":12388,"टुँ":12389,"करोडभन्दा</w>":12390,"सक्नुहुनेछ</w>":12391,"भरिका</w>":12392,"समयअघि</w>":12393,"अब्बल</w>":12394,"कलेजका</w>":12395,"कमाउन</w>":12396,"कम्प्लेक्स</w>":12397,"निकल</w>":12398,"ल्याब</w>":12399,"चनले</w>":12400,"धामी</w>":12401,"यसकारण</w>":12402,"उचाइ</w>":12403,"क्समा</w>":12404,"सम्पत्तिको</w>":12405,"लालले</w>":12406,"कविहीन</w>":12407,"स्वास्थ्यकर्मी":12408,"पहिरोका</w>":12409,"कारोबारको</w>":12410,"अनुपात</w>":12411,"कुराहरू</w>":12412,"याइएको</w>":12413,"गन्तव्यमा</w>":12414,"जरमा</w>":12415,"सोधपुछ</w>":12416,"आइतबारदेखि</w>":12417,"विषादी</w>":12418,"आयात":12419,"गाउँबाट</w>":12420,"सुरज</w>":12421,"तुलना</w>":12422,"अभियन्ता</w>":12423,"निटाइज":12424,"निधि</w>":12425,"समानुपातिक":12426,"घाँटी</w>":12427,"भएनन्</w>":12428,"गुम":12429,"गच्छ":12430,"हाइड":12431,"आफूहरुको</w>":12432,"भण्डारीलाई</w>":12433,"सञ्चारमाध्यमले</w>":12434,"स्कुलमा</w>":12435,"डडेल्धुरा</w>":12436,"बिद्या":12437,"बढ्नुपर्ने</w>":12438,"प्रतिनिधिले</w>":12439,"बझाङ</w>":12440,"मुछि":12441,"प्रजातिका</w>":12442,"बेइजिङ</w>":12443,"त्रियुगा</w>":12444,"भानुभक्त</w>":12445,"फेस्टि":12446,"सदा":12447,"ट्रोल</w>":12448,"जिति":12449,"जापानमा</w>":12450,"ह्वात्तै</w>":12451,"सङ्क्रमण":12452,"च्चै</w>":12453,"सुनेर</w>":12454,"काङ्ग्रेस":12455,"हिन्दी</w>":12456,"महालक्ष्मी</w>":12457,"दिनहुँ</w>":12458,"उल्लेखित</w>":12459,"ट्रफी</w>":12460,"ल्याइने</w>":12461,"महालेखा</w>":12462,"भेट्":12463,"लेखकले</w>":12464,"स्वाय":12465,"हेर</w>":12466,"गाह</w>":12467,"यही":12468,"लैङ्गिक</w>":12469,"ब्ल्या":12470,"सेवाग्राही":12471,"रोज्":12472,"फेर्न</w>":12473,"प्रेमी</w>":12474,"मिल्दा</w>":12475,"पालुङटार</w>":12476,"रणको</w>":12477,"ण्डी</w>":12478,"सुदूरपश्चिममा</w>":12479,"लोड":12480,"तराईमा</w>":12481,"सुरेन्द्र":12482,"दुरी</w>":12483,"मिना":12484,"पुरै</w>":12485,"तपाइ":12486,"पुनरावलोकन</w>":12487,"शय्या":12488,"दाल</w>":12489,"२०१०</w>":12490,"हुनै</w>":12491,"ख्यात</w>":12492,"योजनको</w>":12493,"डालाई</w>":12494,"भर्ने</w>":12495,"विवाहको</w>":12496,"पर्ने":12497,"उजुरी":12498,"पिउने</w>":12499,"क्यापिटल</w>":12500,"बहुदलीय</w>":12501,"हानि":12502,"डायस्पो":12503,"बंगा":12504,"प्रतिकिलो</w>":12505,"वृद्धिका</w>":12506,"बचत":12507,"बलात्कार":12508,"आइजी</w>":12509,"आफूहरुलाई</w>":12510,"आम्दानीको</w>":12511,"सप्तरीको</w>":12512,"मछिन्द्र</w>":12513,"अद्यावधिक</w>":12514,"निमार्":12515,"बहिष्कार</w>":12516,"चुस्त</w>":12517,"सम्पादक</w>":12518,"वर्गीय</w>":12519,"सीमावर्ती</w>":12520,"सन्दीपले</w>":12521,"पीले</w>":12522,"वार्ताका</w>":12523,"चौला":12524,"ट्रान्":12525,"भेन्टिलेटरमा</w>":12526,"सहकारी":12527,"चट्याङ</w>":12528,"मुद्दालाई</w>":12529,"शतप्रतिशत</w>":12530,"धिकृत</w>":12531,"तिमल्":12532,"करेन्ट</w>":12533,"अचे":12534,"बर्द":12535,"परेन</w>":12536,"रोकथामका</w>":12537,"काण्ड</w>":12538,"कब्":12539,"व्यवहारिक</w>":12540,"थान":12541,"तत्व":12542,"उद्या":12543,"काट्":12544,"त्यसैको</w>":12545,"प्रमोद</w>":12546,"सरिता</w>":12547,"आइसी":12548,"छापा</w>":12549,"ब्याक</w>":12550,"कार्यक्रमहरु</w>":12551,"पूर्वमा</w>":12552,"डुबेर</w>":12553,"ंगिक</w>":12554,"न्दर्":12555,"बुकिङ</w>":12556,"क्षिप्त</w>":12557,"धितो</w>":12558,"पाइ</w>":12559,"आउँदैन</w>":12560,"तिलागु":12561,"निष्क्रिय</w>":12562,"डेभलपमेन्ट</w>":12563,"बेचेर</w>":12564,"पिता</w>":12565,"तुरुन्त</w>":12566,"पृथ":12567,"ड्यु":12568,"स्टेडियममा</w>":12569,"डोमा</w>":12570,"ओमि":12571,"पाइला</w>":12572,"मिड":12573,"युद्धका</w>":12574,"बागलुङको</w>":12575,"सतर्क</w>":12576,"पाती</w>":12577,"दोषीमाथि</w>":12578,"खटिने</w>":12579,"साम्राज्य":12580,"ग्लाइ":12581,"युगमा</w>":12582,"सभ्यता</w>":12583,"धारमा</w>":12584,"ओझे":12585,"सर्भिस</w>":12586,"अध्यापन</w>":12587,"गोविन्द":12588,"सिंहदरबार":12589,"उपभोक्तालाई</w>":12590,"छुट्याइएको</w>":12591,"सन्तुष्ट</w>":12592,"जनमान":12593,"ञ्ज</w>":12594,"श्रेण":12595,"कोपार्":12596,"अध्ययनको</w>":12597,"दछन्</w>":12598,"गोकर्ण</w>":12599,"केहीले</w>":12600,"पीड":12601,"पृथ्वीनारायण</w>":12602,"रोल्पा</w>":12603,"कलेजले</w>":12604,"पातमा</w>":12605,"नुपर्दा</w>":12606,"मञ्चमा</w>":12607,"अस्त":12608,"मुक्तिनाथ</w>":12609,"थारु":12610,"म्यानेज":12611,"बैंकलाई</w>":12612,"गान</w>":12613,"निर्देशि":12614,"फिफा</w>":12615,"इमिरे":12616,"नलिने</w>":12617,"कठोर</w>":12618,"बसी</w>":12619,"सिलिन्डर</w>":12620,"साङ्":12621,"क्रिकेटर</w>":12622,"भूमिकालाई</w>":12623,"अपरिहार्य</w>":12624,"संसार</w>":12625,"मधेशी</w>":12626,"त्तिमा</w>":12627,"बढी":12628,"मकवानपुरको</w>":12629,"शय</w>":12630,"पुस्ता</w>":12631,"सुन्दा</w>":12632,"संशोधन":12633,"वासीले</w>":12634,"खेप्":12635,"हर्क":12636,"कास्कीको</w>":12637,"लगायतमा</w>":12638,"ठूलै</w>":12639,"महामारीले</w>":12640,"मानबहादुर</w>":12641,"विमल</w>":12642,"क्षतिमा</w>":12643,"राे":12644,"हस्ताक्ष":12645,"शर्मा":12646,"तिलागुफा</w>":12647,"उपे":12648,"चौतर्फी</w>":12649,"महत</w>":12650,"हड्":12651,"गुरुङलाई</w>":12652,"पदम</w>":12653,"कुटी":12654,"कृत्रि":12655,"राज्यलाई</w>":12656,"रोक्का</w>":12657,"मुहान</w>":12658,"भाद्र</w>":12659,"नागरिकताको</w>":12660,"टाउकोमा</w>":12661,
[...]
