#version: 0.2
क ो</w>
र ्
् र
म ा</w>
न ्
ल े</w>
क ा
क ा</w>
् य
ल ा
स ्
प ्र
म ा
न े</w>
क ्
प ा
ग र
व ि
ए को</w>
र ा
न ि
न े
ब ा
व ा
स ा
न ा
े को</w>
त ा
स म
त ि
ग र्
ह ा
ला ई</w>
त ्
य ा
ह र
त ्र
न ्</w>
द े
ह ु
न ु
्य ा
स् थ
ल ि
क् ष
ह ि
द ि
का र
य ो</w>
ल ्
ज ा
प न
र ि
र ह
स ं
भ ा
च ा
ग ा
त ा</w>
छ न्</w>
न् द
थ ि
ध ा
पन ि</w>
उ न
ष ्
न ा</w>
क ्र
प ु
सम ्
भ एको</w>
ला ग
स ु
क े
म ्
ने पा
त ्य
द ा
स ि
य ो
े का</w>
म ि
त ि</w>
र ो
ज ि
न् त्र
का र्
बा ट</w>
ए का</w>
र ु
प र्
नि र्
र ी</w>
म ु
क ु
द ्
ध ि
गर ि
क ि
ल ा</w>
स्थ ा
ी ले</w>
गर ेको</w>
म न्त्र
भ ि
क ो
न ी
म े
द ु
प छ
रह ेको</w>
द ै</w>
च ि
लाग ि</w>
व र्
ब ता
ल े
नेपा ल
दे ख
ब ि
दे श
प्र ति
स र
स् त
ह ो</w>
त थ
उ ँ
ष् ट
त् र</w>
भ ने</w>
न ै</w>
अ नु
र ी
व ्य
तथ ा</w>
द ा</w>
पछ ि</w>
ध ्य
गर् ने</w>
गर् न</w>
उ न</w>
श ्
न मा</w>
थि यो</w>
ग ्र
स े
ण ्
d o
e n
e x
f t
do ft
en doft
ex t</w>
endoft ext</w>
ब ै
ी य</w>
उ प
स ँ
र े
रा ज
न ी</w>
न् त
ज ना
ङ ्
ी को</w>
प ू
ब ढ
ौ ं</w>
आ फ
ख े
का ठ
उ ने</w>
ल ो</w>
क ी</w>
उन ले</w>
काठ मा
कार् य
ह ी</w>
कार ी</w>
श ा
काठमा ड
हर ु
र ा</w>
स ह
न को</w>
प ्
र मा</w>
ल गा
रा ष्ट
य स
मन्त्र ी</w>
ब न्
हर ू
ड ि
ख ा
ल ी</w>
ञ ्
प रि
हु ने</w>
भ ए
न् छ</w>
य ु
ए क</w>
ट ा
भ न्द
अ व
व ा</w>
थ ा
ड ा
क र्
क ृ
पू र्
बा र</w>
ज ना</w>
पा लि
ग ्
राष्ट ्र
नु पर्
ि त</w>
ल य
क्र म
पा र्
ट ि
ज न
क्ष े
अ र्
ब ना
सा र</w>
े र</w>
गर ी</w>
व्य व
ब ु
म हा
व े
सर कार
वर् ष
रु प
जा र</w>
भ न्
् य</w>
ल मा</w>
गर ेका</w>
क् त</w>
स द
प्र ा
प्र हर
ब े
र ण</w>
थि ए</w>
नेपा ल</w>
ग ु
ह ो
क् ष</w>
धा न
स ो
का र</w>
ी मा</w>
सँ ग</w>
सम् म</w>
त्य स
ज े
त र</w>
देख ि</w>
या ँ</w>
र ण
स मा
गरि एको</w>
ै न</w>
बता ए</w>
वि द
ह जार</w>
काठमाड ौं</w>
त ी</w>
ए र</w>
२ ०
अ ध्य
र को</w>
ठ ा
श ि
न गर
ल ो
हा म
क ै</w>
दे श</w>
ज ो
ट ा</w>
अ धि
त ी
कार् या
सम े
पार् ट
न् न</w>
ड ा</w>
स क्
्र ो</w>
ग त</w>
अनु सार</w>
हु ँ
य ा</w>
प ो
न्द ्र
श ्र
वि श्
प हि
जि ल्
यो ग
र ु</w>
क्षे त्र
का म</w>
का ले</w>
प्र धान
रह ेका</w>
आफ ्
ज ्
ि य</w>
ण् ड
भ एका</w>
प र
ब ो
स ञ्
ि क</w>
ट ्
् र</w>
समे त</w>
म ो
भन्द ा</w>
चा ल
गर् दै</w>
ल ्या
े र
भ यो</w>
उ त्
चा र</w>
म हि
ल ले</w>
फ ा
च ्
श ु
निर् मा
जा न
ल ु
ख ो
अ न्
अ घ
स् वा
अ हि
ज ु
ग ो
ल को</w>
नेपाल ी</w>
स् व
मु ख</w>
स् ता
स् प
ह े
ट े
ग त
वा द
हर ु</w>
दु ई</w>
न ो</w>
स्थ ा</w>
भा र
नि क</w>
यो ग</w>
रा म
हर ू</w>
न का</w>
स क
र ू
छ ा
देख ि
निर् वा
ध ि</w>
े स
स ्य
रा ख
प ा</w>
ने छ</w>
जान कारी</w>
इ एको</w>
ी लाई</w>
नुपर् ने</w>
कार ण</w>
राष्ट्र िय</w>
ी का</w>
मा र्
स य</w>
र् व
नगर पालि
ति क</w>
स ी</w>
स ो</w>
दि न</w>
ड े
प ि
भ े
ब ी
क मा</w>
ला ख</w>
क म्
भा ग
ल य</w>
हु न्</w>
सम ि
न ु</w>
अ न्त
अध्य क्ष</w>
प्र मुख</w>
स्था नी
का ं
अघ ि</w>
ौ ँ</w>
गा उँ
ट ो
भन् ने</w>
प्रहर ी</w>
त को</w>
नि य
ं ग
न ले</w>
हु न्छ</w>
बै ठ
य मा</w>
बन् ध
गर ा
क को</w>
र क्ष
्य ु
के न्द्र
प मा</w>
स ङ्
भ इ
विद ्या
के ही</w>
वि ष
क म
प्रधान मन्त्री</w>
ख ु
वि का
पु ग
स भा
हा ँ
घ ट
ब ्
स हि
ड ्
छ ैन</w>
च ु
सरकार ले</w>
घ ा
आ इ
ए क
स ू
द र्
ट ्र
धा न</w>
भ ने
आफ् नो</w>
स ी
स्वा स्थ
मु ख
हु न</w>
सँ ग
मा न</w>
क ले</w>
स कि
न्द ्र</w>
आ यो
अहि ले</w>
स्त ै</w>
प े
उन ी
ज् ञ
प्र देश</w>
ग ठ
क्र ि
ब हा
स ब
अ भि
आ र्
निर्वा च
प ी</w>
ि ल्
स को</w>
भ ू
द् ध</w>
म ी</w>
ता को</w>
म ू
आ एको</w>
ए मा
ट क</w>
क्रम मा</w>
ल ी
मन्त्र ा
न याँ</w>
द ो
त र्
ज ी
र् थ
भा व
सक ेको</w>
लगा य
स्त ो</w>
गर ेर</w>
म ह
बा र
वर् ष</w>
व न</w>
कां ग्र
झ ा
निर्मा ण</w>
राज नी
म मा</w>
निर् ण
रुप मा</w>
मा त्र</w>
म ृ
कु नै</w>
स्थानी य</w>
सा उन</w>
को रो
गर े</w>
आ ज</w>
भ ए</w>
दु र</w>
प्रति श
त या
ध ेर
सञ् चाल
य न</w>
सब ै</w>
ट र</w>
री क्ष
जिल् ला</w>
नु भयो</w>
प्र देश
म ै</w>
फ ल</w>
द ै
आ व
र का</w>
इ न्
अ स्प
द न</w>
य ी</w>
जना एको</w>
अस्प ता
क् ति
बै ं
शि क्ष
मा न
उन को</w>
स ड
त् व
त मा</w>
स न्
१ ०</w>
स चि
वा र</w>
प क्ष
ज ी</w>
त ले</w>
बहा दुर</w>
व ै
वाद ी</w>
ल ेको</w>
क रो
य स</w>
स्थ ित</w>
श ्य
दि ए</w>
श े
भि न्न</w>
सा मा
म् मे
म् ब
सू च
ण ा
अन्त र्
बढ ी</w>
भन्द ै</w>
रुप ै
पूर् ण</w>
त का</w>
सहि त</w>
ती न</w>
सँग ै</w>
ना मा</w>
ला मा</w>
हरु ले</w>
उ क्त</w>
क म</w>
पहि लो</w>
दि एको</w>
ट ी</w>
दा न</w>
द् ध
ष् ट</w>
मन्त्रा लय
प त्र
समि ति
थि क</w>
वि भिन्न</w>
गाउँ पालि
्य ो</w>
स्वास्थ ्य</w>
कम् पन
आर् थिक</w>
न ो
गर े
ने क
ब स्
इ न</w>
रू पमा</w>
छ ि
धेर ै</w>
विश् व
पो ख
स के
व ्या
मा थ
प टक</w>
प ति</w>
दि ने</w>
स न</w>
सं घ
मा त्र
उ द
न् य
फ ो
ड ी</w>
हरू ले</w>
स ा</w>
प्रति नि
ै ले</w>
बा ँ
क्र म</w>
र ले</w>
करो ड</w>
र ो</w>
म त</w>
ज न</w>
ह ी
विका स</w>
ध न</w>
क्र ा
से वा</w>
भ ो
कु रा</w>
निर् देश
ना गरि
स मा</w>
सु रु</w>
म ध्य
स ले</w>
पार्ट ी</w>
श र्
पा ँ
ट मा</w>
गत े</w>
ब जे
क्षेत्र मा</w>
स बै
च ौ
गर् दा</w>
माथ ि</w>
कार्या लय
चि त</w>
उ ल्
उन ी</w>
ज ा</w>
क रण
न न्</w>
प् त</w>
आव श्य
निर्ण य</w>
म को</w>
द ैन</w>
हा ँ</w>
कोरो ना</w>
सु रक्ष
उ हाँ
च े
य र</w>
सा र्व
त ीय</w>
कर् म
मृ त्य
ल का</w>
ल ीले</w>
स्था प
मे रि
सा थ
व टा</w>
न् या
भ ु
हरु को</w>
उँ दै</w>
सा ं
क रण</w>
ए पछि</w>
कु मा
त ह
अ मेरि
् ने</w>
प्र सा
ल न</w>
जि त</w>
छ ो
त ृ
प ी
आ धा
२० ७
ता मा</w>
ध ्या
व्यव स्था</w>
द ू
प रा
हरू को</w>
स्य ा</w>
उत् पा
पर् य
सार्व ज
सक् ने</w>
सम स्या</w>
सर कार</w>
सम य</w>
े ष्
२ ०</w>
ने ता</w>
सार्वज निक</w>
त ो
प्रतिश त</w>
श न</w>
मात्र ै</w>
यु क्त</w>
का मा</w>
पु र</w>
भ ा</w>
बी च</w>
त्य ो</w>
नुपर् छ</w>
नेक पा</w>
ठ ू
कार्या लय</w>
स् ता</w>
अन् य</w>
व ृ
्य ो
्र ो
्य ा</w>
छ ल
आफ ू
बार े</w>
नगरपालि का</w>
ग ि
नि का
सम् बन्ध
भि त्र</w>
प द
समा ज
क े</w>
कृ त</w>
े स</w>
मृत्य ु</w>
ए उ
अव स्था
वा र्
रि क</w>
फ ि
हुँ दा</w>
जा री</w>
स् य</w>
ङ् ग
म त
व ी
सम् प
ने तृ
बढ ा
मा ओ
् न</w>
श्र ेष्
त ्</w>
ले ख</w>
ले ख
च ी
रुपै याँ</w>
सम ू
भ ्र
ब ने
मा नि
भ ना
रह े
भइ रहेको</w>
जि क</w>
न ग
ख र्
कांग्र ेस
प्र का
क ्या
क् ति</w>
पर ेको</w>
प रीक्ष
ति मा</w>
१ ५</w>
व्यव सा
वा री</w>
ल क्ष
व्य क्ति
सि ं
ण् ड</w>
थ प</w>
फ र्
ज्ञ ा
द ी
प क्रा
मि त</w>
पूर् व
श ी
का को</w>
ख ्या</w>
न् व
ना को</w>
प ठा
निर्वाच न</w>
राजनी तिक</w>
ध ु
न लाई</w>
विद ्यु
पक्रा उ</w>
वि धि
श ो
प्रहर ीले</w>
सद स्य</w>
स भा</w>
घ ो
त् म
ट न</w>
हा ल</w>
पु ग्
जना को</w>
सं सद
घ र</w>
स र्
प्रा प्त</w>
लो क
बता एका</w>
कार्य क्रम</w>
ट र
ट ै</w>
त् व</w>
उ म्मे
चा र
अ दा
सचि व</w>
च् च</w>
छ ु</w>
गा ड
अ न
अदा ल
िल् लो</w>
पर् ने</w>
ग म
ए व
पु र
ला को</w>
ट ो</w>
आ रो
अ ब</w>
भने र</w>
क स
फ ु
उल् लेख</w>
नेपाल मा</w>
दा य
प त्र</w>
मा ग</w>
लि एको</w>
उ द्
दि न
विष यमा</w>
त् का
ब ी</w>
सं वि
वि रु
आवश्य क</w>
पुग ेको</w>
विश् वा
स र्व
न् य</w>
अनु सन्
हरु लाई</w>
बे ला</w>
ण मा</w>
कुमा र</w>
म ौ
पाँ च</w>
उम्मे द
मार् फ
प्रसा द</w>
प ौ
सह भाग
सञ्चाल न</w>
स्थ ि
१ १</w>
आ एका</w>
सड क</w>
प ै
त् ता</w>
प्र योग</w>
१ २</w>
सं स्था
भ नि
म ्या
सा म
पु न
मु लु
ल् ने</w>
सद स्य
ग्र ा
भए काले</w>
द श
क्रम ण</w>
धा र</w>
न् त्र</w>
अव स्था</w>
नेपाल को</w>
क ता</w>
यो जना</w>
५ ०</w>
१ ९</w>
सह योग</w>
हाम ी</w>
दो स
पा इ
त ु
एउ टा</w>
भ ी
हु नेछ</w>
री को</w>
अवस्था मा</w>
भए र</w>
ए स
तर् फ</w>
भए पछि</w>
का म
उद ्यो
अधि कार
नु भएको</w>
ग ी
प श्
वि ध
फ े
उ पा
भना इ</w>
प्र च
प्रतिनि धि
त्र ि
सम् झ
मध्य े</w>
ने ता
व ी</w>
या त्र
वा द</w>
रा ज</w>
त े
लाग ेको</w>
सामा जिक</w>
क रि
वर् त
वि शे
आयो जना</w>
ट को</w>
ख ि
शर् मा</w>
्र ा
महि ला</w>
स र</w>
सा थ</w>
ल ेका</w>
दोस ्रो</w>
छल फल</w>
च ो
कृ ष
जा ने</w>
ँ दा</w>
छ ु
एमा ले</w>
केन्द्र ीय</w>
बता उ
स का</w>
हुँ दै</w>
ला इ
मार्फ त</w>
दु र्
साथ ै</w>
त त्का
भ र</w>
निय न्त्र
आ योग
फा इ
क्षे त्र</w>
बि हा
दि एका</w>
लगाय त</w>
हरू लाई</w>
ब न्द
कर्म चा
क् ता</w>
देखि एको</w>
रा य
स द</w>
हाम ीले</w>
भा इ
ट ु
ँ दै</w>
ब जा
ग एको</w>
इ न्</w>
ौ ं
बा ल
बा हि
ब ल</w>
सूच ना</w>
ठू लो</w>
स ्</w>
री मा</w>
हाम ्रो</w>
ब ्या
स्था नमा</w>
स्त ु
ब र्
माओ वादी</w>
गाड ि</w>
ब स
बना उन</w>
ण ा</w>
एव ं</w>
विद्या र्थ
ण को</w>
घो ष
ति को</w>
अ गाडि</w>
स न्</w>
के पी</w>
त न्त्र</w>
उप ल
सम ु
क का</w>
मु द्
३ ०</w>
पौ डे
गर् नुपर्ने</w>
अर् ब</w>
कार् य</w>
क लाई</w>
पा र
का नु
२ ५</w>
य क</w>
बना उने</w>
छ ै
क र</w>
प्र भा
काठमाड ौँ</w>
सम् बन्
तया र</w>
सम्प न्न</w>
उपल ब्
ग ौ
ग ृ
बैठ क</w>
उन ु</w>
खे लमा</w>
स ्या
े क</w>
छ ौं</w>
द ी</w>
प्र स्ता
ज गा
सो म
ढ ा
चु ना
उन का</w>
ण् डा
प्र शा
क ि</w>
ता ले</w>
भ र्
गठ बन्ध
समू ह
न् ड
घ र
त ्या
ता का</w>
आइ त
ख ा</w>
पश् चि
दे उ
विद्या लय
नेपाल ले</w>
ण का</w>
स्था पन
य स्तै</w>
च र्
पछ िल्लो</w>
गाउँपालि का</w>
पा नी</w>
आ उने</w>
उहाँ ले</w>
सम यमा</w>
म ति</w>
त्य स्तै</w>
न म्ब
सा इ
सरकार को</w>
व डा</w>
नेतृ त्व
वि देश
श्रेष् ठ
उत्पा दन</w>
अर् थ
य स्तो</w>
ला म
ड ो
त्म क</w>
प्र व
हो इन</w>
लि न</w>
ल् य</w>
स्थाप न</w>
सम य
कार्य क्रममा</w>
खे ल</w>
सम्बन्ध ी</w>
राम ्रो</w>
गा मी</w>
प्र े
तया री</w>
शु क्र
१ ४</w>
ध ी
फ िल्
बढ ्
करि ब</w>
वि भाग
परि ष
उँ छन्</w>
मुख ्य
नी ति</w>
म ै
य म</w>
र कम</w>
ठा उँ
रो जगा
सर कारी</w>
स्व ी
के ट</w>
देख ा
हा र</w>
ग्र ह</w>
ि एको</w>
श्र ी
सं ख्या</w>
र ीले</w>
सम्झ ौ
राष्ट्र पति</w>
ज े</w>
र लाई</w>
का का</w>
द ल
ना ले</w>
ब रा
हा ल
अनुसन् धान</w>
आ ज
या ँ
वर्ष ीय</w>
भू मि
लाग ्
क ल</w>
स फल</w>
त् त
न् थ
मू ल्य</w>
विरु द्ध</w>
कांग्र ेस</w>
ने मा</w>
ता व
प्र क्रि
बजे ट</w>
लगाय तका</w>
रो ध</w>
बु ध
द र</w>
ग ा</w>
ग ण
स ्रो
भि त्र
मि क</w>
के न्द्र</w>
प्र ति</w>
ट् ट
आ ई
अर् को</w>
वृ द्
आ गामी</w>
भ ण्डा
१ ३</w>
चा र्
उ च्च</w>
ए न</w>
गु रु
१ ६</w>
रि त</w>
वर्ष को</w>
अन्तर् गत</w>
भार तीय</w>
कार्या न्व
ए म
बैठ कमा</w>
रा ई
य ता</w>
पर ेका</w>
या त</w>
म लाई</w>
क ै
श् व
नग र</w>
यस अघि</w>
च ्या
क् त
२ ४</w>
न बाट</w>
भ र
समि ति</w>
गठ न</w>
कु रा
सं स्
हे र्
बढ ेको</w>
प्रका श
न्द ो
भाइ र
ल ीको</w>
प्रति योग
राष्ट ्र</w>
ज ग्
ज ्या
नि र
ना म</w>
मन्त्रालय ले</w>
स् क
अन्तर् राष्ट्रिय</w>
न भएको</w>
खे ला
आधा रमा</w>
व डा
बिहा न</w>
परि वा
खर् च</w>
सके का</w>
वि त
१ ८</w>
गरि ने</w>
सुरक्ष ा</w>
आ न्दो
न् त</w>
त न्त्र
ल् न</w>
श ी</w>
ओ लीले</w>
छ ौँ</w>
र ै</w>
अ ं
सबै भन्दा</w>
ट ्या
आ ग्रह</w>
फ ै
ङ को</w>
र् या
प्रतियोग ि
सं क्र
ता लाई</w>
लि एर</w>
म ंग
व्यव स्थापन</w>
सा त</w>
से वा
ष ण</w>
चा ह
बाँ की</w>
घोष णा</w>
दर् ता</w>
वे श</w>
न् छन्</w>
था पा
अभि या
यस को</w>
उपलब् ध</w>
बि ही
उन लाई</w>
न्य ू
द ्र
न् स</w>
त े</w>
वे द
म का</w>
ह ा</w>
धा रण
सां सद</w>
विशे ष</w>
भाव ना</w>
या द
प दा
न् ट</w>
ली न</w>
आइत बार</w>
ति हा
बि क्र
ला का</w>
ज स्तो</w>
ए न
य ले</w>
गरि रहेको</w>
अस्पता ल</w>
ट ी
बने को</w>
लगा नी</w>
ा मा</w>
म न
प्रधान मन्त्र
का े</w>
द ल</w>
बताउ नुभयो</w>
व्या पा
गर् नु</w>
सक् छ</w>
रा म</w>
कार ो
वे दन</w>
ने छन्</w>
वि त</w>
कृ ष्
१ ७</w>
अन् ति
ब हु
क्ष ा</w>
व ि</w>
परि वर्त
मंग ल
काठमाड ौं
श नि
दा बी</w>
लाम ो</w>
क्ष ि
न पा
व ै</w>
स् ट</w>
प्र दान</w>
कि सा
प रे
य ही</w>
सहभाग ी</w>
बन् द</w>
क ल्
उँ दा</w>
ल ्य
ना का</w>
क् ल
ज ल
कार्य क्रम
स् त</w>
म ना
निर्देश क</w>
मुख ्य</w>
पू रा</w>
फ ा</w>
न व
जि म्मे
प्र श्
वि धि</w>
म् प
शिक्ष ा</w>
हो ला</w>
ड ी
च ा</w>
त पा
गो ल</w>
बा लि
छि न्</w>
गर् नु
मा न्
खे ल
नी को</w>
प्र दर्
ढ ु
घट ना</w>
राज ्य
घ ु
उ ँ</w>
ना राय
च मा</w>
ट ल</w>
तर् फ
सोम बार</w>
मा ले</w>
च ला
कृष ि</w>
ख ड्
स श
ष्ट ि</w>
सु झा
छै नन्</w>
प्रा धि
अमेरि की</w>
को भि
व्यवसा य
म ैले</w>
ख रि
न्या या
प ्या
म ले</w>
स ै
ग े
भ ट्ट
चि त
उप चार</w>
भ ई</w>
२ १</w>
द ो</w>
ध्य क्ष</w>
म ल
म न</w>
८ ०</w>
आ उ
प्र त्य
सा ँ
२ २</w>
नागरि क</w>
प्र भाव
ब र</w>
म ध
झ ै</w>
न ं</w>
अन्ति म</w>
मा ध्य
बि राम
साम ग्र
बु झ
रीक्ष क</w>
द क्षि
ल ि</w>
पर्य ट
विश्वा स</w>
त ेस
नेपाल का</w>
र च
द ृ
प्रतिनि धि</w>
वि स्ता
नि कै</w>
सकि ने</w>
अधि कारी</w>
का यम</w>
स् त्र</w>
वि त्
शुक्र बार</w>
ओ ली</w>
स त्
सङ् घ
घा इ
सं क्रमण</w>
पै सा</w>
लि त</w>
च रण
ले र</w>
ति र</w>
पूर् व</w>
क ट</w>
दु वै</w>
णा ली</w>
द र
पूर् वा
जो खि
ल ग
ा को</w>
बुध बार</w>
सु रु
लि ने</w>
ज स
त र
प्रव क्ता</w>
कि एको</w>
न ल</w>
एमा ले
रह ने</w>
र ू</w>
सर्व ो
भार त</w>
सो ही</w>
सिं ह</w>
धि त</w>
२ ७</w>
जना मा</w>
राख ्
प्रस्ता व</w>
तपा ई
भने को</w>
इ रा
मे रो</w>
संसद ीय</w>
नम्ब र</w>
४ ०</w>
र त</w>
म ी
ल ीमा</w>
प्र या
ग ण्ड
ला ले</w>
ङ ले</w>
० ०</w>
न ौ
र न</w>
त्यस को</w>
्र ि
गत े
हरु मा</w>
बु झा
ल ै
पु रु
जिल् लामा</w>
मे ल
वा ताव
स न्त
जु न</w>
भ्र म
शु ल्
औ ष
क ी
य को</w>
विष य</w>
आफ् ना</w>
ज स्ता</w>
हु नु
न हुने</w>
ै गरी</w>
देखि न्छ</w>
तेस ्रो</w>
ध ा</w>
ल लाई</w>
म र्
वि ज
सं रक्ष
रे मा</w>
भ ्या
पर्य टन</w>
यस ले</w>
ठाउँ मा</w>
बस् ने</w>
सम् भावना</w>
आ न्त
घ ण्
उद्यो ग</w>
अस्पता लमा</w>
श ै
मि टर</w>
कृ ति</w>
प्र स्तु
हरू मा</w>
सह मति</w>
बता उँछन्</w>
अ झै</w>
खे र</w>
बैठ कले</w>
विद्यु त्</w>
कु ल</w>
निर्देश न</w>
अ सार</w>
पो र्
ह ले</w>
आ ँ
समाज वादी</w>
सकि न्छ</w>
वि वाद</w>
स्थापन ा</w>
अहि ले
विश् व</w>
ञ् च
्यु नि
री का</w>
व्य क्त</w>
ए सि
उम्मेद वार</w>
प्राधि करण
सामा न्य</w>
वि मान
अ प
आन्त रिक</w>
सभा पति</w>
क मि
उ ठा
बिही बार</w>
घ रमा</w>
निर न्त
जी व
गरे पछि</w>
ग म्
जा न</w>
घ ि
व मा</w>
विध े
कार बा
त्यस पछि</w>
बा रेमा</w>
वित रण</w>
ता लि
देश मा</w>
श ं
त्यस ैले</w>
च ै
पु रा
सम्झौ ता</w>
क्ष म
म नो
ह रा
परीक्ष ण</w>
ला इन</w>
च ल
व्य क्ति</w>
म न्
औ ं</w>
मुख्य मन्त्री</w>
फ ्
वृद् धि</w>
पार्ट ीको</w>
सि क</w>
ए की</w>
आरो प</w>
भा ष
गु ना
मि ने
कि न</w>
सां सद
अध्य यन</w>
बना एको</w>
२ ३</w>
बा हे
दा र</w>
स्वास्थ ्य
खो प</w>
बस ेको</w>
भ ौ
स् पर्
ब जे</w>
कम ्युनि
विद्या लय</w>
डा न</w>
फ ल
न सक्ने</w>
बाहि र</w>
त म</w>
ग को</w>
रा ई</w>
अ ग्र
का रा
ब जार</w>
र क</w>
मंगल बार</w>
बिक्र ी</w>
बजा रमा</w>
उ न्
ति का</w>
वा स
य हाँ</w>
अध्य क्ष
निर्वा चित</w>
कि त्
कोभि ड</w>
पा उने</w>
शनि बार</w>
देश को</w>
हर ेक</w>
म् बि
शुल् क</w>
गर् ने
वे श
ज न्
अव सर
प्रच ण्ड
विमान स्थ
व रि
त्व पूर्ण</w>
का लाई</w>
न्याया धी
थ ु
सश स्त्र</w>
ठ े
ख ्या
ण ी</w>
ग ै
देउ वा
क ू
व को</w>
श ेर
मुद् दा</w>
च को</w>
ष् ठ</w>
एक ी
१ ९
सुझा व</w>
पी डि
सं युक्त</w>
यो ज
हुँ दैन</w>
कम्पन ीले</w>
पु ष्
को मा</w>
पार्ट ीका</w>
ह ्
गम् भी
सह योग
न बि
नि जी</w>
ब लि
सह ज</w>
प क</w>
न् द</w>
प्रदेश का</w>
घाइ ते</w>
क ला
रा ति</w>
जि त
हि त</w>
क ेको</w>
अधि कार</w>
ण ि
वि ज्ञ
पक्ष मा</w>
था पा</w>
कस री</w>
ल ु</w>
कांग्रेस का</w>
जग् गा</w>
समिति को</w>
ण ले</w>
महि ना
क लन</w>
अव धि
नी मा</w>
गर् द
शा न्
क ति
गरि रहेका</w>
जे ठ</w>
संवि धान</w>
त् ति</w>
गण्ड की</w>
बैं क</w>
म् मा</w>
ध र्
निर्वाच नमा</w>
प्रति स्पर्
द् वा
गुना सो</w>
सम् बो
समिति ले</w>
भे ट
गृ ह
वा ह</w>
भा ग</w>
प्रा विधि
त्य ही</w>
एस पी</w>
पश्चि म</w>
दे व
२ ८</w>
पोख रा</w>
धि क</w>
र बाट</w>
ट्र ा
पत्र कार</w>
प्र ि
उ मे
उप चा
श्रेष्ठ ले</w>
र् थ</w>
इ ज
आफ् नै</w>
ने को</w>
ग मा</w>
अ परा
प्र वेश</w>
उत्पा द
उँ छ</w>
सम्बन् धित</w>
गु मा
दश मल
पु ष्टि</w>
ए क्
त् य</w>
न ि</w>
क् ता
भ व</w>
कारो बार</w>
चौ ध
वा स</w>
ची न</w>
बरा ब
री लाई</w>
हि मा
ज मा</w>
क हि
ना थ</w>
६ ०</w>
या मा</w>
संघ ीय</w>
था लेको</w>
चा हि
आफ ू</w>
क्षेत्र को</w>
सम स्या
प्रक्रि या</w>
प्रकाश ित</w>
वि क</w>
नि ष्
स हा
३ १</w>
तु ल
कार्य कारी</w>
प्रा थ
उप त्य
फ ेर
चि कित्
ह स्ता
ग ो</w>
फि र्
मन् दि
ल ग्
ज ो</w>
ग ति
र े</w>
बैं कले</w>
सं रच
धा रण</w>
चि नि
दि व
प्रस्तु त</w>
कम ल</w>
ज वा
पुग ेका</w>
गम्भी र</w>
नि श्
ङ मा</w>
२ ६</w>
परा जित</w>
जना लाई</w>
प्र मा
बाल बालि
उद् देश
शा खा
ल क
रे र</w>
ष्ट ा
पा ण्ड
न ै
सं शो
मि ला
स वारी</w>
का ँ
राज धा
त्य हाँ</w>
फु ट
मन्त्र ि
छ े
रुपै याँ
ढ ी</w>
स्था यी</w>
सु ना
अहिले सम्म</w>
पार्ट ी
भार त
दशमल व</w>
य हाँ
ध न
कार्यालय मा</w>
घट ना
बाहे क</w>
चि त्र
प्र योग
जी वन</w>
क् का</w>
क न</w>
उ नुपर्ने</w>
ति या
आन्दो ल
खरि द</w>
स चे
दक्षि ण</w>
स लाई</w>
श्रेष् ठ</w>
क् टर</w>
थापा ले</w>
प को</w>
भइ सकेको</w>
ह टा
ध्या न</w>
नगरपालि काले</w>
र् ष</w>
सम्बो धन</w>
रा मा</w>
बता इएको</w>
को ट</w>
कर्मचा री</w>
नेतृ त्व</w>
दू र
जन ताको</w>
बा इ
पाँ च
न सकेको</w>
कम जो
कार्यान्व यन</w>
वर्ष मा</w>
ना ममा</w>
स ीले</w>
वै शा
फा रि
भ व
द लको</w>
दि इ
महि ना</w>
भूमि का</w>
बना एर</w>
सं योज
अधि कृत</w>
्र े
भ क्त
परिवर्त न</w>
थ ो
टो ली</w>
त्य ा</w>
लक्ष ्य</w>
गरा उने</w>
गर् छ</w>
जो ड</w>
प्राविधि क</w>
न क्
सि फारि
आयोग ले</w>
लाग ्ने</w>
सम न्व
प्र शिक्ष
ह जा
आ र
अ फ
ता न्त्र
आ यो</w>
द् धा
पोख रे
दै निक</w>
ता मा
गी त</w>
पौडे लले</w>
ी करण</w>
स ीमा</w>
प्रति ष्
य द
सा झ
दा हाल</w>
तथ ्या
त ो</w>
ग्रा ह
रा ह
ला मि
आ ठ</w>
फिर् ता</w>
महा मा
स्थि ति</w>
स् ट
इन् टर
ए का
ग र</w>
आफू ले</w>
सम् मको</w>
या को</w>
सा य
प हा
था हा</w>
विदेश ी</w>
ज स्तै</w>
जन ता</w>
ज्ञा न</w>
देश िक</w>
प् ता
कति प
स न्द
ह ल</w>
पुग् ने</w>
ड ु
लामि छा
पर् छ</w>
हाम ीलाई</w>
प्रदेश मा</w>
मा इ
वा न</w>
ड् ने</w>
आफ ै
अवसर मा</w>
बो र्
जिम्मे वारी</w>
न्थ ्यो</w>
हर ि
समु दाय
प्र ो
प्रभा व</w>
ड को</w>
वि व
वि प
विश्वा सको</w>
फेर ि</w>
उप भो
मन्त्रि परिष
श क्ति</w>
संक्र मित</w>
सम र्थ
फ रक</w>
तान्त्र िक</w>
कृ तिक</w>
ए न्
पुष् प
२ ९</w>
य र
ल र</w>
को इरा
सञ्चाल नमा</w>
सँग को</w>
एकी कृत</w>
प ढ
भा व</w>
महा धि
यु वा</w>
प ति
भन् छन्</w>
३ ५</w>
ज्या न</w>
भ वन</w>
दै छ</w>
सं घ</w>
मा ध
रे न्
प्रश् न</w>
व ले</w>
या ता
प्रया स</w>
ल् दै</w>
राई ले</w>
राख ेको</w>
क् वा
दु ई
प्रभा वित</w>
ऐ न</w>
शी ल</w>
छा नबि
अर् था
सं लग्
राख ्ने</w>
ौ ँ
ता र</w>
रा खेर</w>
तर्फ बाट</w>
श क्ति
द्वा रा</w>
न जि
घट नामा</w>
सु धार</w>
थि एन</w>
को ष
स् टे
प शु
कार्यालय ले</w>
तत्का ल</w>
भे टि
च न</w>
गम न</w>
ध ी</w>
कर् ष
विद्यार्थ ी</w>
समू ह</w>
ल् ला
लु म्बि
पुन ः</w>
फा गु
सञ् चार</w>
वरि ष्ठ</w>
देश का</w>
य स्ता</w>
अन ि</w>
मत दा
तत्का लीन</w>
दि नमा</w>
ख ्
ट का</w>
यो जन</w>
प्र विधि
कम्पन ी</w>
सभा को</w>
हाल सम्म</w>
विध ा</w>
चा ँ
राख िएको</w>
जना ले</w>
प न</w>
बा टो</w>
व्यापा र</w>
य लाई</w>
गरा उन</w>
प्रच ण्ड</w>
द लका</w>
स्था न</w>
आ उन</w>
क न्
कि लो
न ू
धा नको</w>
ट्र े
टो लीले</w>
मा थि
भनि एको</w>
थि इन्</w>
फर् कि
ह र</w>
ल लि
प चा
दि उँ
हो स्</w>
स्त ी</w>
क ति</w>
महि ला
पा एको</w>
टा इ
भ्र ष्टा
बे ला
पा रि
श्व र</w>
पुर ्</w>
शु रु</w>
जो डि
मि डि
उपा ध्यक्ष</w>
स्व तन्त्र</w>
वाताव रण</w>
समिति का</w>
क्षेत्र का</w>
क ले
ढ ि
प्राथ मि
प ृ
सि र्
नि म्
यस लाई</w>
कारबा ही</w>
वित् तीय</w>
कार्य कर्
भ ै
त् ती</w>
स ं</w>
चि न्
कानु न</w>
त् ति
त्र ी</w>
द् व
यात्र ा</w>
प्र जा
मुद् दा
म बाट</w>
दि इएको</w>
सभा मा</w>
व ल</w>
अ नि
ड मा</w>
को ले</w>
कि स्ता
वि केट</w>
मि ल्
धि कार
ब द
मह त्वपूर्ण</w>
प क्ष</w>
स्रो त</w>
महा नगर
क प</w>
भ मा</w>
भन् नुभयो</w>
मन्त्रालय का</w>
स त्ता</w>
ल बाट</w>
सरकार लाई</w>
ज को</w>
सर्वो च्च</w>
रा को</w>
त लाई</w>
भू कम्
ख ण्ड
धा निक</w>
ल्या एको</w>
ग ी</w>
आफू लाई</w>
भार तको</w>
खो ज्
जे न्
सु न
ि का</w>
सु विधा</w>
क मा
ड ेर</w>
सं स्था</w>
स्प ष्ट</w>
यस मा</w>
बता उँदै</w>
ह न</w>
कार्य रत</w>
नियन्त्र ण</w>
को ही</w>
पहि ले</w>
अधि कां
इन्टर ने
समा धान</w>
गृ ह</w>
सम्बन् ध</w>
नेतृत्व को</w>
द्ध को</w>
स द्
क बाट</w>
बा टै</w>
७ ०</w>
सचि वा
भि डि
३ २</w>
गर् नुपर्छ</w>
र ेको</w>
टा मा</w>
कर् णाली</w>
रो ग</w>
पु रमा</w>
संरक्ष ण</w>
वि रोध</w>
सम ृ
य ू
वि ष्
जा ँ
व र</w>
ला ख
उ ठ
नि रीक्षक</w>
पूर्वा धार</w>
का नू
क्ष ति</w>
मन्त्रा लय</w>
म ल</w>
बो ला
गर् छन्</w>
मार् ग</w>
छानबि न</w>
धारण ा</w>
को रि
हर ी</w>
परि वार</w>
ल म्
ि ता</w>
ड ो</w>
यस री</w>
पुष्प कमल</w>
थ ्
ब ा</w>
फ ू
प्रशा सन</w>
फ रा
े श</w>
मो र
सञ् जा
शर् माले</w>
ल्या उन</w>
ब च्
य ु</w>
ह त्या</w>
कारा त्मक</w>
गा डी</w>
मत दान</w>
भ द
यु वा
विद्यु त</w>
सं क्रम
प्रदेश को</w>
पु ल</w>
रो क्
र् जा</w>
लि क</w>
विस्ता र</w>
अवधि मा</w>
व्यव स्था
सा मु
सहि तको</w>
म ती</w>
चिनि याँ</w>
अ फ</w>
टे लि
समा चार</w>
विज्ञ प्
पहि चा
हि ँ
अ ल
के र</w>
प्र णा
से र</w>
फिल् म</w>
कृ ष्ट</w>
मा को</w>
फो न</w>
अ ति
लि एका</w>
आ चार्
अधिकार ीले</w>
जोखि म</w>
ए फ
चु नौ
जिल् लाको</w>
खेल कु
वे शन</w>
प्रदर् शन</w>
बस् न</w>
्र ा</w>
त ीमा</w>
औ ँ</w>
े पछि</w>
कतिप य</w>
ला ल</w>
दिउँ सो</w>
मो जि
कृष् ण</w>
वै धानिक</w>
ठू ला</w>
आज को</w>
राख ्न</w>
दि नुभयो</w>
नियन्त्र णमा</w>
गठबन्ध न</w>
कम्पन ीको</w>
भु क्ता
नि युक्त</w>
हु नु</w>
पत्र कार
टि ङ</w>
अभिया न</w>
ललि त
ए ँ</w>
ा का</w>
राज ी
क्र िय</w>
वि रा
हु नुपर्ने</w>
चरण मा</w>
ग् य</w>
त् त</w>
लोक तान्त्रिक</w>
अ सो
स्त री
४ ५</w>
पा का</w>
म ं
सा ल</w>
ब मोजि
यु व
सम् पूर्ण</w>
स् टा
निय मित</w>
स्थाप ित</w>
ट ले</w>
बा गम
का ममा</w>
सु न</w>
ड ले</w>
प् ले
श ा</w>
उप महा
सन्त ु
स रो
ए काले</w>
देश भर</w>
विधे यक</w>
माओ वाद
संवि धान
हा त</w>
शेर बहादुर</w>
छ नो
प त्ता</w>
ब ्रा
कार वा
सम् मेल
द् धि
श व</w>
समन्व य</w>
भौ तिक</w>
अव सर</w>
राज दू
प्रशा स
खा न</w>
से न्
संशो धन</w>
खो ज
प् प
वैशा ख</w>
कु ल
वा सी</w>
ख ना
र् ष
च न्द्र</w>
न ौ</w>
द्ध ता</w>
आयो जित</w>
८ १</w>
च् च
सम् पर्
पा ठ
सम् मान</w>
सु दूर
अधिकां श</w>
प्रति वेदन</w>
र् न</w>
स वा
पु स्त
ब द्ध</w>
खा नेपा
ल ं
स्तरी य</w>
चाल न</w>
क ट
सि ल</w>
वार् ष
्य ले</w>
नु वा
दर् श
चुना व</w>
एमा लेका</w>
बने का</w>
सामग्र ी</w>
त्यस लाई</w>
सङ् ख्या</w>
प्रतिष् ठा
लुम्बि नी</w>
प्र मुख
य ल</w>
प ट
पा ल
क् स</w>
आ देश</w>
ना य
ज र्
गु ण
ल्या उने</w>
प्रभाव कारी</w>
गुरु ङ</w>
मा ग
भने का</w>
न्त रण</w>
गरे की</w>
ब ्य
या ले</w>
रो ह
वि नि
स ीको</w>
गर् नुभएको</w>
विज यी</w>
दि ँदै</w>
पा किस्ता
नु हुन्छ</w>
म हो
क्रि केट</w>
त क</w>
निरन्त र</w>
सत् ता
मन्त्र ी
पा रित</w>
आ र</w>
बागम ती</w>
ग ल
तह मा</w>
जा पा
दे वी</w>
सुरक्ष ित</w>
अ सर</w>
यस का</w>
ल ीलाई</w>
सु न्द
मू ल्य
कार्यान्व य
ङ् ग</w>
अर् थ</w>
लक्ष ्
ग न्
भए न</w>
म् पि
धा रा</w>
ी या</w>
व्या व
इ ने</w>
बन् न</w>
वि धा
निश् चित</w>
सभा मुख</w>
पु रको</w>
र ता</w>
७ ५</w>
सरकार मा</w>
क ीय</w>
स े</w>
सि र</w>
सं वैधानिक</w>
विशे ष
ब लमा</w>
राजनी ति</w>
सकि एको</w>
आ त्म
भ रमा</w>
फे ला</w>
अदाल तले</w>
न्यायाधी श</w>
खेला डी</w>
शान् ति</w>
ँ दैन</w>
कार को</w>
प्रति पक्ष
ए कै</w>
अ ल्
बता इन्</w>
को टा
द बा
गा उँ</w>
आ प
पुर स्
चि त्र</w>
प्रदर् श
तह को</w>
म ल्
दा हा
पुरु ष</w>
फै स
पूर् ण
त्य स</w>
कांग्रेस ले</w>
म ्</w>
उत् कृष्ट</w>
पुन र्
फागु न</w>
प्रमा ण
लाग ू</w>
सम्बन्ध मा</w>
ग्र ह
लक डा
शा सन</w>
बस् ने
मिने टमा</w>
हु ँ</w>
क् सि
ऋ ण</w>
कि ङ</w>
वि गत
कार्य का
ं क</w>
दाय िक</w>
पा एका</w>
आरो पमा</w>
द ीको</w>
मा पद
ग ्या
चित व
ल ै</w>
बढ् दै</w>
भनि न्</w>
सिफारि स</w>
ट्र ो
उ डान</w>
प हल</w>
वै देशिक</w>
बन् ध</w>
अध्य य
बता एको</w>
मु क्त</w>
अनु मान</w>
वर्ष ीया</w>
विव रण</w>
साँ झ</w>
मे डि
सि न्
बमोजि म</w>
संक्र मि
णि ज
राष्ट्र ि
क्र े
पचा रिक</w>
कमजो र</w>
बन् ने</w>
इ तिहा
हु न्छन्</w>
प्रका श</w>
रा व
जिल् ला
संलग् न</w>
से यर</w>
छु ट्
मा न्य
व्यवसा यी</w>
स क्रिय</w>
नेतृत्व मा</w>
क्रि या
द ्</w>
य ौं</w>
प्र करण
चै त</w>
यो जना
ष्ट ि
भए की</w>
बी चको</w>
नगरपालि काका</w>
निर्मा णको</w>
आ म्
प्रतिनिधि सभा</w>
लगा उने</w>
त्यस मा</w>
राजधा नी</w>
म ण्ड
व्यव स्थापन
कि न
धा र्
याता यात</w>
स्थानी य
३ ३</w>
ज म्मा</w>
ल ीका</w>
सामु दायिक</w>
देउवा ले</w>
लामिछा ने
जिल् लाका</w>
शा ह
ज सले</w>
मा व
पा को</w>
म ज
आधा र</w>
क ीले</w>
शे यर</w>
सू र्
ल् लो</w>
दा नमा</w>
बैं कको</w>
व स्तु
पन ा</w>
ढ का
सा धन</w>
श री
न् न
क ठ
अघ िल्लो</w>
कस ै
हजा र
कार्यालय का</w>
उ जु
सिर् जना</w>
वर्त मान</w>
क्षम ता</w>
प्रचण्ड ले</w>
उम्मेद वा
भाइर स</w>
सा लमा</w>
लगा नी
अर्था त्</w>
या ली</w>
नाराय ण</w>
आम् दा
घि मि
अ ध्या
सि त</w>
म हे
ले पछि</w>
पौडे ल</w>
प्रहर ीको</w>
छ न</w>
थ पि
प्रत्य ेक</w>
मान व</w>
त्यस ैगरी</w>
ङ का</w>
विभाग ले</w>
संयोज क</w>
ी सँग</w>
न सक्
हा त्ती</w>
दा री</w>
नी ति
भार तमा</w>
गर ि</w>
ं गा
केन्द्र का</w>
सञ् चार
बढा उन</w>
लगा एको</w>
दि एर</w>
शा खा</w>
णिज ्य</w>
ब ले</w>
मा घ</w>
राजी नामा</w>
स ल्ला
कृष् ण
त ै</w>
आ यात</w>
अहि लेको</w>
वा ह
सं गठ
रि पोर्
रहे काले</w>
ब ह
सह कारी</w>
कू ल</w>
रि एको</w>
पार्ट ीले</w>
ज र</w>
क ली</w>
थ ा</w>
स् व</w>
न् दे
आवश्य कता</w>
पहिचा न</w>
विरा ट
बेला य
अन्त र
न हुँदा</w>
वार् ता</w>
बढ ्ने</w>
त ह</w>
राजनी तिमा</w>
जि त्
मो टर
अ स्
हि ं
ब ्र
आ वा
स्प े
काँ ग्र
गरि न्छ</w>
क्रि या</w>
नाराय ण
रु वा</w>
थ ्यो</w>
पु र्
छल फ
ना इ
उनी हरुले</w>
गरा एको</w>
प ु</w>
कै ला
बिराम ी</w>
संघ का</w>
त य</w>
प ि</w>
उद् घा
गर् नुभयो</w>
वि रो
श्र म</w>
पहा डी</w>
ह ल्
वार्ष िक</w>
मो बाइ
ब स</w>
रा प्र
जना इएको</w>
खेला ड
निर्मा णका</w>
प स
ग ति</w>
बा टो
ग ञ्
तपाई ं
२० ६
त्य स्तो</w>
च ल्
यस ैगरी</w>
झ ु
पर् व
वर्ष देखि</w>
चा इ
भाग मा</w>
केन्द्र ित</w>
हु न्थ्यो</w>
पु स</w>
बलि यो</w>
ज हा
क ता
ला इ</w>
े न्द्र</w>
ब ला
संरच ना</w>
म ि</w>
द लले</w>
मे न्ट</w>
ए स</w>
कर् मी</w>
उनी हरूले</w>
कर् षण</w>
सा ध
उपचा रका</w>
पा उ
न ति
अ पे
मे ल</w>
कि शो
ग एका</w>
दुर् घटना</w>
न् यु
न्या य</w>
अ भाव</w>
ण बाट</w>
भ नी</w>
प्रतिश तले</w>
सा ना</w>
बराब रको</w>
अं क</w>
नुपर् नेमा</w>
ख बर</w>
दु ः
पत्र मा</w>
ज ति</w>
इ ला
गौ त
सं कलन</w>
उम्मेद वारी</w>
भुक्ता नी</w>
ब हि
मानि स
समर्थ न</w>
अमेरि का</w>
अ त्य
च् छ
वा णिज्य</w>
एमाले ले</w>
पूर् ति</w>
ड् न</w>
त स्क
रु प</w>
च न्द्र
७ ७</w>
पा नी
ल क</w>
र् ने</w>
असो ज</w>
पार ेको</w>
पुरु ष
कार णले</w>
प र</w>
हु ने
उद्यो ग
राज ्य</w>
संस् कृति</w>
अ रु</w>
गाउँ मा</w>
३ ६</w>
कम्युनि ष्ट</w>
सिं ह
सं सद्
अनु मति</w>
प्रति ब
र म्
नक् कली</w>
कानु नी</w>
विद्यालय मा</w>
याद वले</w>
महि नामा</w>
ख टि
एक ता</w>
अ ने
भद ौ</w>
स कारात्मक</w>
नगरपालि काको</w>
का लीन</w>
औष धि</w>
वा इ
९ ०</w>
हि सा
भर् ना</w>
ा र्थ
थ े</w>
त ल
फरा र</w>
प्र विधि</w>
परीक्ष ा</w>
स् टि
७ ६</w>
स म</w>
त्य हाँ
गै र
प ले</w>
इ रहेको</w>
महा सचिव</w>
५ ५</w>
काठमाडौं मा</w>
योग दान</w>
आन्दो लन</w>
हा इ
पृ थ्
वि कल्
खे ती</w>
सा धारण
क प्ता
जवा फ</w>
बा लु
प्र ा</w>
म गर
सड कमा</w>
बन्द ी</w>
रहे छ</w>
स फल
लाग् छ</w>
सु र्
पाण्ड े
प्रति वेद
मान व
ऊ र्जा</w>
त न
खा ना</w>
त् स
था लेका</w>
भ्रम ण</w>
क था
ङ् क</w>
जा ँदा</w>
वि ज्ञान</w>
एसि या</w>
ज् ञ</w>
प्र हार</w>
प ढा
पा ले</w>
परि णा
रा स
गरि एका</w>
वि जे
खु ला</w>
अ ख्
राह त</w>
म क</w>
पे श</w>
उप रीक्षक</w>
ठ ो
अनु गमन</w>
ी बाट</w>
तुल नामा</w>
ज रु
अ झ</w>
१ ०
रु द्ध</w>
सहभाग िता</w>
फाइ न
गो र
खेलकु द</w>
त्त ै</w>
द छ</w>
डा ँ
स न
न्द ्
पा स</w>
किलो मिटर</w>
को शी</w>
न गर्ने</w>
ग एर</w>
पु र्या
चाल ु</w>
अप ना
सी सी</w>
राख ि
भु टा
याद व</w>
वा यु
मेडि कल</w>
कस ैले</w>
मान् छ
लि मि
भि जन</w>
रुप न्दे
स्त ु</w>
खो ला</w>
ड ेको</w>
सा हि
र ौ
प्रतिस्पर् धा</w>
क ल
शी र्ष</w>
लाग ेका</w>
काम ना</w>
भण्डा रीले</w>
पीडि त</w>
गल त</w>
ब को</w>
मे यर</w>
महा शाखा
दै नन्</w>
बढ ्न</w>
व्याव साय
अन् त्य</w>
धार् मिक</w>
काठमाड ौँ
अख् तिया
पोख री</w>
सह म
दि नको</w>
अधिकार ी
मौ सम</w>
टे ड</w>
क्ष र</w>
सिं हले</w>
उ दा
सके पछि</w>
चर् चित</w>
भ ी</w>
डि जि
भर त
व्यवसा य</w>
बी चमा</w>
ने र</w>
जग् गा
बला त्
मिडि या</w>
मोटर साइ
वि देश</w>
सरकार का</w>
उहाँ को</w>
गर् नका</w>
ज ्य
औ पचारिक</w>
स्वी कार</w>
ि को</w>
अ भ्या
स ौ
जरु री</w>
सा ह
३ ४</w>
सा मान</w>
त ः</w>
अदाल तमा</w>
लगा उन</w>
कि लो</w>
अन लाइन</w>
डा मा</w>
उद्घा टन</w>
नागरि कता</w>
स जि
च्या म्पि
पहि रो
क्ष िक</w>
सि ँ
विरु द्धको</w>
सा र
बा ग
ए जेन्
भ्रष्टा चार</w>
चर् चा</w>
अदाल त</w>
आ म</w>
आ ग
चल चित्र</w>
६ ५</w>
बा ह
स्थ ल</w>
जन क
रा ले</w>
ब सेर</w>
प्रतियोगि तामा</w>
बढा उने</w>
का ग
तो किएको</w>
बा रको</w>
वि चार</w>
नि ः
अनु भव</w>
जना एका</w>
न्द ा
दो हो
बा ध
पु ँ
प्रा रम्
त्यस का</w>
ट र्
४ ६</w>
वी र
द्व न्द्
रह ँदा</w>
े श
चित वन</w>
दाहा लले</w>
शै क्षिक</w>
म ले
न र्
खु वा
ट् न</w>
पुग ेर</w>
प ण</w>
घ रे
च ना</w>
मार् ग
ै ं</w>
समाज वाद
सी मा
व्यक्ति को</w>
मै दानमा</w>
क्र ो
गते देखि</w>
सि द्धा
ढ े</w>
राख ेका</w>
ब र
ति बेला</w>
लाग ि
पा इएको</w>
कार्य मा</w>
गरि सकेको</w>
राज स्व</w>
पा ल्
आ लो
कुमा री</w>
ओ ली
सञ्चाल क</w>
बा ढ
ज न्य</w>
सं ख्या
प्रत्य क्ष</w>
प्रदेश सभा</w>
वि वाह</w>
सुरक्ष ा
चाल क</w>
आ एपछि</w>
घट ेको</w>
रे न्द्र</w>
च ी</w>
सचिवा लय
उ नु
न् ड</w>
नि यु
आ एर</w>
सम् पा
के का</w>
बु ट
पर् या
स जा
हरू का</w>
क क्षा</w>
दुर् घटनामा</w>
घरे लु</w>
प्र णाली</w>
४ २</w>
भट्ट राईले</w>
एउ टै</w>
श रण
भए पनि</w>
बना इ
उद् धार</w>
सा प
हा सिल</w>
मा या</w>
क ला</w>
हु नुपर्छ</w>
ह वा
पर्य टक</w>
महाधि वेश
ज ले</w>
हो टल</w>
स्थ ग
आ ह्
विष् ण
ए नन्</w>
ड का</w>
संघ ले</w>
ती न
उनी हरूको</w>
य ति</w>
साझ े
घा ट</w>
वि भा
मन्त्रालय को</w>
य ौँ</w>
छो रा</w>
द को</w>
छनो ट</w>
अ रु
ती व
प हुँ
सन्द र्
प् त
मह त्
भार तले</w>
या का</w>
पा ल</w>
उनी हरुको</w>
उ सले</w>
केन्द्र मा</w>
अर्थ मन्त्री</w>
न्द ा</w>
परे पछि</w>
क वि
निय म</w>
ओ लीको</w>
ल म्ब
फ िक</w>
सं सद</w>
संवि धानको</w>
कु न</w>
ज मि
ठा उँ</w>
न् ने</w>
क क्ष
क्ल ब</w>
आ न
ं ग</w>
नि ष
कर् जा</w>
वि पक्ष
पहि रो</w>
यु रो
वा ट</w>
कमि टी</w>
मुलु कको</w>
प् ला
प्र वाह</w>
सङ् क्र
व ्य</w>
दि त</w>
नेपाल लाई</w>
कोरो ना
न ीले</w>
फ ेस
ड र</w>
राजदू त</w>
सा त
४ ८</w>
का लो
विष य
लि ग</w>
सिन् धु
आयो जनाको</w>
र वि</w>
म्या ग्
स घा
श ब्
क्रा न्
उत् तर</w>
ठ ा</w>
रो ग
सुदूर पश्चिम</w>
विनि योजन</w>
दिन भित्र</w>
उनी हरू</w>
न्या य
अनु रोध</w>
छि मे
मन्दि र</w>
रोजगा री</w>
रोजगा र</w>
कर्मचा री
सो ध
आ मा</w>
अव रुद्ध</w>
व्यव स्थित</w>
स् कृतिक</w>
गरा एका</w>
जन ताले</w>
प्र ेस</w>
ज नको</w>
पु रका</w>
किसा न</w>
भाइर सको</w>
सा ढे</w>
टि प्प
प्रधानमन्त्र ीको</w>
अर्थ तन्त्र
वि घट
भू त</w>
३ ८</w>
म् बा
प त</w>
खे ल्ने</w>
सबै लाई</w>
व स्तु</w>
माध्य मबाट</w>
ह ै
भु वन</w>
ज समा</w>
संसद ्</w>
निर् धारण</w>
दे व</w>
इज ला
ी हरु</w>
स् वर्
ह ि</w>
दि ल्
डिजि टल</w>
सङ् क्रमण</w>
शरण ार्थ
ट् ने</w>
श ू
कि सि
स ृ
ड लर</w>
पद मा</w>
अ त्या
ट रमा</w>
समा ज</w>
खड् काले</w>
कहि ले</w>
क द
आ कर्ष
सु नि
क हाँ</w>
रू प</w>
न सँग</w>
पर राष्ट्र</w>
शि व
सड क
सम् भव</w>
आउ ट</w>
बना एका</w>
निः शुल्क</w>
पुरा नो</w>
टि भ</w>
मुलु कमा</w>
सु नुवा
विका सका</w>
यद ्य
निका य
उनी हरु</w>
र् ति
शु भ
न र
ओ भरमा</w>
उपा धि</w>
प्रतिब द्धता</w>
न् छु</w>
भन् न</w>
३ ७</w>
कांग्रेस को</w>
दि ला
बा ध्य
हस्ता क्षर</w>
५ १</w>
म् बु
य ौ
ब ीमा</w>
मो र्
फो र
प्रतियोगि ता</w>
प ल्
मि ला</w>
फाइन लमा</w>
सबै को</w>
ब ंग
घ टा
अग्र ता</w>
ंग ा</w>
श नल</w>
वा स्त
गृह मन्त्री</w>
आम्दा नी</w>
फुट बल</w>
२०७ ४</w>
मं सिर</w>
प्राधिकरण का</w>
ज य
गर् नेछ</w>
न भई</w>
क्वा रेन्
ना लाई</w>
अपरा ध</w>
प द</w>
बा स</w>
न र</w>
उद्देश ्यले</w>
भन् सार</w>
स ध
यस ै
यस ै</w>
थ ो</w>
नि को</w>
दी प</w>
डा इ
खु सी</w>
जो गा
बाध ्य</w>
धेर ै
पुरस् कार</w>
ध्य क्ष
ढ ो
आह् वान</w>
खे लको</w>
र मु
भ ू</w>
खर् ब</w>
का ली
खानेपा नी</w>
वि सं</w>
चिकित् सक
उजु री</w>
ङ् गा
सक े</w>
५ २</w>
त बाट</w>
सा धारण</w>
तह का</w>
ची नको</w>
वर्ष का</w>
ब ज
मोबाइ ल</w>
आयो ज
देखि एका</w>
ते ल</w>
कठ ि
घण् टा</w>
ग्र े
समा न</w>
प न्
छो री</w>
ख र</w>
चुना वी</w>
न वी
पे स</w>
एमा लेको</w>
विधे य
देउ वा</w>
हि क</w>
वर्ष ा</w>
आ या
एव म्</w>
नि स्
यद ि</w>
ह ीमा</w>
द ीमा</w>
ज ु</w>
बा बु
सहा यक</w>
रा उ
लि ङ</w>
स फा
ध रा
सा ता</w>
अनि वार्
दृ ष्टि
पू जा</w>
हरु का</w>
रि क्त</w>
सुरु वा
ब ृ
लग त्तै</w>
कम् तीमा</w>
वि वाद
हि न्द
न रहेको</w>
यहाँ का</w>
क्या म्प
मान्य ता</w>
बना इएको</w>
पछ ा
जा को</w>
सम् मे
भित्र को</w>
पा उन</w>
ट ीको</w>
टु ंग
महा मन्त्री</w>
बालु वा
करण को</w>
फ ी</w>
वि भाग</w>
था लेपछि</w>
गुरु ङले</w>
तर कारी</w>
४ १</w>
था न</w>
प्र धान</w>
परि चालन</w>
पाइ ने</w>
सु धा
भण्डा री</w>
ल् ड</w>
झ ि
मो ह
मह सु
विश्व विद्यालय
अनु दान</w>
निष े
सम्मे लन</w>
रह े</w>
मानि स</w>
रो कि
द् र्
विभाग का</w>
य ि
त ना
क र
अने क</w>
ह ्या
बंग ला
द ्या
महि लाको</w>
र ंग
त ीको</w>
निर्मा णमा</w>
संघ को</w>
ट ेको</w>
अपे क्षा</w>
न गरी</w>
मि ल्ने</w>
भित्र ै</w>
कार का</w>
म ीले</w>
म्ब र</w>
गाउँपालि काका</w>
सह कार्य</w>
र नको</w>
उ ने
आधा र
सद रमु
पार् ने</w>
मापद ण्ड</w>
झ ा</w>
भि क</w>
खा रे
प्रधानमन्त्र ीले</w>
शिक्ष क</w>
जीव न
ै ँ</w>
गर ्</w>
गा ई
लगा एका</w>
व्यावसाय िक</w>
अ भाव
सम्मेल नमा</w>
लक्ष ित</w>
ऐ तिहा
आ ई</w>
आयो जना
भा र</w>
नागरि कलाई</w>
मे गा
आ क्रम
अनुसन् धान
सां स्कृतिक</w>
पुग् न</w>
४ ७</w>
चुनौ ती</w>
कार् कीले</w>
२०७ ९</w>
प्रका शन</w>
कप्ता न</w>
हेर् दा</w>
मगर ले</w>
५ ६</w>
पाइ न्छ</w>
सम ी
गते सम्म</w>
ध नग
यात्र ु
लगा तार</w>
ही न</w>
मान्छ े</w>
७ २</w>
स् सा</w>
ज र
ट्रा फिक</w>
क ञ्च
गण ना</w>
स्व य
म सा
पोखरे लले</w>
४ ४</w>
गर्द छ</w>
लाग ी</w>
२० ०
य था
बार देखि</w>
आ उँ
खा ँ
ध मा</w>
४ ३</w>
५ ३</w>
त्र ा
परिष द्
ढ ंग
द मा</w>
संक्रमि तको</w>
न गरेको</w>
सम्पर् क</w>
सर् वा
नी य</w>
चा लित</w>
हस्ता न्तरण</w>
नगरपालि कामा</w>
समा वेश</w>
ध्य े</w>
ज्ञ ा</w>
श्री लं
आ क्रमण</w>
च लि
कु ट
सामग्र ी
जे ल</w>
स नमा</w>
कार् की</w>
थो रै</w>
लि ए</w>
ं क
सि रि
दि नुपर्ने</w>
जन् म
लगा एर</w>
पा र</w>
चौ थो</w>
स्थग ित</w>
घि सि
गाउँपालि कामा</w>
चार् ज</w>
ग ल्
दाय ि
ब चा
सा नो</w>
भू मि</w>
वाताव रण
३ ९</w>
रोक् न</w>
नेपाल ी
भिडि यो</w>
सम् मका</w>
लाग िएको</w>
द् धि</w>
खे ल्
अनिवार् य</w>
क स्तो</w>
समूह ले</w>
साझ ा</w>
स्थि तिमा</w>
बस ेका</w>
प री</w>
हाम ्रा</w>
पाण्डे ले</w>
ज का</w>
फाइ दा</w>
ऐतिहा सिक</w>
ह ीको</w>
न्य ौ
दो ष
क रा
खो जी</w>
थ प
चौध री</w>
क प
४ ९</w>
त्रि भुवन</w>
२० ८०</w>
न्यौ पा
ए यर
शरणार्थ ी</w>
न्यायाधी श
हा न</w>
प्रसा रण</w>
विप री
७ ८</w>
मुद्दा मा</w>
व श्य
विकल् प</w>
त्य ति</w>
च यन</w>
ध्या ना
आ दि
खा स
आ योग</w>
समिति मा</w>
गो ल
ड ि</w>
राज ा</w>
प् ल
झ ण्ड
द े</w>
अर् का</w>
अर् या
नग द</w>
सम् ममा</w>
उप प्रधानमन्त्री</w>
निरन्त रता</w>
दु ब
२०७ ५</w>
सम ीकरण</w>
न्यू नी
मि लेर</w>
प्रा कृतिक</w>
सो ले
उद य
निम् ति</w>
काँग्र ेस
विमानस्थ ल</w>
७ ४</w>
दु वै
चा सो</w>
रा इ
बो ल्दै</w>
२०७ ८</w>
पठा एको</w>
वा यु</w>
अभि न
महो त्स
प थ</w>
यु द्ध
त स्
फ ्रा
ट ीमा</w>
व्यक्ति लाई</w>
का त्
गा ँ
शा ला</w>
तर् क</w>
द ि</w>
सङ्घ ीय</w>
क् ने</w>
प ञ्
त रि
स् थ</w>
सके न</w>
इन् जि
ठे क्का</w>
पदा धिकार
सुर् खे
धा नमा</w>
दी पक</w>
सन्दर् भमा</w>
जि म्मा</w>
व्यक्ति गत</w>
दा यर</w>
क्रि के
क डा</w>
समूह को</w>
५ ४</w>
निर्ण य
यद्य पि</w>
पूर्व क</w>
खा ने</w>
स ु</w>
न दी</w>
त्यस ले</w>
दि ने
आ ं
मुलु क</w>
ट् टा</w>
गाउँपालि काको</w>
कात् तिक</w>
अव ै
वृद् धि
मन्त्रिपरिष द्
हु न
भाष ा</w>
अ रू</w>
म् परा
महा नगरपालिका</w>
टिप्प णी</w>
ङ्ग ा</w>
प्र वृ
पर्या प्त</w>
मि ति</w>
फो हो
प्राधिकरण ले</w>
इ रहेका</w>
कु ञ्
कुरा मा</w>
वि गत</w>
सबै ले</w>
बालुवा टा
के सीले</w>
झण्ड ै</w>
खण्ड मा</w>
तालि म</w>
कञ्च न
प्रे म</w>
ति लाई</w>
लगानी कर्
हेर् न</w>
चुना वमा</w>
५ ८</w>
कम्युनि स्ट</w>
प्राथमि क
सम्प त्ति</w>
पर म्परा
भ ग
७ ९</w>
कम ी</w>
सह कार
सम क्ष</w>
बाग लु
आधा रित</w>
सहयोग मा</w>
उनी हरुलाई</w>
ग न्त
उ हाँ</w>
पे ट्रो
यो ग्य</w>
कल् प
ख त
माध व</w>
हि जो</w>
सर्व साधारण
उ चित</w>
पदा र्थ</w>
ब ल
कोटा ले</w>
थु प्र
कुरा का
निय र</w>
गाउँपालि काले</w>
ड े</w>
न दिने</w>
प्रा व
ह प्
प्राथमि कता</w>
पर् व</w>
ट रको</w>
फैस ला</w>
ढ ा</w>
द् य</w>
जित ेको</w>
निर्वाच नको</w>
बढ ि
बह स</w>
ब च
२०७ ७</w>
ल्या न्ड
अ सन्तु
जन तालाई</w>
ए मा</w>
आइ सोले
चे ताव
त् सा
६ ८</w>
प क्
श्रेष्ठ लाई</w>
ट ीका</w>
मू ल</w>
जन संख्या</w>
म ण
चल चित्र
मले सि
साथ ी
चाहि ँ</w>
राष्ट्र पति
सन्द ी
भए मा</w>
नागरि क
विश् ले
सन् देश</w>
बा ब
पठा उने</w>
चो क</w>
थि एँ</w>
पर्यट कीय</w>
वश्य क</w>
उत् त
प्र थ
सृ जना</w>
हवा ई</w>
नागरि कको</w>
९ ९</w>
समु द्र
विद्यु तीय</w>
देखा एको</w>
दबा ब</w>
उप युक्त</w>
छुट् टै</w>
बैं क
निर् यात</w>
ख ति
बि जु
ण् डा</w>
ष् ठ
द ौ
ल्य ै</w>
खु ला
अ र
हरु सँग</w>
आयोग को</w>
पुन ः
स्त र</w>
पूर्व ी</w>
नति जा</w>
पा नीको</w>
य त</w>
उ नुपर्छ</w>
नी तिक</w>
उमे र</w>
ला ल
प्र त्या
ठ ु
का उन्
वि के
ध्याना कर्षण</w>
कु श
डि ङ</w>
पक्ष ले</w>
म क
नव ल
जाँ च</w>
उप स्थित</w>
ही ँ</w>
जन क</w>
हरू सँग</w>
मृत्य ु
पार् न</w>
रह नेछ</w>
ने प्
व टै</w>
आ धु
सु विधा
चरण को</w>
रह ्यो</w>
भुटा नी</w>
हुनु हुन्छ</w>
नि कुञ्
स् कु
घट नाको</w>
व्या पी</w>
बा सि
ग् र</w>
ए ल
अफ गा
पहि ला</w>
मन सु
रा का</w>
से नाले</w>
विपरी त</w>
फा ँ
ता वा
न तम</w>
काठमाडौं को</w>
डि भिजन</w>
बढा एको</w>
ट बाट</w>
हा र्
स हर
उत् तर
भना ई</w>
नि कट</w>
मोर ङको</w>
सा ह</w>
छलफ लमा</w>
भि त्
महाधि वेशन</w>
ह ेर
केन्द्र ले</w>
भट्ट राई</w>
प तिको</w>
अधि वेशन</w>
अदाल तको</w>
पहि लो
स क</w>
च्याम्पि य
वा न
यु क्रे
५ ७</w>
व न
वडा ध्यक्ष</w>
६ ४</w>
त ल</w>
खु लेको</w>
आन न्द</w>
व्यक्ति ले</w>
विश्व कप</w>
स य
ब स्त
मौ सम
फू ल</w>
का बाट</w>
२०७ ६</w>
माव ली</w>
तामा ङ</w>
नम्ब रको</w>
रक्ष ा</w>
र मे
समय मै</w>
समय देखि</w>
८ २</w>
पाल ना</w>
पठा उनु</w>
बन्द ै</w>
व लाई</w>
गरि न्</w>
अ ल</w>
संसद मा</w>
धि कारी</w>
क्या न्
प्रथ म</w>
बर् ष
सं गठन</w>
क था</w>
सल्ला ह
विज्ञप् तिमा</w>
सदस्य ीय</w>
सु कै</w>
सक् छन्</w>
महि नाको</w>
सी मित</w>
त्व मा</w>
गा ह
सि का
कोइरा ला</w>
फेस बु
आ वेदन</w>
हि म
ग् लो
उत् प
लि क
५ ९</w>
ी क</w>
ज सो</w>
दि एपछि</w>
स्व तन्त्र
हा जि
स बाट</w>
का न्
का मको</w>
आ ए</w>
म्या द</w>
ज ब</w>
मा मिला</w>
या उने</w>
प राम
पृथ् वी
घण् टामा</w>
राष्ट्रि यस
आयोग का</w>
ल्या इएको</w>
दिव स</w>
क ्य
मु स्
बे न्
लगा इएको</w>
आ स
आं शि
श ्या
स्त रमा</w>
से ना</w>
पराम र्
र कम
मू ल्या
मा स्
समूह का</w>
गति विधि</w>
न्द ु
रह ेर</w>
अ ष्ट
६ ३</w>
नि वेदन</w>
प्र कृ
उद ्य
से मि
भे न्
सरो कारवा
उ भि
वि ज्ञा
म े</w>
हिसा बले</w>
बु ढा
ड् ड
सचे त</w>
पश् चा
पु न</w>
इ ँ
नसक् दा</w>
था लिएको</w>
हेर् ने</w>
उनी हरूलाई</w>
दु रुप
ब ौ
सु ब्
बे पत्ता</w>
वार् ड</w>
कम्पन ी
ची नले</w>
मध ेस
गरि नेछ</w>
मन्त्रालय मा</w>
ए च
हे ट
पुस्त क</w>
ल्या ण्ड
परिणा म</w>
ढंग ले</w>
टि म</w>
अभि भाव
पालि का</w>
ज रि
भो लि</w>
संस् कृ
बना ए</w>
स ही</w>
मुलु क
अन्तर् गत
ट ेर</w>
रे ल</w>
क्ल ब
कि त्ता</w>
अन् त्य
स् म
बे लामा</w>
ज्ञ वा
द फा</w>
दी र्
सड कको</w>
त्र ा</w>
नी का</w>
अस्पता लका</w>
परि च
सा उद
थुप्र ै</w>
सा मा</w>
सङ् कलन</w>
चिन् ता</w>
हो ट
छि टो</w>
रो किएको</w>
अ वि
देखि ने</w>
हर ा</w>
सा रको</w>
व का</w>
क्षेत्र ीय</w>
नि धन</w>
स्वी कृत</w>
द लित</w>
र् स</w>
व्यव हार</w>
ज हाँ</w>
६ २</w>
स् त्र
कार्यान्वय नमा</w>
क्षेत्र लाई</w>
सम ध्ये</w>
आ त्
विगत मा</w>
ल ता</w>
का लि
प्रतियोगि ताको</w>
ग्रह ण</w>
टि कट</w>
रिपोर् ट</w>
संस्था ले</w>
इन्टरने शनल</w>
न ता</w>
मा सिक</w>
बालबालि का</w>
सजा य</w>
प्रतिश त
न जिक</w>
नि वा
उ डा
वि न</w>
त्य स्ता</w>
लक्ष् मी</w>
चेताव नी</w>
इज राय
नि गम
ला भ</w>
आ म
नु ष
स हरी</w>
आयो जनामा</w>
ब ्रि
७ ३</w>
खारे ज</w>
सन्त ो
मतदा ता</w>
दि नु</w>
प्रव द्र्
समृ द्धि
स्त ो
रू पै
शा ली</w>
लक्ष ्य
पदा धिकारी</w>
भए कोले</w>
नि वास</w>
भ त्
सं ग</w>
ह त्या
क्षे प</w>
वायु को</w>
८ ५</w>
भे ट</w>
सवा री
इ ट
सामग्री बारे</w>
भ रि
विजे ता</w>
गरि यो</w>
ृ त</w>
विदेश मा</w>
साहि त्य
पर ्</w>
मान् छे
समा नु
कार्यालय को</w>
स ेको</w>
नाय ब</w>
ल् ला</w>
सा ता
पछ िल्
उ सको</w>
प का</w>
अ क्सि
के सी</w>
वर्ष अघि</w>
छो रा
आ ठ
रुप ि
चा इ</w>
ड ेका</w>
क टा
इ न्छ</w>
विका सको</w>
बा ढी</w>
ह ल
विष यलाई</w>
त्यस ो</w>
दि नु
विका समा</w>
समानु पा
ज ल</w>
बैं कका</w>
लकडा उन</w>
ख रा
सै निक</w>
म स्
सह ज
दल ीय</w>
हु नेछन्</w>
वै ज्ञा
घ ट्
भ विष
दुरुप योग</w>
के त</w>
छु ट</w>
दुः ख</w>
अ ग्
खड् का</w>
स्थ ल
सा लको</w>
सूच क</w>
प वन</w>
तीव ्र</w>
चौध रीले</w>
पुग् दा</w>
प्र िय</w>
राज्य को</w>
६ ७</w>
ति ले</w>
आ उँछ</w>
अस्पता लको</w>
म ङ्ग
परिवा रका</w>
त ीले</w>
ए ई
प्र दीप</w>
मा ग्
च र</w>
आलो चना</w>
आ पूर्ति</w>
सकि नेछ</w>
लाग ्यो</w>
भविष ्य
बद ली</w>
रा स्व
अ ना
मे न्
बहु मत</w>
का ली</w>
कि ना
बताउ नुभएको</w>
ण् डि
रि जा
समु दा
अभ्या स</w>
सर्वा धिक</w>
उपभो क्ता</w>
फर् का
दै न
वा ल</w>
बाहि रि
खा ली</w>
धर् म
स ल</w>
कार्यक्रम को</w>
न भए</w>
क् क</w>
ल ्यो</w>
सभा मुख
उदा हर
मि त
स प्त
न्यू न</w>
च ो</w>
बढ् दो</w>
लि ख
अभि युक्त</w>
सूच ीमा</w>
ख मा</w>
हाजि र</w>
जु न
६ १</w>
उ मा</w>
आ धिकार
को ठा
य ू</w>
लि या</w>
ह स्त
ट स</w>
अव रोध</w>
ब राम
केन्द्र को</w>
लिमि टे
भर ि</w>
की र्ति
प्र चार</w>
स पना</w>
व्यव हा
अधि कृ
समाज मा</w>
बे लु
पार्ट ीमा</w>
माध व
बलात् कार</w>
कानू न</w>
भरत पुर</w>
आफ न्त
गो ली</w>
परि योजना</w>
वर्ष ा
निका य</w>
प्रजा तन्त्र</w>
द ्यो
नि रा
प्रति क्रिया</w>
सि ट</w>
दै नि
जन का</w>
ल्या एर</w>
सुन्द र</w>
प ो</w>
शे र्
र् सि
पर् न</w>
सम ग्र</w>
१ ००</w>
व क्ता</w>
रे ले</w>
बढ ेर</w>
प त्
आ शा</w>
निर्मा ण
रे ग्
स रुवा</w>
ट ीले</w>
ए कोमा</w>
ं कन</w>
घण् टा
जो श
मुख्य मन्त्र
सभा का</w>
सु त्
फाइ नल</w>
ट्र म्प
स फा</w>
क तै</w>
उ ड्ड
सफल ता</w>
दर् शन</w>
व र
गरि सकेका</w>
भि त्रि
लोक तन्त्र
भ त्ता</w>
त ना</w>
आ का
भक्त पुर</w>
म ला</w>
लोक न</w>
या लाई</w>
६ ६</w>
स् मार्
माथि को</w>
भए सँगै</w>
मसा न्त
पहुँ च</w>
मोटरसाइ कल</w>
च लन</w>
बर् दि
७ १</w>
बु ँ
विराट नगर</w>
गञ् ज</w>
ज न्त
थ े
रु ढ</w>
क ीको</w>
र ञ्
राम चन्द्र</w>
स्थ लमा</w>
कोरो नाको</w>
साम ना</w>
दायि त्व</w>
यु द्ध</w>
विद्यार्थ ी
कृष ि
फ मा</w>
संस्था को</w>
बराम द</w>
न दीमा</w>
झ ो
ठा कु
अन् न
ज ंग
मू लक</w>
नि स्ता
वर् ग
आ उँदा</w>
राज ेन्द्र</w>
ग िक</w>
ग्रा म</w>
अस्पता लले</w>
रहे की</w>
महसु स</w>
ता बाट</w>
सत्ता रुढ</w>
खा द्य</w>
गौत मले</w>
रे डि
नजि कै</w>
अ प्
ले खा
भेटि एको</w>
प्रशिक्ष क</w>
हुँ दैछ</w>
लाग ेर</w>
वर्ष ाको</w>
श्र ी</w>
आइ रहेको</w>
कर्ष मा</w>
स्थानी यले</w>
प्रारम् भिक</w>
रि ङ</w>
भ रका</w>
यस बाट</w>
शं का</w>
सा ल
खे ल्न</w>
आ धा</w>
स्वा गत</w>
भारत बाट</w>
पहिलो पटक</w>
को टा</w>
पछा डि</w>
ल घु
औ द्यो
इला म</w>
शिक्ष ा
बाटो मा</w>
उल् लेख
संस्था गत</w>
उत्प न्न</w>
भो ज
रि य
तया रीमा</w>
ए ण्ड</w>
दा न
ट्र ि
सरकार सँग</w>
आँ खा</w>
ग्र ि
जो ड्ने</w>
उप चार
जहा ज</w>
आ मा
अधि वेश
ब्या ज
आधार भूत</w>
लि यन</w>
श र
न्यू नतम</w>
नेपाल ीमा</w>
अवै ध</w>
जोडि एको</w>
रि या</w>
मन्त्रिपरिष द्</w>
प्र गति</w>
जन प्रतिनिधि
देश लाई</w>
उ च्च
ह तिया
कुल मान</w>
का लो</w>
ने ले</w>
ी य
से नाको</w>
अभिन य</w>
बि ना</w>
जरि वा
रह न</w>
चल् छ</w>
ए सँगै</w>
सङ् घ</w>
कठि न</w>
समा रोह
शी र्ष
सु नको</w>
जन शक्ति</w>
ल गि
मा ल
का माथि</w>
अफगा निस्ता
भित् र्या
ए म</w>
जा व
सदरमु काम</w>
ज डान</w>
ब सो
दि यो</w>
खोज ेको</w>
घ रको</w>
प्र वर्
कारा गा
परिवा रलाई</w>
सफा इ</w>
श्र मिक</w>
सक् दैन</w>
स नको</w>
ना फा</w>
मेल म्
न्यूनी करण</w>
नेता ले</w>
छिमे की</w>
हिमा ली</w>
शा लामा</w>
द् द
गर् नेछन्</w>
धी न</w>
ए ल</w>
न भएर</w>
भ ्
शा ही</w>
ना त्मक</w>
म गर</w>
निर् भर</w>
हु नसक्ने</w>
ग ण</w>
महा नगरपालिकाले</w>
भा री</w>
तस् बि
जस री</w>
को ष</w>
यु नि
र ्</w>
८ ४</w>
भइ रहेका</w>
महत् त्वपूर्ण</w>
गर् नुपर्
सम् भा
रास स</w>
घ न</w>
कर्मचा रीको</w>
लाग े
ब ल्
स्थाप क</w>
सा र्
वि क
९ ५</w>
ं ले</w>
पदा र्थ
ब नि
आवा ज</w>
प्रतिस्पर् धा
क्षेत्र बाट</w>
ड ्रो
च् न</w>
सिंह दर
ब स्ती</w>
मनसु नी</w>
ढका लले</w>
शि वि
ङ् क
क स्
सम झ
ग ढ</w>
ग ए</w>
श ु</w>
कार्यकर् ता</w>
ता प
नि स्क
दिन सम्म</w>
मो ड
८ ३</w>
न भए
लाइ भमा</w>
का स्
अ म
शू न्य</w>
व्यवसाय ी
यस पटक</w>
भार तका</w>
ग म</w>
खो जि
घा ँ
ता ल</w>
पुग ि
सम्पा दन</w>
ठ ी</w>
पठा इएको</w>
अन्त रि
स्वी कृति</w>
उपत्य कामा</w>
ब गा
पार् क</w>
घोष णा
धन कु
प्राथमिक तामा</w>
न पछि</w>
ध नुष
सा को</w>
इ सकेको</w>
भित्र का</w>
अर्थ तन्त्र</w>
ललित पुर</w>
सु दृ
न गर्न</w>
उप स्थिति</w>
वर्ष पछि</w>
देश ले</w>
का ल
झा पा</w>
अ क्
६ ९</w>
स्था न
प्रतिपक्ष को</w>
ना ल्
सुब् बा</w>
मे सि
आचार् य</w>
बजे सम्म</w>
मोर् चा
नेपाल लाइभमा</w>
आचार् यले</w>
भाष ामा</w>
उप योग</w>
विघट न</w>
ध न्य
रा खे
फर् क
शुभ कामना</w>
से ना
त्ति कै</w>
वडा मा</w>
ली बाट</w>
क्ष ा
कले ज</w>
दीर् घ
खना ल</w>
नु को</w>
जल विद्युत्</w>
क्ष ति
सो च
उद्देश ्य</w>
यु नाइ
विमानस्थ लमा</w>
भन् ने
मानि सको</w>
ति कै</w>
दि शा
उपमहा नगरपालिका</w>
गी त
प्रक्रि यामा</w>
वा को</w>
यो जनामा</w>
कहि ल्यै</w>
मा झ
जु म्
ब डो</w>
लै जाने</w>
नेपाल ीको</w>
अमेरि काको</w>
भूकम् प</w>
प ला
पु स्ता
रा हा
अफ ्रि
दै छन्</w>
संख्या मा</w>
मक वान
वित् त</w>
रह न्छ</w>
किसा नले</w>
अ पा
प्रशिक्ष ण</w>
देख ्
पाण्ड े</w>
ति र्
च ढ
आ श्
सि ल
कर् ष</w>
फो टो</w>
प्रहर ीका</w>
वा नी</w>
मृ त</w>
कोइरा लाले</w>
औद्यो गिक</w>
का भ्र
सूच ी</w>
बाब ु</w>
सूच नाको</w>
म बहादुर</w>
पु लि
सङ्क्र मित</w>
बा रमा</w>
न्थ े</w>
प्रति बन्ध</w>
बुझ ्
सङ् क्रम
वेद न
अघ ि
सञ् चालित</w>
ज्ञा ने
इन् स्पे
द सै
पठा उन</w>
वर्ष सम्म</w>
ट लाई</w>
रो कथा
डा को</w>
न् ध
डे ढ</w>
श्र मि
भण्डा रीको</w>
हाल ै</w>
रा जा
मण ि</w>
सम् हा
स्व देश</w>
८ ८</w>
भिडि यो
निर् धा
ह र्
ग्र ी</w>
इ लाका</w>
रि ट</w>
स् ना
हु नेमा</w>
लेख ेका</w>
खो टा
कला कार</w>
महिला लाई</w>
द रले</w>
वि मान</w>
प्रो त्सा
लगाय तको</w>
सं हि
गौ र
निर्वा ह</w>
अल् प
चा रमा</w>
ट े</w>
राप्र पा</w>
समूह मा</w>
२० ८१</w>
तथ ्य</w>
पोखरे ल</w>
सजि लो</w>
शाह ीले</w>
कल्प िक</w>
ले क्
न् स
कर् ता</w>
प्रि मि
ला ई
अमेरि कामा</w>
जस पा</w>
म धु
रह ी</w>
लाग ्न</w>
गति विधि
मङ्ग ल
सं य
लेख ा</w>
उ त्रि
बच् चा
प्रतिपक्ष ी</w>
विज य</w>
राज्य ले</w>
नियन्त्र णका</w>
गौ तम</w>
नियु क्ति</w>
तो केको</w>
जा त</w>
गाह ्रो</w>
रुपन्दे हीमा</w>
पानी पोखरी</w>
पा ए</w>
मध ेस</w>
ज टि
क् लि
फ ्या
मु क्ति</w>
बजे देखि</w>
चाल ू</w>
प राज
तल ब</w>
उपत्य का</w>
इन्स्पे क्टर</w>
श्री मती</w>
गठबन्ध नको</w>
मूल्य मा</w>
छ ा</w>
कद म</w>
ङ लाई</w>
इन् डि
प्रधान न्यायाधीश</w>
खा द्या
पोख रामा</w>
बहा दु
म् म
पा त</w>
ट्र िक</w>
ला इन्
रा त</w>
बु द्ध</w>
फै लिएको</w>
तथ्या ंक</w>
श्व र
भा डा</w>
त् न</w>
कम्पन ीका</w>
बो केर</w>
म ीको</w>
स्रो तले</w>
उ को</w>
आ दि</w>
घु म्
चिकित् सक</w>
पुग े
लिख ित</w>
विराट नगर
व्य स्त</w>
उ खान</w>
ले ले</w>
न भएका</w>
कु ँ
रे न्द्र
धर् म</w>
पछिल् ला</w>
प्रकरण का</w>
सचिवा लय</w>
पार ि</w>
ग ढी</w>
र क्त
गरा ए</w>
ब या
ज ै
सघा एको</w>
गो वि
शा ह</w>
बेन् चमा</w>
परिवा रको</w>
तन हुँ
स्म रण</w>
सि क्
यहाँ को</w>
जिम्मे वार</w>
निर्धा रित</w>
आधु निक</w>
ला लाई</w>
मह र्
व्या पक</w>
निर्वाच नका</w>
यात्र ु</w>
खो लामा</w>
मान सिक</w>
को े</w>
र नमा</w>
चितव नको</w>
कार् ड</w>
भ त्का
रे कर्
कसै लाई</w>
सन् ता
धन्य वाद</w>
त्यस ै
मार्फ त्</w>
कर्म ी
त ौ
पुँ जी
कू ट
म ञ्
ज् व
ध्या पक</w>
बहु चर्चित</w>
माथि ल्लो</w>
रु कु
प्रकरण मा</w>
कुराका नी</w>
खति वडा
रमे श</w>
राम ्र
ठे के
ध ्
ग न</w>
निषे धा
८ ७</w>
पुरा ना</w>
करण का</w>
ङ्ग ो</w>
८ ६</w>
वि क्रम</w>
प्र कारका</w>
ङ बीच</w>
र ल</w>
चित्र को</w>
भ ु</w>
चलि रहेको</w>
पर े</w>
अन् य
पक्ष का</w>
स्वर् ण</w>
श् य</w>
बिराम ीको</w>
म् भ</w>
बे च
पु रा</w>
सेवा मा</w>
र ज
हु नाले</w>
मात्र ामा</w>
च ल्ने</w>
आ त
सक ीय</w>
छु ट्या
लाग त</w>
ध ो
कर्मचा रीलाई</w>
यु निय
ए काे</w>
उ खा
नपा उने</w>
आन्दोल नमा</w>
९ २</w>
प्रतिनिधि त्व</w>
सो च</w>
पाँच ौं</w>
वै कल्पिक</w>
श हर
उत्पाद नमा</w>
ब्या टिङ</w>
ल म
मानव ीय</w>
बजे टमा</w>
आयोज क</w>
विश्व का</w>
राख् दै</w>
ब मा</w>
नगरपालि का
कर् णा
प्राव धान</w>
सुनुवा इ</w>
जल वायु</w>
कार्यका ल</w>
निका लेको</w>
ज्य ेष्
बाध्य ता</w>
ठ ो</w>
ह लमा</w>
ढु ंगा
शान् ति
भा विक</w>
ल्या एका</w>
दा को</w>
ज ीको</w>
करण मा</w>
सि म
घिमि रेले</w>
बि दा</w>
विद्यार्थ ीलाई</w>
दि ँदा</w>
दा वी</w>
रुपैयाँ मा</w>
पछ िको</w>
ट ि</w>
घ े
मेगा वाट</w>
वी र</w>
स गर
वा ग्
फ ्र
बस् दै</w>
अ स्थायी</w>
सा रमा</w>
व ं
त ै
झ न्</w>
शब् द</w>
र म</w>
रा ँ
फोहो र</w>
क री
त न</w>
न मु
परि सर
खना लले</w>
ग्रा मी
कै द</w>
एक ै
आ गो</w>
सञ्जा लमा</w>
उड्ड यन</w>
बस्ने तले</w>
जोखि ममा</w>
स् मृ
मो हन</w>
ता ल
कु र्
गु ल्
मिने ट</w>
पा वर</w>
विष्ण ु</w>
बढ े
म द्द
माधव कुमार</w>
सत् य</w>
सा मू
प्रतिवेद नमा</w>
आंशि क</w>
लामिछाने सँग</w>
ट ु</w>
बे चन</w>
स् टो
विपक्ष ी</w>
अति रिक्त</w>
अस्पता ल
तस्क रलाई</w>
सञ्चार माध्य
इतिहा स</w>
वि चित्रको</w>
इ मा</w>
ट् टा
चो री</w>
महाशाखा ले</w>
श ः</w>
ब म</w>
मै त्री</w>
ग्रामी ण</w>
पु नले</w>
खत रा</w>
सुरु मा</w>
२० २०</w>
शु क्
आधिकार िक</w>
स् फो
ग भर्
चला उन</w>
समुदाय को</w>
ब् जा</w>
सं केत</w>
सि टी</w>
एक ल</w>
स्व देश
अ लि</w>
८ ९</w>
प्रविधि मन्त्री</w>
हल् का</w>
खड् कामाथि</w>
९ ८</w>
या उन</w>
सदस्य मा</w>
खा लको</w>
द ्रा
पन ी</w>
लम्ब न</w>
हटा उन</w>
ने का</w>
विज्ञप् ति</w>
मुख ी</w>
फु स्सा</w>
रो क</w>
मर् मत</w>
अ वार्ड</w>
नेपाल गन्
पार े</w>
त ृ</w>
प्रति व
टुंग ो</w>
उखा नै</w>
सु वेद
घिसि ङबीच</w>
जरिवा ना</w>
बिजु ली</w>
निष् कर्ष</w>
भो लि
सं क
पार्ट ीलाई</w>
पा मा</w>
मानि त</w>
व ु
मे रा</w>
सु निश्चित</w>
एम सीसी</w>
था ले</w>
करो ड
भू ति</w>
म ङ्
उपा ध्यक्ष
वि ष्ट
डा क्टर</w>
पस ल</w>
का य
क्रिया कला
र ेका</w>
२०७ २</w>
मु ग्
फ र</w>
बुझ ्न</w>
महामा री</w>
प्र कारको</w>
दि रा</w>
झ न्ड
शिक्ष ण</w>
मह ँ
द्र ा</w>
ध नको</w>
सक ्यो</w>
अ गा
ज्येष् ठ</w>
सहि तका</w>
सदस्य को</w>
भो ट</w>
एक जना</w>
सामा न्य
अ सु
प्रमा ण</w>
विश्व व्यापी</w>
का जी</w>
दि गो</w>
शा हले</w>
जा मा</w>
महो त्त
स ीका</w>
महि लाले</w>
सु शासन</w>
बो केको</w>
९ ३</w>
क ट्
सि स</w>
मानि न्छ</w>
प न्थ
पट क
न मा
हुन सक्छ</w>
ग एपछि</w>
बुट वल</w>
कि र</w>
दिन देखि</w>
न पर्ने</w>
ला भ
अमेरि काले</w>
द ीले</w>
भइ सकेका</w>
क पि
विद ्रो
मु स्ता
मौ का</w>
झन्ड ै</w>
जल स्रोत</w>
सञ्जा ल</w>
च् ने</w>
खे ती
सूर् य
तालि का</w>
बै त
बो ल्
सर् ला
जा गि
संघ र्ष</w>
मात्र ा</w>
वि धान</w>
मू र्
स् टर</w>
स्थि र
तर्फ को</w>
ग यो</w>
ओ लीलाई</w>
बि ता
नि या
सङ् ख्या
ज ङ्ग
हा तमा</w>
मौ लिक</w>
री बाट</w>
जन ले</w>
चला उने</w>
त या</w>
वे क्ष
व न्य
पा रेर</w>
अष्ट ्रे
ठ हर</w>
काम दा
खेला डी
मार् गको</w>
तो ला</w>
उन मा</w>
अध्यक्ष मा</w>
रूपै याँ</w>
ग्लो बल</w>
न्द ु</w>
वि नो
डा य
न्त्र ी</w>
९ ६</w>
अत्य धिक</w>
पढ ्
उप प्रमुख</w>
फ्रा न्
हु नेको</w>
मना उने</w>
कार्यक्रम लाई</w>
मध ेश</w>
र् ड</w>
नेता हरु</w>
द्र िक</w>
वि पद
सा हले</w>
हि उँ
९ ७</w>
प्रविधि को</w>
लगा ए</w>
गा य
जन ता
समी क्षा</w>
दा र्
न सकिने</w>
पू ँ
नि क
भ्रम णमा</w>
ज य</w>
सर स्व
वि प्ल
जना उँदै</w>
वन्य जन्त
च लेको</w>
बैं किङ</w>
या े</w>
अख्तिया र</w>
विका सम
फिल् ममा</w>
चार ीले</w>
डि जा
मृ त
जि किर</w>
९ १</w>
क्रम शः</w>
मनो न
लगाय तले</w>
व्यवसाय ीले</w>
र ि</w>
गण तन्त्र</w>
द का</w>
अ ति</w>
स री</w>
जा न्छ</w>
ह मा
दुई वटा</w>
कानु न
सुरुवा त</w>
बै ङ्
आ वास
फा र्
अ रू
अभिया नमा</w>
जना ए</w>
ब सि
न सि
प्रवर् द्ध
पुग े</w>
लि टर</w>
ड ट</w>
अव धि</w>
सुना ए</w>
अर्था त</w>
जमि न</w>
ब ्यु
आफ ु
सु ख
त राई
म कै</w>
क पमा</w>
खास ै</w>
कर्म चारीले</w>
हिमा ल</w>
ज सको</w>
स ल
जापा न</w>
सरकार बाट</w>
क्षम ताको</w>
पद क</w>
देखि यो</w>
लाग ु
श्रेष्ठ को</w>
टि एको</w>
किन भने</w>
कारवा ही</w>
हा उ
सामू हिक</w>
कार ी
न समेत</w>
ठ ्या
ज लाई</w>
क ल्या
नि ङ</w>
५ ००</w>
यात्र ामा</w>
गुण स्तरीय</w>
परिवा र
ब साइ
टा र</w>
रा णा
९ ४</w>
ज स्ती</w>
जोगा उन</w>
इ च्
हरू बाट</w>
महे न्द्र
घ न्
अक्सि जन</w>
ला माले</w>
मा तह
रुपैयाँ को</w>
ह कमा</w>
दुब ै</w>
परामर् श</w>
लोक प्रिय</w>
उद्देश ्य
सेवा को</w>
अस् ट्रे
विकासम न्त्री</w>
प्रहर ीलाई</w>
वित रण
तरि काले</w>
बढ ु
च रि
लगा इ
बे हो
सु न्त
त्य तिबेला</w>
न्ड र</w>
टी का
अल पत्र</w>
विश्ले षण</w>
मह त्व</w>
अर् को
बढि रहेको</w>
विश्व विद्यालय</w>
स त्य
विभा जन</w>
राज मार्ग</w>
बा री</w>
ङ क
गोर खा</w>
छ ौ</w>
पुग ्यो</w>
वि भे
गोर खा
कला कार
मार् गमा</w>
स्प ि
अ ब
यसै बीच</w>
चा रको</w>
अ सफल</w>
गठबन्ध नका</w>
ं ग्
प्रभाव का</w>
हिं सा</w>
परम्परा गत</w>
पत्र ि
बन्ध क</w>
वि ज्ञ</w>
बच त</w>
नेप् से</w>
भूकम् प
खर् च
ग्राह क
क् ट</w>
समा वे
य रमा</w>
न ष्ट</w>
म तको</w>
ट् स</w>
इ न
आरो ह
प्र शं
गर् छु</w>
मा रि
विष्ण ु
वि शा
आ बद्ध</w>
ख ण्ड</w>
ड ल
करी ब</w>
मे ला</w>
उप करण</w>
कार्य विधि</w>
ठ क्
विभाग को</w>
घर मै</w>
थि एनन्</w>
प्रशास नले</w>
बच् चा</w>
वस्तु को</w>
संस्था का</w>
एजेन् सी</w>
ब से
जा ँदै</w>
म य</w>
डि स्
है सि
स्त रो
क् सा
भनि न्छ</w>
नीति गत</w>
मि श्र
ए क्ल
वि वे
हे रेर</w>
भ ट्
राष्ट्र पतिको</w>
विपद ्</w>
उपचा रको</w>
प्रकाश मान</w>
चा प</w>
मै दान</w>
वि ना
अ ङ्
संयोज क
मौ द्रिक</w>
यो जनाको</w>
सि ङ</w>
स ीलाई</w>
ए शि
ले न्
प्र श
नवल परा
याता या
बोर् ड</w>
ला भा
सं वेदन
रे श
कप डा</w>
चा मा</w>
जीव नमा</w>
० १</w>
द ले</w>
दू तावा
हर ि</w>
मा का</w>
रुपि याँ</w>
उत्पा दित</w>
प्रा प्
परिवा रले</w>
अधि क
चा ड
सके नन्</w>
किसा नलाई</w>
ता रि
फर्कि एका</w>
के हि</w>
ड ब्
सं स्थापक</w>
ब्या ज</w>
नी लाई</w>
वर्ष े</w>
दृष्टि को
तस्बि र</w>
आग लागी</w>
विक सित</w>
धनग ढी</w>
सह र</w>
हुँ दा
या एको</w>
बर् ष</w>
प् ने</w>
स्प द</w>
विद्यार्थ ीको</w>
भे ला</w>
फ ्रे
एयर लाइन्
बराब री</w>
प्रा देशिक</w>
अनु सारको</w>
दा यी</w>
प्रा य
गा यक</w>
ए म्बु
साथ मा</w>
ढ ी
ट् टै</w>
लक्ष ण</w>
अध्यक्ष तामा</w>
लय मा</w>
परि सूचक</w>
म् प</w>
दा ङ</w>
आवास ीय</w>
सल्लाह कार</w>
हु न्न</w>
छो टो</w>
हा ल्
बा ली</w>
मध्य म</w>
जिम्मे वा
रा तो</w>
ती लाई</w>
जित ेर</w>
शं कर</w>
परिष द्</w>
सिँ चाइ
श ङ्
वि स्फो
यस बारे</w>
का स्क
वैज्ञा निक</w>
निष् का
भ क्त</w>
प्रतिनिधि सभाको</w>
ी यता</w>
से वन</w>
स्तरो न्न
गर् यो</w>
से ल्
खे लेको</w>
ँ ले</w>
ह ङक
लामिछाने ले</w>
बन् यो</w>
पल् ट</w>
ए पनि</w>
देख ्न</w>
औष ध</w>
ल डा
शा स्त्र
ठ ीक</w>
चिकित् सा</w>
म नमा</w>
प्या के
राख ी</w>
दि न्छ</w>
प थ
दश क
सं चालन</w>
श रण</w>
ज ्यो
इ न्द्र
क्रान् ति
नि गरा
स्व रुप</w>
बा ल</w>
विद्यालय को</w>
न्त ै</w>
वि स्त
भ ्य
ब सा
कानू नी</w>
भा इ</w>
खु शी</w>
समुद्र पारि</w>
त्व को</w>
एसि याली</w>
बाबु राम</w>
ई मा</w>
ज ग
दिइ ने</w>
बुँ दे</w>
ना थ
मन्त्र ीको</w>
रौ तह
नागरि कले</w>
अ गु
उपभो क्
न रत</w>
राष्ट्रियस भा
सङ्घ का</w>
ब रु</w>
कास् की</w>
क्रिया शील</w>
जो ड
र वि
ट ेका</w>
क्ष ी</w>
लि यो</w>
पर म्प
सन्दी प</w>
पछ ्या
ग तिमा</w>
प्र बन्ध</w>
ब ू
न दिन</w>
अ थ
प्रोत्सा हन</w>
ठु लो</w>
धान का</w>
कसै को</w>
शु रु
जि ङ</w>
स्टा र</w>
निय मावली</w>
नेक पाका</w>
अन्न पूर्ण</w>
व ती</w>
पा ट
सी आर</w>
ज ब
ध म्
कि ता
रो गको</w>
अ बको</w>
ठो क्
परम्प रा</w>
मन्त्रिपरिषद् को</w>
मि त्र
ए फ</w>
राख े</w>
जा ति</w>
चि या</w>
जी करण</w>
ब लको</w>
पक्ष ीय</w>
लै जान</w>
विद ्</w>
किसि मको</w>
बसो बास</w>
प्रहर ी
सिन्धु पाल्
लि इएको</w>
त ल्लो</w>
लम् साल</w>
रो पनी</w>
नि रीक्ष
अल ग</w>
निर्मा णा
नेता हरू</w>
प्रशा सकीय</w>
गाउँ का</w>
गण ेश</w>
ष ा
निर्ण ा
र सम्म</w>
गरे काले</w>
मापद ण्ड
एन आर
स् कुल</w>
अभि योग
आफै ं</w>
ति त</w>
नेता हरुले</w>
स्य ौ
ब ्रे
ध नी</w>
घिमि रे</w>
संक्रम ण
पा उँ
दि इन्</w>
व ्र
ह ्न</w>
आज ै</w>
र् य</w>
य तिबेला</w>
साउद ी</w>
पा लन</w>
अध्या देश</w>
नि जा
जन् मि
निय मित
ह ैन</w>
वि शि
द् र</w>
संक्रम णको</w>
स्या ङ्
क् न</w>
ख डा</w>
इन्टरने ट</w>
समस्या मा</w>
सम्झौ ता
धा दि
संविधान ले</w>
मास् क</w>
हाम ीसँग</w>
प्रधानमन्त्र ी
पार्टी भित्रको</w>
वा म
माध्य मिक</w>
पाठ ्य
सि मा
मन्त्र ीले</w>
य रको</w>
ठ मा</w>
आँ खा
प ्यु
तथ्या ङ्क</w>
सुदूर पश्चि
ना का
अ स्वीकार</w>
प ञ्च
ट् वी
वि हीन</w>
ने ट
बजे टको</w>
प्रमाण पत्र</w>
रू प
सदस्य ले</w>
गुण स्तर</w>
ग्र स्त</w>
पूर्वा धा
रे श</w>
खरा ब</w>
अ फि
छि ट्टै</w>
सि ना</w>
टा ढा</w>
अभि व्यक्ति</w>
भी म
कार्यका लको</w>
ठ गी</w>
सा लले</w>
हजार भन्दा</w>
प्रणा लीमा</w>
ख ल
महानगर ीय</w>
ड ै</w>
र् ण</w>
वा ला</w>
च न्द
न क</w>
अनु मो
गी तमा</w>
क्यान् सर</w>
सिँ चाइ</w>
कल् पना</w>
छा डेर</w>
स नल</w>
पूर् णि
विरो धी</w>
चि सो</w>
गरा इएको</w>
सल्ला ह</w>
शेर चन</w>
च ट्या
हाइ ड्रो
त राई</w>
वा स्ता</w>
ना मक</w>
अन्तर्गत को</w>
स् वि
का ला
पर्यट कको</w>
व्यवस्थापन मा</w>
स्वास्थ्य मा</w>
मुलु कका</w>
लि गको</w>
भए का
हरु बाट</w>
हप् ता</w>
आत् मह
बाढ ीले</w>
अव लोकन</w>
रि या
घ र्
श ौ
फिल् मको</w>
ज म्
कालो पत्र
सुदृ ढ</w>
म स्यौ
देखि एपछि</w>
बि र्
टि न</w>
साप कोटाले</w>
हतिया र</w>
का उने</w>
राजनी ति
प क
पक्ष को</w>
च न्द</w>
पत्र िका</w>
म् वा
आ शि
अ ब्
घा टा</w>
पा टन</w>
आ माको</w>
कि ल</w>
पश्चि मी</w>
सै न्य</w>
श ेर</w>
बागलु ङ</w>
तह ले</w>
ख सेको</w>
वि वा
बता उनु</w>
प्रति को</w>
मन्दि रमा</w>
ग हि
पर् दा
२० १९</w>
भ री</w>
यौ न</w>
पर् दछ</w>
भट्ट राई
चाह ेको</w>
एक द
शक्ति को</w>
सन्तो ष</w>
ल्या इ
माओवाद ीले</w>
विश्व कर्
व े</w>
नु परेको</w>
क्वारेन् टाइ
भै रह
लेख ्
झ े
खे लेका</w>
समय सम्म</w>
शा री
प्रवद्र् धन</w>
सि ए
दोष ी</w>
बा र्सि
मोर ङ</w>
दिल् ली</w>
हरा एको</w>
बुझा एको</w>
जा तीय</w>
थ ि</w>
स्त रको</w>
द श</w>
ध को</w>
तन हुँ</w>
वि वि
उ नुभयो</w>
समृ द्ध</w>
श पथ</w>
लेख ेको</w>
मद्द त</w>
कि एका</w>
ब्र ु
बार्सि लो
साझे दारी</w>
मु म्ब
विव रण
कट ौ
दू ध</w>
के वल</w>
आकर्ष क</w>
मा घ
न बहादुर</w>
आ व</w>
प्रस्ता व
आ यु
सि ट
बैठ कको</w>
स्वा मि
कुश ल</w>
न सके
निका यले</w>
स्थानीय वास
प्र को
खा ता</w>
न ौं</w>
हाम ी
कार्यक्रम का</w>
समानुपा तिक</w>
वा लले</w>
मे ह
मि र्
अन ौ
भ लि
सुन सर
सं गीत</w>
ता प्ले
बना उँदै</w>
मध ्य</w>
उपा य</w>
पाकिस्ता न</w>
उदाहर ण</w>
प्र चार
क् स
हा राहा
सरस्व ती</w>
दि नुभएको</w>
समृ द्धि</w>
अत्या वश्यक</w>
क ्यु
ताप्ले जु
गि री</w>
ज नमा</w>
उ ता</w>
लोक तन्त्र</w>
थ र</w>
से व
पर राष्ट्र
सक् नेछन्</w>
ले न्स</w>
वा मा</w>
आकर्ष ित</w>
नि मि
बोर् डले</w>
था ल्
कि त</w>
लि यम</w>
समस्या को</w>
किशो र</w>
जा जर
प्रति तोला</w>
फल फूल</w>
दिन अघि</w>
सभा बाट</w>
ख ु</w>
ह ीका</w>
ची न
त ट
ले न</w>
खाद्या न्न</w>
रा ना</w>
संसद को</w>
मज दु
भा ँ
गण ेश
ग ै</w>
उप ेन्द्र</w>
जु टा
श्री मा
परि या
दुः ख
ज ला
अधिक तम</w>
क् सन</w>
सु रू</w>
बस्ने त</w>
विस्त ृत</w>
क ु</w>
दि क</w>
स्मृ ति</w>
आ श्र
रु पा
टे ल</w>
रण नीति</w>
क सु
गा र्
विशा ल</w>
प्र ष्ट</w>
जन मत</w>
म ्यु
अभि ने
सी प</w>
शरी रमा</w>
शारी रिक</w>
का लमा</w>
कहि ले
अधि वक्ता</w>
एन से
ती का</w>
पराज ु
बि मा</w>
बुट व
नारायण गढ</w>
बि स्ता
विवि ध</w>
के जी</w>
पृथ्वी सुब्बा</w>
आ क्रो
संसद् मा</w>
ौ ला</w>
ड डे
जि ते
कर् त
ध् व
महानगर ले</w>
पार ेका</w>
स् ट्र
प् टे
प्र ती
रेकर् ड</w>
त्यस ै</w>
प लाई</w>
ऋ ष
नपा एको</w>
द्व य</w>
च क्र
सूर् य</w>
म ञ्च
गोवि न्द</w>
नेपाल बाट</w>
हो म</w>
ेस न</w>
र मा
खटि एको</w>
छा या
नु मान</w>
कवि ता</w>
२०७ ३</w>
पढ ्न</w>
जर् म
बा पत</w>
सांसद ले</w>
ग्या स</w>
गा वि
नै तिक</w>
समारोह मा</w>
क हरू</w>
बालबालि कालाई</w>
डा क्
श्या म</w>
दा नको</w>
अन्तरि म</w>
बालुवाटा रमा</w>
ल भ</w>
सचिवालय ले</w>
च्याम्पिय नसि
आत्म निर्भर</w>
प्रतिष्ठा न</w>
ह े</w>
व्य हो
मू ल
र माइ
प्रिमि यर</w>
न रेन्द्र</w>
ट ्यु
ला न्</w>
सं खुवा
बि त्तिकै</w>
सिद्धा न्त</w>
प्रमाण ित</w>
ग ए
समाज को</w>
प द्ध
चाँ दी</w>
निगम ले</w>
ल्या न्ड</w>
पुग ेपछि</w>
मि टर
ए जे
दि नुपर्छ</w>
एन् ड</w>
ई को</w>
संयोजक त्वमा</w>
चाह ना</w>
वास्त विक</w>
विरो धमा</w>
उपचा रमा</w>
परे र</w>
सेन् टर</w>
ताप क्रम</w>
सहयोग ी</w>
अ ह
लि म्ब
विद्या देवी</w>
प्रक्रि या
ङ् ग्र
पर् नेमा</w>
जुन सुकै</w>
गो ल्
क्ष म</w>
म ीका</w>
आ य
चौ का</w>
कपि ल
प न्त
जित ेका</w>
को टको</w>
सचे तक</w>
अ डि
थापा को</w>
चो ट</w>
उत्पाद नको</w>
न भएपछि</w>
बुध वार</w>
हु लि
अभि नेता</w>
महा निर्देशक</w>
ग इरहेको</w>
कोठा मा</w>
श ृ
स्व स्थ</w>
नमु ना</w>
जोश ीले</w>
जान ु</w>
वि वाह
निर्माणा धीन</w>
पशु पति</w>
सहा यता</w>
मा लाई</w>
उ द्ध
पर् दा</w>
न दीको</w>
क सले</w>
टि क</w>
पञ् चा
महा संघका</w>
ढो का</w>
युव राज</w>
्य ू
उत् कर्षमा</w>
न त</w>
लेख िएको</w>
भ ग</w>
बना ई</w>
भ इ</w>
फा उ
प्रवृ त्ति</w>
नु भएका</w>
श् व</w>
ब्रा जि
र ै
भो ग्
जनक पुर
अर्या लले</w>
गर्द छन्</w>
उत्त री</w>
पर् दैन</w>
युनाइ टे
प ं
कर् ता
विद्यार्थ ीले</w>
छा त्र
गठ ित</w>
च्छ ा</w>
बने र</w>
ढि लाइ</w>
न मू
न याँ
बे इ
सर्वो च्च
स्प ष्ट
विद्यालय का</w>
च रण</w>
ना ट
बाह ्य</w>
लग भग</w>
समा प्त</w>
रह नु</w>
ती मध्ये</w>
प्रा लि
गरा उँदै</w>
ड ्या
अनु रुप</w>
तपाई ं</w>
व्यवसाय िक</w>
भेट वार्ता</w>
नेपाल ीलाई</w>
घर बाट</w>
विनो द</w>
क ीमा</w>
मल् ल</w>
काँग्र ेस</w>
खतिवडा ले</w>
साध नको</w>
आ कर्षण</w>
आयोग मा</w>
प्र यो
सूच ी
स त्त
स वार</w>
ने म्वा
कुरा को</w>
न कै</w>
रि यल</w>
जा त्रा</w>
सुरक्ष ाको</w>
प्रे षण</w>
यू एई
ढका ल</w>
परिच य
कुरा लाई</w>
र हि
पी डा</w>
लामिछा ने</w>
च म्
पार दर्
व रले</w>
त ेको</w>
टा को</w>
टो लीमा</w>
न कारात्मक</w>
सि लि
समा धानका</w>
निर्णा यक</w>
अन लाइ
२० २२</w>
हिं सा
रा मे
चा मल</w>
लाग ु</w>
स तर्
१ १
० ३</w>
मङ् सिर</w>
लि ई</w>
र सु
अधिकार को</w>
२० ०</w>
गन्त व्य
स हुलि
आ एकी</w>
थ ी</w>
विश्व मा</w>
मत गणना</w>
पी सीआर</w>
थ ्र
बरा बर</w>
पा एपछि</w>
डो ल्
नेता हरूले</w>
ना रा</w>
जित् ने</w>
मा नी</w>
ड ्रि
अनु गम
ब ङ्ग
म ण</w>
बु द्धि
न्या स</w>
ण सँगै</w>
पा उँदा</w>
स क्षम</w>
ग्र ु
भो ग
टो लीको</w>
इट हरी</w>
कुट पि
उठा उने</w>
श म
ज सका</w>
ने लाई</w>
क हरु</w>
मु द्रा
ब ने</w>
ती नै</w>
अथ वा</w>
न भएकाले</w>
राष्ट्रि य
भन् नेमा</w>
क्या न
म र्या
जग्गा को</w>
यस ो</w>
मङ्गल बार</w>
उपा ध्या
न जर</w>
बि च</w>
पेट्रो लियम</w>
थपि एका</w>
नु का</w>
भाव ी</w>
था ल्यो</w>
ख न
क्र ी</w>
आस पा
समय को</w>
चर् को</w>
जटि ल</w>
लु का
हेट ौं
काम लाई</w>
दु ख
दीर्घ कालीन</w>
श ल्य
भट्ट ले</w>
त्यहाँ को</w>
पा री</w>
कूट नीतिक</w>
ता पूर्वक</w>
खेलाड ीले</w>
देखि ए</w>
संस्था मा</w>
घ न
कमजो री</w>
क डा
त्र ु
नियु क्ति
भेट घाट</w>
ल ौ
महामा रीको</w>
गो मा</w>
आफै ँ</w>
अ ड्
शर द
गुमा एका</w>
परीक्ष णका</w>
टि ले
व ्
सचि व
र सि
एम सी
वि ना</w>
इजला सले</w>
इ टा
के श
बाँ ड
प्र दाय
सन् त</w>
अघ िको</w>
बजा रको</w>
लि ज</w>
गी तको</w>
भव नमा</w>
आन्दोल नको</w>
प्र कट</w>
परि स्थिति</w>
शै ली</w>
लि ँदै</w>
मा मा</w>
गण तन्त्र
रा लाई</w>
क ँ
मज दुर</w>
सि ंग
दा ता</w>
दिव सको</w>
पू रै</w>
कु वे
जन ताका</w>
कैला ली</w>
ब्याज दर</w>
औ स
दू री</w>
न हरू</w>
चाँ डै</w>
डि के
सं कट</w>
ल्या ण्ड</w>
निर्देश ना
ज ीले</w>
लघु वित्त</w>
शो क</w>
ठोक् कि
सम् मत</w>
न दि
क् सी</w>
पुँ जी</w>
लाग् दा</w>
प तिमा</w>
र गत</w>
निजा मती</w>
भे टमा</w>
कार्यकर् ता
जा नुपर्ने</w>
ति क
क पको</w>
डु बा
लम जु
मह तो
स्वदेश ी</w>
राम ्रो
चो कमा</w>
नेपाल ीले</w>
जन् म</w>
खा लका</w>
समा योजन</w>
उपलब् धि</w>
हे ल्
हा फमा</w>
सुत् के
रोकथा म</w>
बया न</w>
एक्ल ै</w>
व री</w>
२० १८</w>
शु रू</w>
कृष्ण प्रसाद</w>
चौ की</w>
दोहो रो</w>
इ ञ्
ह क</w>
गो लको</w>
उन कै</w>
वर् ग</w>
यो सँगै</w>
स्थिर ताका</w>
ढु ंगा</w>
रो पण</w>
मा सु</w>
बिराम ीलाई</w>
महामा रीका</w>
च् छ</w>
रा प्
तामा ङले</w>
को टमा</w>
इ ंग्
जस लाई</w>
धि तो
श्र ा
कु कु
औष धि
पदार्थ को</w>
सह सचिव</w>
गल् ती</w>
कम्पन ीलाई</w>
लगा नीमा</w>
शक्ति शाली</w>
इ को</w>
हस्त क्षेप</w>
मा ई</w>
त्यस री</w>
सम्पर् कमा</w>
असन्तु ष्टि</w>
बङ्ग ला
प्राधि करण</w>
ए सो
सम् मानित</w>
वार् तामा</w>
गरे मा</w>
सम्पा द
टे न्
बृ ह
बैठ क
ज्ञवा लीले</w>
अभाव मा</w>
समझ दारी</w>
राज मार्ग
आ चार
सम्भा वित</w>
मह तले</w>
क ौ
ड ीमा</w>
परि स्थि
उहाँ का</w>
अधिकार ीको</w>
मह ी
आप त्ति</w>
ढु वानी</w>
संक्रम णबाट</w>
देश भरका</w>
भे ट्न</w>
सुवेद ीले</w>
पारि वा
बता एकी</w>
काठमा ण्ड
टेलि कम
काम दार</w>
दृ श्य</w>
भेन् टिले
बे नी</w>
दा मा</w>
उन ै</w>
नि वेद
बढा इएको</w>
महा संघ</w>
जो डेर</w>
अत्य न्त</w>
खा ने
द् द</w>
निमि त्त</w>
जन प्रतिनिधि</w>
स्थि र</w>
भए कोमा</w>
संहि ता</w>
स्वा र्थ
पो लि
फाइ ना
सु न्
उत् तिकै</w>
डि से
उठा उन</w>
ट रले</w>
विद ्य
कार्यालय बाट</w>
मा छा</w>
सुरक्ष ाका</w>
लो मा</w>
ल् स</w>
दा जु
गभर् नर</w>
शु भ</w>
ग ह
फोर ममा</w>
उमे रमा</w>
पहिरो ले</w>
संसद् को</w>
पत्रकार ि
पर्व त</w>
भी म</w>
गत ेको</w>
सिद्धा न्त
कार मा</w>
सञ्चाल नका</w>
त्यहाँ का</w>
देखि न</w>
ची नमा</w>
अ प</w>
ख बर
औ ं
समृद्धि को</w>
प्र य
खोज् ने</w>
उ नेछ</w>
ख पत</w>
ड ्रा
ण लाई</w>
ध ै</w>
प ठ
कोष ा
गो र्
लिमि टेड</w>
भए काे</w>
किसा नको</w>
ल ङ्
ख टा
घट नाका</w>
प शु</w>
र हित</w>
ट्रम्प ले</w>
गो पाल</w>
सकि एपछि</w>
पट कको</w>
य ति
ख ै
प्र भु</w>
महा निरीक्षक</w>
प् न</w>
हा वा
निषेधा ज्ञा</w>
प्र दू
बा ख
अ नियमित
रि स</w>
ने ताको</w>
नेट वर्
आ कस्
हु म्
चाहि ने</w>
श्र ो
फेसबु क</w>
उदय पुर</w>
मनोन यन</w>
हे री</w>
श य
रु सी</w>
प्राय ः</w>
रोजगा रीमा</w>
तपाईं को</w>
कोरो नाका</w>
जोडि एका</w>
मेसि न</w>
दर् जन
समुदा य</w>
फाइ ल</w>
पुग् छ</w>
हिँ ड्
न दी
राष्ट्रपति ले</w>
र त्
कु खु
आ शंका</w>
ञ् चित</w>
अनुमो दन</w>
फरा किलो</w>
सांसद हरुले</w>
वि स्थापित</w>
आयो जनाले</w>
गर् नुपर्नेमा</w>
हटा उने</w>
भित्र ी</w>
उहाँ लाई</w>
बढु वा</w>
ङ् कन</w>
नि वासी</w>
खरि द
रा य</w>
प्र सार</w>
त्य ति
ह प्ता
संवि धानमा</w>
लग ेर</w>
घट ेर</w>
दश ै
म दन</w>
ति म
प्र वेश
बाँड फाँ
ज समध्ये</w>
महिना देखि</w>
मोटरसाइ क
ज म
स्रो तका</w>
निश् चित
सुर्खे त</w>
जग्गा मा</w>
हरा उँदै</w>
संवेदन शील</w>
चाह न्छु</w>
ह ृ
विका स
साहि त्य</w>
ए ई</w>
भाग का</w>
भन् छिन्</w>
पे न्द्र</w>
का उ
फ ौ
हु न्
सह जीकरण</w>
न हरु</w>
राम बहादुर</w>
म्ब ा</w>
जो शी</w>
म्याग् दी</w>
बासि न्दा
गठ नको</w>
रे ड
उ र्
रे मि
खटि एका</w>
नभए सम्म</w>
हे रि
सि द्ध</w>
त् तिको</w>
यो स्</w>
बढ ीको</w>
महोत्स व</w>
आज देखि</w>
ब् ब
मा छा
द रमा</w>
च ीको</w>
गि राव
अभियोग मा</w>
राष्ट्र को</w>
थि यौं</w>
हे क्टर</w>
अना वश्यक</w>
सभा ले</w>
परि ण
सचि वमा</w>
ब द्र
आई सी
राज श्व</w>
दर्श क</w>
शुक्र वार</w>
प्रा न्त
बो ल्न</w>
महाशाखा का</w>
टे क्
सा गर</w>
सं वाद</w>
पुरुष को</w>
संस् कार</w>
ति र्न</w>
उच्च स्तरीय</w>
शरद सिंह</w>
गि रीले</w>
स्व रूप</w>
उप योग
नो क्सा
न्त ी</w>
आ ए
न्यू ज</w>
पारिवा रिक</w>
दिव स
सध ैँ</w>
ल्या ए</w>
प्राधिकरण को</w>
लिक प्
साथ ी</w>
दि एकी</w>
ं श</w>
धु रा</w>
कँ डे
झा ले</w>
निर्मा ता</w>
उ सलाई</w>
सा मेल</w>
सवारी साधन</w>
हे लिकप्
त्यस अघि</w>
सहम ति
फ र
घ ा</w>
ु क</w>
रा ती</w>
नु स्</w>
उद् धा
ता इ
दर् जन</w>
व त्</w>
प्राथ मिक</w>
द त्त</w>
गुमा एको</w>
अं कले</w>
एम ई</w>
महा संघले</w>
डि एको</w>
देख ेर</w>
परि मार्
हु र्
त जाव
सो को</w>
अनु म
स्वा भाविक</w>
सि र
उम्मेदवा रको</w>
बा ने
सह कार्यमा</w>
सु वे
स्वास्थ्य कर्म
प्रशास निक</w>
विश्व भर</w>
सा उ
दो ल
स्रो तको</w>
झ नै</w>
स्वास्थ्य कर्मी</w>
स्मार् ट</w>
स क्रि
माथ ा</w>
गो दा
आ वास</w>
हि रास
पूर्वा नुमान</w>
मानि सले</w>
क्याम्प स</w>
वे ला</w>
थपि एको</w>
एक ताको</w>
ख री
क्वारेन्टाइ नमा</w>
कि रण</w>
मना उन</w>
म रा
रे ल
लेख क</w>
क्ष ित</w>
सर्वो च्
पत्र ा
प्रतिव द्धता</w>
गठबन्ध नमा</w>
नि या</w>
प ब्
दिने श</w>
आ शा
कार्य को</w>
पोर् ट</w>
डे डिके
समुदाय का</w>
श मा</w>
टा ँ
ए पि
जो ड्
भेट ि</w>
छै न्</w>
आव को</w>
रा ही</w>
आर् जन</w>
२० २१</w>
प्रत्य क्ष
न दिएको</w>
रह ँदै</w>
गन्त व्य</w>
स च्या
ओली लाइ</w>
सगर माथा</w>
सतर् कता</w>
भविष्य मा</w>
बलि उ
स्वतन्त्र ता</w>
लि नुपर्ने</w>
भा उ</w>
अर् जेन्
साझे दा
आयोजना का</w>
विशेष ज्ञ</w>
न विन</w>
ं ख
किन कि</w>
मिला उन</w>
पूर्व प्रधानमन्त्री</w>
श्व री</w>
मानि सलाई</w>
बाँ के</w>
प् प</w>
खेल बाट</w>
कोष मा</w>
मोह म्म
भी ड</w>
लि एपछि</w>
राम्रो सँग</w>
प्र बन्धक</w>
रोह णसँगै</w>
मह त्व
प्र शो
सम र्
महाधिवेश नमा</w>
व त</w>
पौडे लको</w>
ट्र क</w>
गै ँ
से न्स</w>
अ गाडी</w>
सत्त रोहणसँगै</w>
अर् जुन</w>
का इ
अर् ध
विशि ष्ट</w>
दार् चु
ग ल</w>
अभि वृद्धि</w>
बु द्ध
देख ा</w>
गर् दै
झ ड
पटक पटक</w>
न मिल्ने</w>
अप् ठ्या
रहे छन्</w>
गर् छौं</w>
जित् न</w>
संघ र्ष
सङ्घ ले</w>
इ लेक्
ना म
प ल</w>
पश्चा त</w>
न्याय िक</w>
भन् यो</w>
स्य ो
२० २४</w>
ध ्र
उन की</w>
पश्चा त्</w>
गरा इ
उ नुभएको</w>
खि ल</w>
रा णा</w>
दुर् गा</w>
प्रणा लीको</w>
नमू ना</w>
उ स्तै</w>
रो मा</w>
टो लीका</w>
विष्ट ले</w>
सचि न</w>
वाह क</w>
प्रयोग मा</w>
अर् ब
आकस् मिक</w>
डेडिके टेड</w>
धेर ैले</w>
रे खा</w>
पीडि त
फै ला
बढ ेपछि</w>
आत्मह त्या</w>
नुपर् नेछ</w>
काठमाडौं का</w>
सहभाग ि
से के
पर् खा
भ ई
रक्ष ा
महा काली</w>
माग ेको</w>
बालबालि काको</w>
विप्ल व</w>
टि मले</w>
सा व
भलि बल</w>
उत् सा
अर्जेन् टि
श्र े
खु कु
प्र धा
मान् ने</w>
इन्जि नियर</w>
अस् ति
ट्र ी</w>
कोरि या</w>
विज्ञा पन</w>
बे ल्
ह ्र
विप न्न</w>
पत् नी</w>
सेमि फाइनलमा</w>
न्दु मा</w>
एन् फा</w>
एक पटक</w>
कर् पो
छ ी</w>
ढु ङ्गा</w>
बस्त ीमा</w>
काँग्रेस का</w>
तुल सी
रुकु म</w>
भद ौ
परिवर्त नको</w>
पा त्र
सि ने
जि न</w>
छ नौ
पारि एको</w>
इ स्
भौ गो
पु रले</w>
ब धा
गरि ब</w>
ति नी
ह जु
पूर्व मन्त्री</w>
हि जो
सा वि
उठ ेको</w>
प्रारम् भ</w>
ब ेर</w>
न्यौपा नेले</w>
राज्य का</w>
निका यको</w>
े न्द्र
म च्
था इ
लु ङ</w>
राज कुमार</w>
सभा पति
पत्र को</w>
बै शा
सि स्ट
दिशा मा</w>
पो स्ट</w>
चे क</w>
सिँचाइ मन्त्री</w>
परिण त</w>
स ल्
सु रेन्द्र</w>
च क्
हिमा लय
लगि एको</w>
टे लले</w>
खा ले</w>
टि स</w>
सक् दा</w>
आ उँदै</w>
ज्व रो</w>
कमि टीको</w>
न ौँ</w>
ओ टा</w>
त्यस बाट</w>
रो प
ँ को</w>
ख त्र
हु नुभएको</w>
पढा इ</w>
ए के
बि रुवा</w>
अर्थतन्त्र मा</w>
आई पी
नु होस्</w>
क् य</w>
अदाल तका</w>
र द्द</w>
र थ</w>
स्था नको</w>
त्यस कारण</w>
चर् चामा</w>
बना उनु</w>
मिल् नेछ</w>
ए कको</w>
विमानस्थ लको</w>
को सी</w>
सर् वेक्ष
ब झा
न मार्फत</w>
खो ल्न</w>
दिन पछि</w>
वि ष्ट</w>
औ ँ
ल म्बि
पठा इ
विष ा
पशु पति
आन्दोल नका</w>
समुदाय लाई</w>
अ लि
सध ैं</w>
ज मा
भेटि एका</w>
प्रशं सा</w>
स् टु
वि विध
शिक्ष ाको</w>
ज ग</w>
दर बार</w>
ढु ङ्गा
कार ले</w>
ला र्
शनि वार</w>
मुस् लि
सिं गा
स्थानी यको</w>
दर बन्दी</w>
म तले</w>
खेलाड ीको</w>
आव तजाव
बना उँदा</w>
विवाद मा</w>
ड र
ग् न</w>
श्र म
पे न्
हे लि
अ ग
वि पक्षमा</w>
पक्ष लाई</w>
अपना उन</w>
अ प्रि
होट लमा</w>
सश क्त</w>
वर्ष भित्र</w>
ड लाई</w>
ं को</w>
समाज का</w>
चाहि न्छ</w>
सु पर</w>
ञ्च ल</w>
बा जी</w>
प्रमुख मा</w>
परिसर मा</w>
अभिने त्री</w>
व्यापा रिक</w>
जो गि
शे खर</w>
चि न्त
ज्ञाने न्द्र</w>
ङ बाट</w>
से न</w>
खे लि
लि गमा</w>
वा म</w>
कम ै</w>
बना उनुपर्ने</w>
बजा र
अ पि
त्रि वि</w>
दिवस ीय</w>
द्ध ा</w>
खेलाड ीलाई</w>
मि टरको</w>
रोजगा रीका</w>
उल् लं
ह ौं</w>
अव का
एकद मै</w>
च ्यु
एक् स
शि खर</w>
आइसोले सनमा</w>
ड ीको</w>
गा ई</w>
मु क्ति
य न्
राज ु</w>
बि ग्र
व्या ख्या</w>
महा नगर</w>
रेडि यो</w>
सक् नुहुन्छ</w>
वाद को</w>
स् को
भ्रम णका</w>
कटौ ती</w>
व्यवस्थापन का</w>
उपाध्यक्ष मा</w>
मु टु
त रण</w>
ना साथ</w>
पन्थ ी</w>
भट् ट</w>
तीव ्र
प्रतिस्पर् धी</w>
न्त रण
भ रको</w>
भिडियो मा</w>
ए पी
विदेश बाट</w>
अ डान</w>
देखि ँदैन</w>
आइत वार</w>
ने दर
लाग् दो</w>
डडे ल्
बाइ डे
सह मत</w>
न्त र</w>
निगरा नी</w>
निस् कि
पालि काको</w>
पार्टी भित्र</w>
हृ द
न मै</w>
नक् सा</w>
मि लेको</w>
दो ष</w>
ला बाट</w>
बन्द ी
भए कै</w>
वा ले</w>
मा लि
धनकु टा</w>
को ठा</w>
प्रश स्त</w>
विश्व को</w>
खो ल्ने</w>
भौगो लिक</w>
कु नै
च् चा</w>
न अनुसार</w>
किसि मका</w>
स्रो त
ख ्य
हि स्सा</w>
पुरा नै</w>
रि लिज</w>
पालि कामा</w>
गुमा एर</w>
दि नका</w>
जीव नको</w>
र जि
भ द्र
कालोपत्र े</w>
न्यौपा ने</w>
समाजवाद ीका</w>
तीन वटा</w>
२० १७</w>
ड ्य
फू ल
पू जा
बजे ट
प्रा ध्यापक</w>
फा स</w>
नि स</w>
राम ्रा</w>
परि चित</w>
समा चार
भन् नु</w>
जनकपुर धा
लाइ सेन्स</w>
प्रचण्ड को</w>
सामान्य तया</w>
मेलम् ची</w>
देउवा लाई</w>
पुनर् निर्माण</w>
चि त्त</w>
ढ े
समावे शी</w>
विद्य मान</w>
स् ने</w>
मुद्दा को</w>
गठबन्ध नले</w>
ड बाट</w>
बा रीमा</w>
स्वा ब</w>
खु ल्ला</w>
पर्दा फास</w>
व्यवसा यमा</w>
र् य
रो ल्
अनु भूति</w>
ना मि
आफ न्त</w>
अन् यो
उठा एको</w>
बार बाट</w>
गरि ए</w>
गर ी
वीर गन्
प्रे रित</w>
राय माझ
सम्प दा</w>
वा सन</w>
खास गरी</w>
मु ल
छो डेर</w>
न सकेपछि</w>
अ क्ष
क् कै</w>
सेवा ग्राह
रो ड</w>
तस्क री</w>
पु लको</w>
बेलु का</w>
क ीका</w>
नेक पाको</w>
कार्य लाई</w>
का ल</w>
सु शा
स ि</w>
प्रति पक्ष</w>
गर् भव
आप सी</w>
लगा नीको</w>
भग वा
ई का</w>
उम्मेदवा र
सि जन</w>
क ं
अक् टो
ज बाट</w>
गर् थे</w>
बना यो</w>
मै ना
प्रे म
भे री</w>
स्व च्छ</w>
गर्द छु</w>
बोला इएको</w>
ँ मा</w>
लाग ेपछि</w>
इ च्छा</w>
मिर् गौ
सम् मान
ङ्ग ले</w>
गर ौं</w>
म दिरा</w>
प्रतिशत भन्दा</w>
दक्षि ण
मा टो</w>
छल फल
नवी न</w>
गरा एर</w>
सर्व साधारण</w>
कर्त व्य</w>
टा उको</w>
ठ प्प</w>
शरी र</w>
रोजगा रीको</w>
आग लाग
नारायण काजी</w>
न स</w>
इन्जि निय
कम् प्यु
सम् व
समुदा यमा</w>
सुधा रका</w>
ख त</w>
राव लले</w>
सरोकारवा ला</w>
अर् का
स्थानीय वासी</w>
परिचय पत्र</w>
विस्ता रै</w>
श ्रो</w>
धनग ढ
हरु बीच</w>
अप हर
शि ला
प्रवर्द्ध न</w>
बर् खा
एके डे
इ नन्</w>
उल्लेख ्य</w>
उँ छिन्</w>
स स्तो</w>
मा नमा</w>
श म्
टो लीलाई</w>
फ ्रि
ण्ड र</w>
रमाइ लो</w>
ट्या ङ्
अमेरि का
पार् दै</w>
केन्द्र बाट</w>
ह ँ
बुझा उन</w>
काठमाडौँ मा</w>
साँ झ
क देखि</w>
श्र द्धा
ब त्ती</w>
गु ज
ै मा</w>
देखा उन</w>
समिति लाई</w>
ऋ ण
जनक पुर</w>
बा जु
उद्यो गमा</w>
शि व</w>
ब्य व
आ प्र
मोहम्म द</w>
अनुसन् धानमा</w>
ब ि</w>
ना टक</w>
ठो स</w>
ता रा</w>
पो जे
एम्बु लेन्स</w>
त्र ी
न देखि</w>
फ त</w>
मे ट्रिक</w>
इच् छा
आइ सि
खा तामा</w>
जाँ च
त्यस बेला</w>
सकि ँदैन</w>
पदाधिकार ी
मि ले
कान् ति
सुन्त ला</w>
त्यहाँ बाट</w>
पोख राको</w>
सजि लै</w>
वी रेन्द्र
अ खिल</w>
नो भे
सदस्य ता</w>
नम्ब रमा</w>
आ पूर्
जन स्वास्थ्य</w>
ट्र ंक</w>
गाउँपालि का
छ ्या
प्र ेस
प क्का</w>
द ्य
ई एको</w>
हैसि य
सङ्क्र मि
नो ट</w>
भा डामा</w>
प्रा इ
ए एफ
ग् ने</w>
ट्र या
मिल् दैन</w>
आव मा</w>
ज ीमा</w>
ध नका</w>
अष्ट्रे लि
बु बा
ब्रु अ
तर्फ ी</w>
आ कां
से प्टे
१ ८
ना घ
यु क्त
सो च्
संस् करणको</w>
च ढा
ध र</w>
भु सालले</w>
सार्व भौ
सुवे दी</w>
द म
निर् या
मा नको</w>
पा नीमा</w>
सुत्के री</w>
सं सार
चला एको</w>
र ङ्ग
खण्ड को</w>
खे ल्दै</w>
रोक् ने</w>
अनुसन्धान का</w>
भने पछि</w>
बार सम्म</w>
भर् ख
मूल्या ंकन</w>
रो हि
न ृ
क तार</w>
च्याम्पि यन</w>
विष् य</w>
इन् स्यो
चे तना</w>
बी बी
आफ ै</w>
२० २३</w>
मल् लले</w>
कुटपि ट</w>
ह् वा
उपत्य काका</w>
बैं कमा</w>
क् वि
भ विष्य</w>
संक्रमि त
काभ्र े
तया रीका</w>
डि ग्री</w>
तत्का लै</w>
संरच ना
स दु
विशेष गरी</w>
आ उनु</w>
रे न्ट</w>
अं ग्रे
न सँगै</w>
ग ढ
झ ल
बि ष
स ना
आरो प
न्याया धि
पे ली</w>
त्य ही
मण्ड ल</w>
बो ल्ने</w>
प्या ले
श त
प्रति द्वन्द्
ला स</w>
पाउ नेछन्</w>
बे ल
आफू हरुले</w>
द क्ष</w>
विरु द्ध
बि ज
क ब्जा</w>
दा हाल
मृ तक</w>
सचे त
ठक् कर</w>
ता ब्
क सहित</w>
अरु ण</w>
अस्ट्रे लि
क्रान्ति कारी</w>
परि सर</w>
आउँ दो</w>
परिषद् को</w>
बन् छ</w>
सम् भाव
ज बर
नव राज</w>
बुझा इ</w>
अनु प
जन तामा</w>
जन सङ्ख्या</w>
रा लो</w>
लाग तमा</w>
व रको</w>
जन् मा
ज बरा
टो ली
तु रु
प ण्डि
सहा य
लाख को</w>
तना व</w>
अभि योग</w>
काग जात</w>
पद बाट</w>
लेख ि
पहि ले
छ क्का</w>
क वि</w>
प ेस
आक्रम णमा</w>
ड भा
ब् बर</w>
सु कु
सोम वार</w>
स त्र
भूमि कामा</w>
सुन सरी</w>
ज डी
बचा उन</w>
जागि र</w>
मा पन</w>
प्रहर ीमा</w>
ब ्रो
काय मै</w>
सहयोग को</w>
राखि एका</w>
महँ गो</w>
परीक्ष णमा</w>
कै को</w>
ण्ड मा</w>
निय मन</w>
श हर</w>
क्या न</w>
रा नी</w>
रू पा
थप े</w>
सदु प
राज न</w>
उत्सा हित</w>
देउवा को</w>
उद्यो गी</w>
स नले</w>
ह ौँ</w>
माध म</w>
ं दै</w>
बेलाय ती</w>
पे नाल्
महे न्द्र</w>
सा का</w>
म सँग</w>
पारि श्रमिक</w>
स्मार् ट
म छि
पर ि</w>
नेपालगन् ज</w>
योग ्य
२० १६</w>
ध माधम</w>
ब्य ू
पद का</w>
का फ्
इ मा
श ताब्
पढ ्ने</w>
मा ल्
नगर प्रमुख</w>
मधेस ी</w>
लि इ
के श</w>
हाराहा रीमा</w>
प्रदर्श नमा</w>
परिवा रमा</w>
ह ीले</w>
ला म</w>
कर्पो रे
स् पो
सा न</w>
विश्ले ष
रे पछि</w>
अ ंग
उ चा
अनि ल</w>
धेरै जसो</w>
सम्झौ तामा</w>
मो दीले</w>
म नि
तौ ल</w>
पोजे टिभ</w>
सङ्ख्या मा</w>
टो ल</w>
ट्रा न्स
पक् कै</w>
बुढा थो
रा बाट</w>
ति ब्ब
ठाकु र</w>
बे वास्ता</w>
ट् वि
लगा उँदै</w>
धरा न</w>
प्रस्ता वित</w>
नपा ठ
पार्टी बाट</w>
क ीलाई</w>
पालि का
नि कट
बेलाय त</w>
शेर् पा</w>
भव नको</w>
वि हान</w>
महे श</w>
रे न्स</w>
चाह ने</w>
ढि लो</w>
था ले
ग ंगा</w>
इतिहा समा</w>
मि न</w>
अनु रूप</w>
राज्य मन्त्री</w>
आदि वासी</w>
ऊ र्
था लि
डिजा इन</w>
बा रा</w>
हरू बीच</w>
रो हित</w>
संघ ीयता</w>
मानि एको</w>
प्रधा ना
मा टो
लाख भन्दा</w>
बाल कृष्ण</w>
्र ै</w>
पठ नपाठ
मूर् ति</w>
बाहे कका</w>
स्वा र्थ</w>
छा प</w>
अ छा
त् तर</w>
कम ल
प्रतिनिधि सभामा</w>
खोज् न</w>
कोष को</w>
उ ता
ठ ि
अध्यय नरत</w>
पृ ष्ठ
कार्यान्वय नका</w>
बोला एको</w>
जल विद्युत</w>
शै लीमा</w>
नव ौं</w>
शुक् ल</w>
व्या पार
बौ द्ध</w>
सो लु
दा नी</w>
ति मिल्
ताल मेल</w>
सहज ै</w>
बार म्
रोग का</w>
एन् टि
रा हु
मु नि</w>
क्ल बले</w>
देश बाट</w>
डा का</w>
पा स
कर् ण</w>
मुख्यमन्त्र ीमा</w>
ध रौ
राजधा नीमा</w>
वा र
अन्त रले</w>
ई ले</w>
मु द्रा</w>
न सकिएको</w>
मध्य नजर</w>
नि क्षेप</w>
दूर सञ्चार</w>
ञ् ज
विगत का</w>
लो क</w>
कारबा हीको</w>
एक ता
बु टी</w>
समुदाय ले</w>
निका यमा</w>
डा ले</w>
हा े</w>
गरे सँगै</w>
प्रमुख को</w>
छै ट
आफै ंले</w>
नगर मा</w>
बोला एर</w>
ड ट
फर्क ने</w>
रा त
सि मेन्ट</w>
स् टक</w>
गरे पनि</w>
हेट ौँ
नाय व</w>
क ्यले</w>
झ ैं</w>
प्रतिस्पर्धा मा</w>
परराष्ट्र मन्त्री</w>
गहि रो</w>
वर् ती</w>
बा ग्
ग्राह क</w>
गरि बी</w>
प्र वाह
भि सा</w>
प्रश् नको</w>
परिच य</w>
धितो पत्र</w>
देखा एर</w>
क्षति पूर्ति</w>
च ि</w>
गर्नु का</w>
च क</w>
परि योजना
ह क
च् छे
उपत्य का
व ल्
पुर स्थित</w>
मनो रञ्
जिल्ला बाट</w>
उप धारा</w>
ललित पुरको</w>
ना रा
सम् प्रेषण</w>
वि चार
मह राले</w>
पर् नेछ</w>
प्रे रण
सांसद को</w>
घाइ ते
डो ज</w>
झा पाको</w>
खो लाको</w>
नु अघि</w>
द मौ
खो ल्
तो कि
हिन्द ू</w>
र नले</w>
ओ पन
नेपाल गञ्ज</w>
न् ट
मस्यौ दा</w>
करि डो
माओवाद ीका</w>
माल पो
आवश्य क
रो नाल्
राप् ती</w>
गर्ने लाई</w>
मसान्त सम्म</w>
करो डको</w>
सं गै</w>
हा र
रहे कोमा</w>
लाग े</w>
चुनौ ती
सात दो
दा इ</w>
श ही
शल्य क्रिया</w>
गर् भ
ए सीसी</w>
निष् पक्ष</w>
निका ल्न</w>
खु ट्टा</w>
पक् की</w>
विश्व कपमा</w>
क क्ष</w>
ग का</w>
स्तरोन्न ति</w>
रा ध
ष ित</w>
जि ता
भाइर ल</w>
ध का</w>
ले ट</w>
पर् सा</w>
कर् म</w>
मे घ
फे ब्रुअ
महिना सम्म</w>
य का</w>
अव धारणा</w>
जापा नको</w>
से नाका</w>
इन् चार्ज</w>
खो पको</w>
य त
उन् मुक्ति</w>
अ परे
अत्य न्तै</w>
घा टमा</w>
उपमहा सचिव</w>
मुस्लि म</w>
भारत सँग</w>
विभाग मा</w>
मन्त्रालय लाई</w>
नु सार</w>
उठ ्
को प्
कुल पति</w>
मा वि
व क्त
कक्ष मा</w>
शम शेर</w>
इजला समा</w>
क्रिके टको</w>
नवी करण</w>
विभे द</w>
ठेके दा
२०७ ०</w>
निर्वाच न
अनुम ति
सदुप योग</w>
बारम् बार</w>
बालि का</w>
म् स</w>
सत् तामा</w>
झ न्
पत्रा चार</w>
जा ले</w>
लाइ ट</w>
विद्यालय ले</w>
वि चा
झ ग
चि नी</w>
अवस्था को</w>
राख् नु</w>
आ युक्त</w>
ध्र ु
र वी
मुलु कलाई</w>
बने पछि</w>
निम् त्या
सुरक्षा कर्मी</w>
च रम</w>
भर्ख रै</w>
पत्रकार िता</w>
म्या ने
प्रधानमन्त्र ीलाई</w>
घोष ित</w>
मा तृ
भाग ्य
प्रयो जनका</w>
बा घ
कि न्न</w>
क्ष ण</w>
दश क</w>
शा क्यले</w>
उ प्रे
म ता
घा त</w>
पीडि तलाई</w>
ग ु</w>
ह ै</w>
पा त्र</w>
प्र स्थान</w>
सेवा का</w>
छात्र वृ
उप सभामुख</w>
नगर ा
भ ल
खानेपा नीको</w>
को ट
शि शु
मंगल वार</w>
एका तिर</w>
बधा ई</w>
राष्ट्रियस भा</w>
खा स</w>
दक्षि णी</w>
ए यर</w>
संस्था लाई</w>
क्षेत्र फ
बार का</w>
किना रमा</w>
वन्यजन्त ु
ध नमा</w>
ब दर</w>
फो टो
प्रणा ली
रेग् मीले</w>
ना मावली</w>
यु एई
व ट</w>
हिरास तमा</w>
ू ले</w>
वर्ष ाका</w>
ठेके दार</w>
सुनि ल</w>
कि ट</w>
श्रीमा न्</w>
ग ंगा
ीय ताको</w>
काम का</w>
द्वन्द् व</w>
बि हे</w>
बढ् छ</w>
सुरक्षा कर्म
भ ल</w>
सय भन्दा</w>
महिना भित्र</w>
समे टिएको</w>
बासि न्दा</w>
नि ज</w>
हिम पा
परीक्ष ामा</w>
देखा उने</w>
वि क्री</w>
ठ िक</w>
खु ल्
देखि न्छन्</w>
नै देखि</w>
कृष क</w>
दा स</w>
साय द</w>
प्रचण्ड लाई</w>
अव स्थित</w>
छा नविन</w>
क रको</w>
मु आ
माध्य म</w>
जे न</w>
का ई</w>
किता ब</w>
चा बहि
स फ्
उठा एका</w>
छुट् टा
झ रेको</w>
आ लु</w>
वर्ष भन्दा</w>
गर्नु को</w>
सङ्घ को</w>
किसा न
का अनुसार</w>
द स्ता
से तो</w>
कारागा र</w>
आश् वासन</w>
झ ्या
महा नगरपालिकाका</w>
वा न्
ह द
ति नै</w>
लाभा ंश</w>
से ट</w>
लि भर
थि यौँ</w>
फो हर</w>
कहिले का
आ य</w>
वि राम
उल्लं घन</w>
प्रस्ता वमा</w>
युनिय न</w>
ला पर
ंग े
रंग शालामा</w>
आरोह ण</w>
सु वास</w>
सहर मा</w>
बैशा ख</w>
मोर् चा</w>
गर् दैछ</w>
रेडि यो
मलेसि या</w>
चाल नमा</w>
उत् तम</w>
ह ौ
अगा डि
गरे कोमा</w>
विज य
बो ल
मानि ने</w>
त्र ै
बढ् नेछ</w>
नेक पा
या व
व्यापा री</w>
वाग् मती</w>
क हरुले</w>
ब डी</w>
सा ताको</w>
न मन्त्री</w>
बढ ेका</w>
साम ु</w>
वि परि
खोटा ङ</w>
लय को</w>
गु रु</w>
झल नाथ</w>
ले न्द्र</w>
मध ेश
३ ००</w>
ल सँग</w>
बन्द ा
डाँ डा</w>
भा न्
टीका पुर</w>
घो राही</w>
डि एसपी</w>
स भ्य
ण ु</w>
तपाईं ले</w>
विके टको</w>
सके सम्म</w>
ग्राह कले</w>
चुना वको</w>
हे म
ओ भर</w>
निर्देश िका</w>
औस त</w>
कार्य योजना</w>
न सके</w>
बराब रीमा</w>
ता रा
क्षेत्र ले</w>
श्र ृ
च ल्न</w>
अर्थतन्त्र को</w>
आ रक्ष
उ चाइ
्य ौं</w>
कर् ण
भक्त पुरमा</w>
न्द्र ले</w>
नाराय णी</w>
गाड ीमा</w>
ए कामा</w>
ढि ला</w>
साप कोटा</w>
विधेय कमा</w>
यो र्
२० १५</w>
आफू हरु</w>
जा हेरी</w>
रत् न
खोज् दा</w>
ण् ठ</w>
स्वय ं
च्याम्पिय न्स</w>
लोकतन्त्र को</w>
चितव नमा</w>
न न्द
बिही वार</w>
अर ब</w>
प वि
ण्ड को</w>
टे क
त्या ग</w>
पा ठ</w>
स्थि रता</w>
दू ता
प्रय त्न</w>
चाँ दीको</w>
एफ ले</w>
निय म
रा नी
हल् ला</w>
शे यर
हेलि कोप्
दा सम्म</w>
बु बा</w>
उत्पाद न
व्यवसाय ीलाई</w>
सेवा ग्रा
म्याग् दीको</w>
ला न</w>
प्रदेश सभामा</w>
महिना पछि</w>
वि रू
पेट्रो ल</w>
द्धा न्
मन्दि रको</w>
लो ड</w>
निवा समा</w>
युवा लाई</w>
प्रशो धन</w>
नी तिमा</w>
तालि बा
द वा
संय न्त्र
गर् जन</w>
पा लो</w>
गु प्
र घु
आज बाट</w>
था रु</w>
त स्वी
लक्ष् मी
बाढ ी
था ल
छाया ंकन</w>
ड ढे
अपि ल</w>
सा ले</w>
ध्या नमा</w>
मार् च</w>
सम्बन्ध लाई</w>
राम्र ै</w>
रास्व पा</w>
बंगला देश</w>
खा एर</w>
विभाग ीय</w>
अख्तिया रले</w>
जोखि म
नेता लाई</w>
व्यवस्थापन को</w>
स ल्या
ध के
उप हार</w>
क हरूले</w>
लिमिटे डले</w>
क्रान् ति</w>
यस पा
निकुञ् ज</w>
तथ्या ं
ना फा
सै द्धान्
छो रीको</w>
सहम तिमा</w>
ने गरी</w>
दाय रामा</w>
हो म
म्ब रमा</w>
युरो पेली</w>
मानिस हरु</w>
धम् की</w>
व्यवसाय ीको</w>
शान्ति पूर्ण</w>
प्रच लन</w>
जबर जस्ती</w>
र् ट</w>
रि हा</w>
झ ल्
मा वि</w>
म तमा</w>
डि या
नेतृत्व ले</w>
पि सि
एक् सचे
विके टले</w>
बुझ ्ने</w>
हु नुपर्नेमा</w>
कैला लीको</w>
डि ल्
अपा ङ्ग
बैं कि
नि ग
दिव सका</w>
पूर्ण ता</w>
सन्तो ष
स्पष्ट ीकरण</w>
का स्पद</w>
पुलि स</w>
हिमालय न</w>
सर सफाइ</w>
फै लि
फर्कि ने</w>
अर्या ल</w>
अनु हार</w>
हजा रको</w>
उद्यो गको</w>
हा लको</w>
फि ट</w>
जो डेको</w>
छा ड्ने</w>
समाज ले</w>
आफै ँले</w>
ध ौ
महानगर को</w>
सिफारि समा</w>
विश्व प्रकाश</w>
चि एको</w>
उपलब् धि
ड ीले</w>
आ ल
द् वार</w>
गीत कार</w>
प्रतिद्वन्द् वी</w>
बढा एर</w>
सुरु ङ</w>
मना ङ</w>
परिवर्त नका</w>
सम ग्र
बुझा उने</w>
चे क
मा था
चा रु</w>
म तका</w>
मं सि
ं मा</w>
नुपर् दछ</w>
न् टल</w>
त त्
हरि यो</w>
अधिकृ तको</w>
अ चा
नि वर्तमान</w>
झा ँ
पर्यट कलाई</w>
नि एको</w>
कम्पन ीमा</w>
मह तो</w>
चुना व
सी सी
श ले</w>
बि ल</w>
सा रका</w>
माओवाद ीको</w>
ज ति
लाइ नमा</w>
उत् साह</w>
दे न</w>
रण नीतिक</w>
हि उँ</w>
देख ी</w>
ठोक्कि ँदा</w>
द लमा</w>
अव तरण</w>
नी तिको</w>
ना क</w>
ट् र्या
वर्ष मान</w>
हा ल्ने</w>
दुर् गा
गैर आवासीय</w>
प्रदेश सभाको</w>
झ ैँ</w>
रा शि
सम् बद्ध</w>
र् स
टेलि भि
भ ो</w>
भ रे
ेर ै</w>
प्रदेश ले</w>
रु ख</w>
कर् ताले</w>
उप राष्ट्रपति</w>
के सीको</w>
हु ला
बु हा
हेटौं डा</w>
ः ३०</w>
मार् ने</w>
छो रीलाई</w>
दो ब्बर</w>
छलफ लका</w>
प्रति बद्ध</w>
अनियमित ता</w>
म ्र
अनु कूल</w>
क्या पि
न् छौं</w>
प् य</w>
उ दै</w>
राज ेश</w>
आई जी</w>
रे लले</w>
चु अल</w>
कारो बारमा</w>
ल डाइ
दुर् घटना
म रि
सन्ता न</w>
आ यल</w>
नि याँ
करण ी</w>
शिक्ष ामा</w>
प्र स्ट</w>
कोष ले</w>
मान न्ध
मनो ज</w>
रि ता</w>
इन् धन</w>
कार ि
गते बाट</w>
निय माव
आवश्य कता
ई श्वर</w>
अधिकारी हरुले</w>
प्रतिशत सम्म</w>
पा टी</w>
श को</w>
श तक</w>
ता तो
कार्यकर् तालाई</w>
प्रको प</w>
मौ न</w>
आव द्ध</w>
हा ले</w>
क्रा मक</w>
पार् किङ</w>
प े</w>
गो लले</w>
उ क्
बर् से
लि टी</w>
ख स्
जो ड्न</w>
सम्झ ि
जा गर
बालबालि का
उत् खन
परिमार् जन</w>
न आएको</w>
ने त्र
जै विक</w>
काठमाडौँ को</w>
राई को</w>
सञ्चाल नको</w>
निकाय का</w>
म र</w>
बच् न</w>
दल लाई</w>
बाहि रबाट</w>
पाइ ँदैन</w>
ने स</w>
बिक्र ी
तथ ्य
शर् माको</w>
कोइरा लाको</w>
अभिभाव क</w>
गर् मी</w>
अव लम्बन</w>
शिवि र</w>
ल हर
ख ब
ठाउँ बाट</w>
व कि
१ २
पारदर् शी</w>
ी हरू</w>
क च्चा</w>
न् थ</w>
वैशा खमा</w>
थापा लाई</w>
अ सल</w>
कार् तिक</w>
सर्वोच्च ले</w>
ने वि
सरोकारवा ला
नेपाल गञ्
यस सँगै</w>
परीक्ष णको</w>
सु ख</w>
कल् प</w>
वास ीलाई</w>
पु ल
कृष्ण बहादुर</w>
सि नाले</w>
सम्बन् धि</w>
ग्र हा
सर्व सम्मत</w>
निर्ण यमा</w>
न पाइने</w>
सैद्धान् तिक</w>
घुम् न</w>
रा वल</w>
आ माले</w>
गर्भव ती</w>
ढा ँ
निर् मित</w>
डिस् चार्ज</w>
हुने गरी</w>
गाउँ को</w>
ड न</w>
शा लिक
बा धा</w>
खा ल्
द् वि
परि मा
सिल सि
सदस्य लाई</w>
अनौ पचारिक</w>
पालि काले</w>
सो ही
प्र सिद्ध</w>
फ को</w>
रिजा लले</w>
ख्या ल</w>
गाड ीको</w>
प्र क्षे
उपचार रत</w>
पोर् चु
ी न</w>
अदाल तबाट</w>
आप समा</w>
आइ एमई</w>
यु ट्यु
नेता हरुको</w>
म लको</w>
हा रमा</w>
व्यवस्था को</w>
चलचित्र मा</w>
साइ कल</w>
हो इनन्</w>
निष्का सन</w>
य िक</w>
वे द</w>
कानु नको</w>
जना र्
सक् नु
ो स्</w>
दि न्छन्</w>
स् के
र् यो</w>
महा नगरपालिकाको</w>
लग ेको</w>
ड ्र
सङ्क्रमि तको</w>
भे रिय
जि ज्ञा
विपरि त</w>
महामा री
अ मि
साझे दार</w>
बाँ ध
धु लि
सा रेको</w>
पा हु
शा क्य</w>
२० १४</w>
अ ङ्क</w>
रहे कोले</w>
सौ न्द
म्यु जिक</w>
वि धान
वीर गञ्ज</w>
वा सि
ग गन</w>
फे रि
बताउ नुहुन्छ</w>
सु मन</w>
न्यु ज</w>
समा चारमा</w>
फर् म</w>
विश्वविद्यालय को</w>
टे वा</w>
असन्तु ष्ट</w>
कोषा ध्यक्ष</w>
ले क</w>
सं वाद
साल देखि</w>
रेमि ट्या
एमाले बाट</w>
आर् मी</w>
चा हा
ने गे
रुपैयाँ ले</w>
उत्रि एका</w>
स ह</w>
ड ल</w>
हा नी</w>
कम् तिमा</w>
बिस्ता रै</w>
बालुवाटा र</w>
को हल
द् विपक्ष
मेलम् चीको</w>
औ चि
गर ौँ</w>
सि एको</w>
सहुलि यत</w>
अभिया नको</w>
बो हरा
कु हि
भू भागमा</w>
गो प्य</w>
ना कामा</w>
ले टि
ओ खल
बहि नी</w>
दिन ँ</w>
घन श्याम</w>
नि लम्बन</w>
ह को</w>
ह ता
दैनि कमा</w>
जा का</w>
अ शोक</w>
स्थल गत</w>
परि रहेको</w>
सी ता</w>
मि स</w>
सूची कृत</w>
राख् नुपर्ने</w>
मा ल</w>
सर ल</w>
मो दी</w>
ख न</w>
शाखा का</w>
जा त
वे न्द्र</w>
प्रधान न्यायाधीश
दि भ्
स् पोर्
कार्यान्वय नको</w>
सके र</w>
चाल य</w>
टेलि भिजन</w>
ए म्
प्र जि
व नमा</w>
अन्तर्गत का</w>
सा बि
नवलपरा सी</w>
द ु</w>
लाग् दैन</w>
अन्य त्र</w>
समन्व यमा</w>
का उन</w>
उ ज्या
ौ लाले</w>
अन् या
ट् टी</w>
वास्त वमा</w>
श्रीलं कामा</w>
दूतावा सले</w>
पर् वको</w>
अति क्रमण</w>
का एर</w>
जान की</w>
प्र कृति</w>
दि दी
बी उ</w>
प हलमा</w>
थु नामा</w>
प्रजा तन्त्र
न सम्म</w>
नेपाल मै</w>
उपभो ग</w>
चाँ डो</w>
क सँग</w>
चाबहि ल</w>
प्रदर्श नी</w>
याद वको</w>
द्विपक्ष ीय</w>
महा राज
बाँ के
मोड ल</w>
छु क</w>
यु द्धको</w>
सुरु आ
किशो री</w>
टि क
निका ल्ने</w>
एन ए</w>
ढ ङ्गले</w>
काठमाड ा
बुझ ि
मि थि
पुर्या उने</w>
जान कार
संस्कृ तिको</w>
बर्से नि</w>
कुनै पनि</w>
विष यको</w>
मालपो त</w>
सा धन
यात्र ा
जन जाति</w>
बल् ल</w>
से ती</w>
जो न</w>
रज त</w>
क्रियाकला प</w>
व री
ण् ट</w>
साव धा
स ेका</w>
लागु औषध</w>
ी त</w>
मिला एर</w>
देख ेको</w>
श हरी</w>
ए शो
ला य
सु चारु</w>
१ ४
शी ल
वे बसाइ
भाइर सका</w>
भोज पुर</w>
े मा</w>
स प
राम्र री</w>
बढ ि</w>
शौ चालय</w>
छा पा
प ेर</w>
सङ् गठन</w>
म ीमा</w>
च य
कार्य दल</w>
सहि द</w>
अधिकार ीलाई</w>
ति वा
हि तमा</w>
वडा ध्यक्ष
जि तमा</w>
याद व
बद्र ी
म ह</w>
काउन् सि
कल्या ण</w>
ललित पुरमा</w>
च ेर</w>
निका यलाई</w>
आइ रहेका</w>
म ध्या
रू पले</w>
मि हि
घट् दै</w>
यो जित</w>
ऐ नको</w>
क्षेत्रफ लमा</w>
गा ली</w>
त सर्
मुग् लिन</w>
आइसोले सन</w>
पा उनुपर्ने</w>
सम ्या
भूमि मा</w>
स्था नबाट</w>
निवा रण</w>
लाग ू
पा न</w>
मेगा वा
तह लाई</w>
एकी करण</w>
सङ् गठ
लाइ फ</w>
तसर् थ</w>
के शव</w>
अध्यक्ष को</w>
ए प</w>
भै र
क्रिके टमा</w>
र सिंह</w>
निरीक्ष ण</w>
दाहा लको</w>
त्य समध्ये</w>
च लाइ
डा टा</w>
सब स्टे
छनौ ट</w>
सद नमा</w>
ज था
बा क्
रे ड</w>
मूल्या ङ्कन</w>
ङ् ख
आचार संहिता</w>
पै दा</w>
य ता
नि एका</w>
उनी हरु
शालिक राम</w>
अ सारमा</w>
पे शा
स सँग</w>
ति मी</w>
विश्वविद्यालय का</w>
लो भ
बता इन्छ</w>
प्रयोग शाला</w>
पा लु
त्रि पाठ
इ मेल</w>
प्रजा तान्त्रिक</w>
बज ेर</w>
उ खु</w>
या ममा</w>
सी आई
कले जमा</w>
नेगे टिभ</w>
तो ड
भन्ने बारे</w>
मै त्री
समग्र मा</w>
कठि ना
प्रशिक्ष णमा</w>
ना मको</w>
भइ न्</w>
कार्य समिति</w>
भाष ा
अन्त राष्ट्रिय</w>
मिने ट
चरि त्र</w>
डी एसपी</w>
बता उँछिन्</w>
निग मको</w>
मे यरमा</w>
समूह लाई</w>
ड रा
महिना अघि</w>
सु न्न</w>
दुर् गम</w>
विदेश मन्त्री</w>
पे ट</w>
निर्देशना लय
शीर्ष कमा</w>
बना उनका</w>
युद्ध मा</w>
पो ष्ट
मि लि
आयोज कले</w>
खोजि एको</w>
उत् स
खरी द</w>
फोर म</w>
सदस्य का</w>
गाय िका</w>
आवतजाव त</w>
घ ्र</w>
मि लन</w>
णा त्मक</w>
सके काले</w>
चिन् तित</w>
टे स्ट</w>
भ्र म</w>
उ प</w>
विद्यु त्
अचा नक</w>
बिहा नै</w>
रि सो
एस एसपी</w>
त्य ो
या म</w>
हुनु हुन्थ्यो</w>
उ कालो</w>
बजे तिर</w>
निर्देश नमा</w>
रो जा
की करण</w>
जनार् दन</w>
कोरोना बाट</w>
क्यान् सर
को छ</w>
अर् काे</w>
रा नाले</w>
बोर् डका</w>
रा श
दि न्छु</w>
छ रि
न कुमार</w>
स्या उ</w>
चु हा
पीडि तको</w>
आयु र्
श ित</w>
क्र स</w>
पि ङ</w>
गर् दैन</w>
य तामा</w>
रेग् मी</w>
सु शील</w>
कु वा</w>
वन्यजन्त ु</w>
चो क
ठाउँ का</w>
प्रच लित</w>
स्थाप नाको</w>
लो जी</w>
तत्का लिन</w>
संय न्त्र</w>
च े</w>
पुर बाट</w>
साम यिक</w>
यु एई</w>
उम्मेदवा रले</w>
फो र्
उनी हरू
संलग् नता</w>
धि कार</w>
सडक अन्तर्गत</w>
कर् ताको</w>
द लि
बना उँ
ब ीको</w>
रो पाइ
रो ले</w>
र मै</w>
ती र्थ
भै रहेको</w>
गर्नु परेको</w>
ट्याङ् कर</w>
मेल मिला
निका लेर</w>
समे टेर</w>
ब ग
चौध रीको</w>
भ्रम णको</w>
शा न्त</w>
कि म</w>
य मान</w>
बैठ कबाट</w>
पठा एका</w>
देखि को</w>
पो जि
बालु वा</w>
नियन्त्र ित</w>
महर् जन</w>
प्या रा
महाधिवेश नको</w>
गए राति</w>
उद्योग ले</w>
पिसि आर</w>
चे ल्
व्यवहा रमा</w>
ज्यो ति</w>
टा उ
महा संघको</w>
राह दानी</w>
क् का
सुन चाँदी</w>
पृथ् वी</w>
स ला</w>
सि धै</w>
देख ेपछि</w>
स्वास्थ्य का</w>
हिम पात</w>
अप्ठ्या रो</w>
प्रतिश तको</w>
का देखि</w>
या बाट</w>
संरक्ष णका</w>
४ ८
प्रदर्श न
एक दिवसीय</w>
प्रत्या रोपण</w>
फ ला
मो ड</w>
साय निक</w>
के ही
बि हि
न राम्रो</w>
सरो कार</w>
ति हार</w>
यात्र ाको</w>
ब् ल
कांग्रेस लाई</w>
ची नबाट</w>
सा ंग
डाँ डामा</w>
प्रतिष्ठा नका</w>
उपत्य काको</w>
फि लि
फर् कन</w>
हो लान्</w>
लकडा उनको</w>
मुआ ब्जा</w>
बढ ीमा</w>
रुपन्दे ही</w>
अ ँ
पन्त ले</w>
ज ीलाई</w>
अ सर
का न्त</w>
पा उनु</w>
आ उँछन्</w>
मा फी</w>
तीव्र ता</w>
ओ रालो</w>
कीर्ति मान</w>
उप सभापति</w>
पो ष
सु र
सम ै</w>
गरे ँ</w>
सु निश्चित
न गर्दा</w>
ल ड्
मन सुन</w>
सिर हा
रह नुभएको</w>
द ीका</w>
तथ्या ङ्
आ देश
फुट पा
भ्र ा
स् ट्रा
टा इन</w>
सक् दो</w>
पै दल</w>
डे भल
विरुद्ध मा</w>
वृ द्ध
इजराय ली</w>
आज का</w>
न माथि</w>
रोजगा र
अ सा
घु स</w>
राष्ट्रियसभा को</w>
य किन</w>
सँग सँगै</w>
संगठ नको</w>
गर्नुपर् नेछ</w>
बो लि
गैर सरकारी</w>
थ प्
ण ु
खोज ीमा</w>
परि स्थितिमा</w>
र गत
१ ५०</w>
मा नले</w>
घटना बारे</w>
के पछि</w>
अपरा ह्न</w>
स्वय ं</w>
बा नी</w>
दी प
तिहा इ</w>
स नका</w>
कडा इ</w>
कोरि याली</w>
रहे कै</w>
अस्पता ललाई</w>
पुन रा
कार्य सम्पादन</w>
भैरह वा</w>
वडा का</w>
अन्त र</w>
खु ल्न</w>
४ ००</w>
झ ो</w>
उद्य म
ण ी
ओपन र</w>
इञ् जि
सामग्र ीको</w>
जडी बुटी</w>
ता र
प्याके ज</w>
मि ल</w>
थाल नी</w>
ची नका</w>
अनुसन् धानको</w>
वृ त्त</w>
ह स्पि
कञ्चन पुर</w>
रु चा
विभा जित</w>
प्र गति
बोर् डको</w>
जम् कट्
अधिकारी हरूले</w>
भोलि पल्ट</w>
बो ले
मानिस हरू</w>
सु रेश</w>
विश्व कै</w>
प्र ज्ञा</w>
पा उँछन्</w>
गै र</w>
कार्यका लमा</w>
हार् दिक</w>
उप प्रधान</w>
भाइर सबाट</w>
ज स्ता
सभा लाई</w>
गिराव ट</w>
स्था यि
सन् धि
अफ र</w>
से ल</w>
वातावरण ीय</w>
मुलु कले</w>
ना ल्ड</w>
गर्द े</w>
सि ङ्गो</w>
बाहि री</w>
माल् दिभ्
लि ङ्
काठमाडौं बाट</w>
सर् भि
के दार</w>
को ल
निषे ध</w>
पद को</w>
लगानीकर् ताले</w>
दमौ ली</w>
व ञ्चित</w>
जवा फ
कतिप यले</w>
क् ला
राजनी तिका</w>
रकम को</w>
अध्यय नका</w>
बे ड</w>
श नमा</w>
सञ्जा ल
जमि नमा</w>
स ट्टा</w>
पूँ जी</w>
खेल् नेछ</w>
पो स्ट
पर मा
गरा ई</w>
सहम तिको</w>
दिला उन</w>
न सम्बन्धी</w>
दा र
र थ
स फाइ
ओ स्</w>
पुर् ण</w>
वा का</w>
भु साल</w>
रे ष्ट
हिन्द ु</w>
छो री
व सन्त</w>
चौ र</w>
अ टो
डे न</w>
बाल क</w>
प्रचार प्रसार</w>
बु वा</w>
मा ला</w>
त् ती
संक टमा</w>
समझ दा
मिर्गौ ला</w>
कालो पत्र</w>
तराई का</w>
नि का</w>
न्द ै</w>
व ो
जु मा</w>
भा नु
अभि यन्
साइ बर</w>
भूकम् पले</w>
उत्पाद क</w>
करि व</w>
घर धु
बि न</w>
अ संवैधानिक</w>
जी वी</w>
खे तमा</w>
क हरूको</w>
तह बाट</w>
घ रका</w>
राज मार्गमा</w>
दल हरूले</w>
गुरु ङको</w>
चिकित्सक ले</w>
रा ना
नेता हरूको</w>
बै ङ्क</w>
लो स
छा ड्
गर्ने गरी</w>
कार्यकर् ताले</w>
भ्या क्सि
प ीको</w>
प्रति फल</w>
खति वडा</w>
मा र</w>
छो ड्
पौडे ललाई</w>
आ कार</w>
दा ङमा</w>
डे ब्य
नगर े</w>
लि नु</w>
सम्मेल नको</w>
टि का</w>
महर् जनले</w>
कि र्
कुरा ले</w>
टा वर</w>
सचि वको</w>
न होस्</w>
गी ता</w>
मुग् लिङ</w>
धनुष ा</w>
समस्या का</w>
खा नी</w>
फ् ट</w>
का न</w>
खो ज</w>
वैशा ख
वे स्ट</w>
निरा श</w>
सि या</w>
क हरुको</w>
अन्त तः</w>
तपाई ले</w>
त ु</w>
माइ क्रो
जोडि न</w>
शिला न्यास</w>
अ लै
विद ्या</w>
श्वर स्थित</w>
ले श्वर</w>
पस लमा</w>
नजि कैको</w>
सुन्द र
खर् चको</w>
सि न</w>
प्रतिश तमा</w>
दोस ्रो
य ी
चा हे
चा पा
प तको</w>
बाह ्र
जो र्
ख त्री</w>
अवस्था लाई</w>
कि ने</w>
बस् दैछ</w>
एमाले मा</w>
ल ड्ने</w>
फाइना न्स</w>
जाजर कोट</w>
निष् कर्षमा</w>
पहा ड</w>
सिरि ज</w>
० ८</w>
को टका</w>
ज्ञा पन
एन् फा
समस्या लाई</w>
सुरक्ष ामा</w>
रु चि</w>
व्यापा रमा</w>
सा स्ती</w>
टे पछि</w>
से टमा</w>
उन् ड</w>
मे लामा</w>
जा ने
स्त रका</w>
लक्ष् मण</w>
अनु शा
स ै</w>
ब ीले</w>
निर्ण यको</w>
वा ङ</w>
इन् डो
सिंग ो</w>
दृ श्य
छुट्टा छुट्टै</w>
का त्ति
गर्नु होला</w>
पुँजी गत</w>
चि सो
ज ेको</w>
भि र</w>
नि शा
य ती</w>
सु क्
द्वन्द् व
उपभो ग्य</w>
हुँदा हुँदै</w>
अ नेक
त ब</w>
जन संख्या
भ ते
उप स्थितिमा</w>
निका स</w>
चो कको</w>
दिइ रहेको</w>
कम्प्यु टर</w>
चै त्र</w>
आ दान
रु स</w>
भन् नुहुन्छ</w>
बढ ्यो</w>
डभा ड</w>
अध्यय नले</w>
द्र ु
खाने कुरा</w>
समा नता</w>
सबै मा</w>
आ एकाले</w>
संरक्ष णमा</w>
वार्ष ि
नेपाल कै</w>
ज् ज
लि स</w>
कार्य का</w>
महा शाखा</w>
न ँ</w>
पाइ प</w>
बो ट</w>
काली गण्डकी</w>
आसपा सका</w>
साप कोटा
खो ला
दे वी
गर्नु हुन्छ</w>
पुस्त का
नि ज
दा ँ
व्यवस्था मा</w>
गौ री
२०६ ४</w>
का ठ</w>
द् धिक</w>
माथि का</w>
कार ण
प्रधाना ध्यापक</w>
हुनु का</w>
पक्ष बाट</w>
प्रस्तु ति</w>
सा ग</w>
ज्ञवा ली</w>
चि ना
केन्द्र िय</w>
ग् ला
मिहि ने
बि ति
अधि क</w>
स्क ू
दस्ता वे
समय पछि</w>
बुझा एका</w>
फो नमा</w>
बाँ स्
बाँ दर</w>
ब डा
बि भिन्न</w>
अनु भव
का ङ्ग्र
सो चे
गरि दिएको</w>
हुनु को</w>
कै दी
ज गत
सा प्ता
सरो ज</w>
संगठ ित</w>
प न्त</w>
महतो ले</w>
सिंहदर बारमा</w>
आइ सकेको</w>
कम् प्ले
झ ण्डा</w>
वर् गी
कार् कीको</w>
ँ दैछ</w>
दृष्टिको ण</w>
चला यमान</w>
न सकेका</w>
च ल</w>
मज बु
पु रि
ध र
याद वलाई</w>
ल म्प
चु क्ता</w>
सोध ्
बा र्
ब टु
टर बाट</w>
मैत्री पूर्ण</w>
चा ड</w>
राजनी तिको</w>
रा सायनिक</w>
पूर्णि माका</w>
चितव नका</w>
हाउ स</w>
विश्व स
ह मा</w>
म्या न
प स्
त्रि वे
टे क</w>
सहभाग ी
सु म
ब्या टि
राजमार्ग अन्तर्गत</w>
म ला
टर मार्फत</w>
उन् मुख</w>
ट्रे ड</w>
मिला इएको</w>
रे बि
बो नस</w>
डट कम</w>
टि मको</w>
विप द्
स् टमा</w>
भक्त पुरको</w>
वस्तु मा</w>
रुपैयाँ सम्म</w>
थ् र्यो</w>
सचिवालय का</w>
ऐ नमा</w>
विराटनगर मा</w>
सत् ताको</w>
म का
शि वा
अन्त्य मा</w>
प्रजि अ</w>
भ न्छ</w>
सकि यो</w>
स्थानीयवास ीले</w>
रुप ले</w>
जे लमा</w>
हा रको</w>
मा रमा</w>
सम् झा
बन्द र
बो क्ने</w>
डि फे
स्व र</w>
वातावरण मन्त्री</w>
दै लेख
सभा पतिमा</w>
प्र मो
जाव ला
म द
पुरस् कृत</w>
क्वारेन् टि
स रा
छि न</w>
ग ं
डो नाल्ड</w>
एक तालाई</w>
स्थाप ना
बाक् लो</w>
फु टा
चे त
अ मा
पाइ ल
त् ता
१ १०
चलचित्र को</w>
जन मोर्चा
मे स्
पहिरो को</w>
संगठ नले</w>
मिल् छ</w>
फ्रे न्
ं दा</w>
विश्व स्त</w>
देखा उँदै</w>
संखुवा सभा</w>
चार वटा</w>
ज बर्
पु त
सा विक</w>
उ त्र
क्षेत्र ी</w>
के भी</w>
गर् न
क्य ौ
स्था ना
द म्प
त्य हीँ</w>
काँग्रेस ले</w>
मकवान पुर</w>
बा घ</w>
५ ०३</w>
पठनपाठ न</w>
९ ७७</w>
पला ञ्
लो को</w>
आत ंक
समाजवाद ीले</w>
बा ला
बर्दि या</w>
कार खाना</w>
अग् लो</w>
नजि कि
विजे ताले</w>
गरा उनु</w>
समे टि
शु भार
अपाङ्ग ता</w>
जा नेछ</w>
व्र त</w>
ति ष्
पो षण</w>
बाध्य तामा</w>
निर् मला</w>
क रबाट</w>
रेष्ट ु
नु भन्दा</w>
स ता
भनि ने</w>
अने रास्व
राणा ले</w>
अ न्दा
त्रा स</w>
ठ ग
गरे काे</w>
हजार ौं</w>
खर् चि
आया तमा</w>
फे री</w>
दिइ रहेका</w>
सद न</w>
एमाले लाई</w>
सि नेमा</w>
सु पर
मन्त्र ीलाई</w>
सेवा लाई</w>
सर् ने</w>
गु णा</w>
के टा
गर् नसक्ने</w>
ज नी</w>
फर् किएको</w>
दि शा</w>
अर् घा
क्या म
ड ीका</w>
मा नेर</w>
स्था नका</w>
सि नियर</w>
चु रे</w>
वि न्दु</w>
२०७ १</w>
स् र्
ने शनल</w>
कार्य तालिका</w>
बि रा
डिल् ली
राष्ट्र का</w>
उनी सँग</w>
सं कट
खे त
ध ू
प्रधानमन्त्र ीका</w>
दि ई</w>
जि न्द
ग ई</w>
पो ष्ट</w>
पहिरो मा</w>
खत्र ीले</w>
श्री म
भारत लाई</w>
बढे सँगै</w>
महोत्स वमा</w>
उप र</w>
ति य</w>
जे ठमा</w>
उत् साह
सिलसि लामा</w>
प्रकृ तिको</w>
अव धारण
पूर्ण रुपमा</w>
बन्द ा</w>
फ ेर</w>
इन् दिरा</w>
ती ज</w>
पे न्द्र
टि भी</w>
ड् स</w>
भण्डा रण</w>
आइ पुगेको</w>
सा रिएको</w>
शहर मा</w>
ता पनि</w>
स् क्रि
कालि का</w>
निका सी</w>
टुंग ्या
कार्यालय लाई</w>
बेलाय तमा</w>
हजु र
प तिका</w>
पु र्जा</w>
रोकि एका</w>
सा ई
कृषि मा</w>
सिंह को</w>
महि लाका</w>
प्रमाण ीकरण</w>
कर् जाको</w>
प् लि
द य</w>
न प
गर्नु होस्</w>
श् र</w>
ए ला</w>
व्यवस्था लाई</w>
रो को</w>
भते रीमा</w>
प्रि य
वायु सेवा</w>
गो ष्ठ
डाँ डा
ग ङ्गा</w>
मान्छे ले</w>
प्रया समा</w>
हा त
मि लियन</w>
भि ड</w>
पि यन</w>
अभिया नका</w>
मञ् च</w>
सब भन्दा</w>
डल रको</w>
रा न</w>
कम ला</w>
अनेरास्व वि
प्रक्षे पण</w>
विवा दित</w>
इमा न्दा
औष धी</w>
विस्ता रका</w>
न लाग्ने</w>
कटा न</w>
म्या न</w>
विगत को</w>
वर् गको</w>
डिसे म्बर</w>
हेल् थ</w>
ठ ित</w>
सा उनमा</w>
सोलु खु
बि ग्रि
न् छौँ</w>
राख् दा</w>
अपरा ध
ं का</w>
मृत कको</w>
गर् नको</w>
गरि ँदै</w>
धु निक</w>
जो ख
ब्रा न्ड</w>
देखि एकाले</w>
ठ ी
वा ई
शी लता</w>
र हरू</w>
शृ ंख
माओवाद ी
नी लक
उम्मेदवा रलाई</w>
शिवि रमा</w>
हाल तमा</w>
नि य</w>
हा लेर</w>
र हरु</w>
टेलि फोन</w>
जवा फमा</w>
निम् तो</w>
सामा ग्री</w>
यस बाहेक</w>
धेरै को</w>
जथा भावी</w>
तथ्या ंक
कि यो</w>
द ण्ड</w>
म न्त
लि ँदा</w>
तथ ा
अभिया नलाई</w>
ना काबाट</w>
सक् दैनन्</w>
बाहि रिएको</w>
सर्वसाधारण लाई</w>
जा नुपर्छ</w>
आठ ौं</w>
देख् दा</w>
भेट ेर</w>
युवा को</w>
एम सि
मा झ</w>
चि तु
सुरुवा ती</w>
व रण</w>
रि क
फेसबु कमा</w>
बु ढा</w>
स्व तः</w>
शं कास्पद</w>
ट म</w>
ता जा</w>
घर दै
श कुमार</w>
अघि देखि</w>
० २</w>
बृ द्धि</w>
देउ खु
सर्ला ही</w>
यथा र्थ</w>
प्रतिब द्ध
फ ी
जु ट</w>
व्यापा री
विस्ता रको</w>
सङ् क
लाई न</w>
आशि स</w>
छा डेको</w>
सम सामयिक</w>
आफू हरूले</w>
घटा उन</w>
अ परि
प बाट</w>
सा उन
सिस्ट म</w>
गा इ
बद्री प्रसाद</w>
सद् भाव</w>
प्रयोग शालामा</w>
राज मार्गको</w>
निका ल्
ते ह्र
उपा धि
भित्र मा</w>
छनो टमा</w>
सहयोग का</w>
अर्थतन्त्र लाई</w>
दृष्टि ले</w>
क टु
चा रिक</w>
बे रु
तोड फो
झग डा</w>
बि त्
कोष का</w>
रो य
जन वरी</w>
कि मी</w>
परिषद् का</w>
खु ल्ने</w>
छे उमा</w>
ल हर</w>
संस्कृ ति
सप्त री</w>
कहिलेका हीँ</w>
अत्या धुनिक</w>
फागु नमा</w>
अमेरि काका</w>
चे स्टर</w>
प्रदाय क</w>
जु लु
दिला ए</w>
वी रेन्द्र</w>
बा यो
व्या स</w>
बिहा नैदेखि</w>
दर् श</w>
उमे श</w>
न वि
बौ द्धिक</w>
महोत्त री</w>
र् दै</w>
खु द</w>
गृह कार्य</w>
समु न्न
हल् कादेखि</w>
मौसम ी</w>
तनहुँ मा</w>
प्रवृ त्ति
मि त्र</w>
बुझ ेर</w>
गि रि
हँ ु
डे पछि</w>
देखा उँछ</w>
थ ्य
अर्घा खाँ
जु लाई</w>
टि ममा</w>
वरि परि</w>
दो श्रो</w>
आफू हरू</w>
सिद्धा र्थ</w>
सर ह</w>
रो ह</w>
अनु भ
प्र ता
सूच ना
दश रथ</w>
बाख ्रा</w>
खा जा</w>
ना ग
मि श्र</w>
र सँग</w>
ए भरे
पर् छन्</w>
कार्य दलले</w>
मा मि
नव नियुक्त</w>
रा ति
य म
२० ५०३</w>
११० ८०</w>
४८ ११०८०</w>
जन रल</w>
सक् नु</w>
थ्र ी</w>
द लाई</w>
त्रि वि
नि भा
स्तो मा</w>
रुपि याँ
थ न्
प्रश् न
चाल कको</w>
सचे तना</w>
ना यक</w>
रे स्टु
अस्पता लबाट</w>
राज ेन्द्र
श्रीलं का</w>
दल हरू</w>
अभिया न
एक् का
रो शन</w>
साम ्रा
ब न</w>
ढु क्क</w>
टु ङ्गो</w>
ठे गा
अंग्रे जी</w>
अप्रि ल</w>
प्ल स</w>
न न्द</w>
मान्छ ेको</w>
स् क</w>
जुम् ला</w>
रो का
से यर
न सकि
वास ीको</w>
बना उँछ</w>
प ित</w>
हावा हु
प्ला न्ट</w>
गैर कानुनी</w>
परिषद् ले</w>
सम् मकै</w>
श्री मत
मिला उने</w>
तर्फ का</w>
हो स</w>
सम्झौ ताको</w>
आ षा
शही द</w>
शर् त</w>
स् मा
चै तमा</w>
एन आई
नि त</w>
जु त्ता</w>
राज्य मा</w>
डाक् टर
खा का</w>
शी घ्र</w>
स्थल मै</w>
ग जु
ङ्ग े</w>
वा रि
त्त म</w>
हटा एर</w>
सा गर
भै ँ
कारागा रमा</w>
मौसम मा</w>
र फ्
गै ं
गुमा उँदै</w>
फैस लाको</w>
अ विश्वासको</w>
पर् दो</w>
दि प</w>
सर्वसाधारण को</w>
म णि
गर् दा
मा न्न</w>
युनि भर्
कार्य सूची</w>
चिकित्सक को</w>
२०६ ३</w>
ती र्ण</w>
ता ना
मु टु</w>
दल हरुले</w>
ष ा</w>
खरि दमा</w>
छो राको</w>
वं श
पा नीले</w>
नी बाट</w>
भ्रष्टा चा
वृद्धि दर</w>
ष ड्य
शाह को</w>
राश ि</w>
किन बे
जे ल
सुधा रको</w>
दिला एका</w>
मन्त्रालय बाट</w>
आ ग्रह
स्व भाविक</w>
नगर े
अघि सम्म</w>
सम्झ ना</w>
चार् य</w>
आन्दोल न
ह ीलाई</w>
राम प्रसाद</w>
मृत्यु को</w>
उद्ध ृत</w>
मान सि
स्वामि त्व</w>
घा म</w>
खरिद दर</w>
उ नुपर्नेमा</w>
र् सा
प्रति रो
अब् दु
समृद्धि का</w>
गौर वको</w>
उँ दो</w>
गु ट
खा नले</w>
यु ग
जान कारी
न स्थित</w>
पर् यो</w>
महानगर का</w>
ल ड्न</w>
महा न्यायाधि
व सन्त
सो धि
हे ड
ने ट</w>
बृह त्</w>
बस् दा</w>
ङ्ग े
मस् तिष्
तनहुँ को</w>
प्र वासी</w>
मानव अधिकार</w>
सांसद लाई</w>
स्टे डि
पु री</w>
नजि कको</w>
बरा ल</w>
चाल कलाई</w>
विमानस्थ लबाट</w>
आषा ढ</w>
टो लमा</w>
आ दर्श</w>
व क्
विश्व कपको</w>
गरि दिन</w>
उठ ेका</w>
० ५</w>
युनाइ टेड</w>
गठबन्ध नबाट</w>
र न
आका श</w>
कुखु रा</w>
काभ्रे पलाञ्
पहुँ च
१ ३
राजदू तावा
त त्व</w>
कार क</w>
कार्यक्रम ले</w>
शेर् पाले</w>
सा फ</w>
अन्तर क्रिया</w>
बू ढा
तत्का लका</w>
च ेको</w>
छै नौं</w>
स्थ लको</w>
दा उ
उप कुलपति</w>
गावि स</w>
य रले</w>
गु राँ
उद्य मी</w>
अध्यय नमा</w>
अ राज
पोख रीमा</w>
सुनसर ीको</w>
ख ो</w>
पछ िका</w>
राज वि
शरी रको</w>
हा त्त
सभामुख ले</w>
फिल् म
को टे
संरच नामा</w>
विवे क
नसक् नु</w>
अनु शासन</w>
प्रति कूल</w>
मंसि रमा</w>
च्याम्पियनसि पमा</w>
रवी न्द्र</w>
योग्य ता</w>
दिन मै</w>
सम् मि
राप्र पाका</w>
एशि या</w>
हिमा लय</w>
थि न्</w>
टा ले</w>
रण ीय</w>
अ वार्
इन्स्यो रेन्स</w>
रु सले</w>
मु र्
तिम ्रो</w>
पार स</w>
नपा उँदा</w>
मना इने</w>
परे काले</w>
ट् दै</w>
अवका श</w>
झड प</w>
सा न्
ता ला
पुनः निर्माण</w>
स्ना तक</w>
क्लब का</w>
रोपाइ ँ</w>
उप सचिव</w>
ै को</w>
स् ट्या
वि न्दुमा</w>
कक्ष ा
न्यु जि
सगर माथा
बेच बि
ति नको</w>
भोग ेका</w>
सं कल
तिर् नुपर्ने</w>
फुट बलमा</w>
विश्वकर् मा</w>
सूच नामा</w>
सम्व न्
स ्र
क्याम्प समा</w>
संविधान सभा</w>
आफ ैले</w>
ब्या ट्
उनी माथि</w>
त्यस माथि</w>
ता लको</w>
दुख ्ने</w>
सि भि
शु द्ध
एसि यन</w>
अवि रल</w>
बी च
शुभार म्भ</w>
उठ ्ने</w>
ने तृ</w>
प्रि न्
हङक ङ</w>
भदौ मा</w>
कर्णा लीमा</w>
बाँ ध</w>
बा बा</w>
भर् चुअल</w>
निका ल्दै</w>
इ नि
मानि समा</w>
परि योजनाको</w>
महसु ल</w>
लगानी का</w>
सा र्ने</w>
सिन्धुपाल् चोक</w>
घटना स्थलमा</w>
तर् जुमा</w>
कुँ वरले</w>
सहकार ीको</w>
व्यक्ति का</w>
म्या नमा
सांसद हरूले</w>
पूँ जी
केन्द्र लाई</w>
आज सम्म</w>
प्ले ट
इ सकेका</w>
ले न
सी ता
दिन भर</w>
ब्र ह्
शे ख</w>
ओ भरको</w>
अस्ति त्व</w>
सन्तु लन</w>
इ मान
शे ष</w>
ऋष ि
मुख ्या
मुस् किल</w>
स्थाप नाका</w>
ते जा
फाउ ण्ड
खे लका</w>
तस्वी र</w>
मा या
ठु ला</w>
साहित्य कार</w>
गौत म
गो पन
फाउ न्ड
समा पन</w>
ट रका</w>
पुर्या उन</w>
यस पछि</w>
लेख न</w>
राउ त</w>
मिश्र ले</w>
जन जीवन</w>
नृ त्य</w>
सा तै</w>
फा ई
आमा लाई</w>
घटा उने</w>
घन् टा</w>
ओली सँग</w>
लिमिटे डको</w>
भ्रष्टा चार
प्रमुख ले</w>
त्रै मा
जित सँगै</w>
दैन ौं</w>
जा पानी</w>
र् ट
मि ता</w>
प्रणा लीलाई</w>
फर् किन</w>
नुवा कोट</w>
समे तको</w>
अवि जित</w>
मि ल
धादि ङ</w>
परिया र</w>
माग् न</w>
च रा</w>
आफ ु</w>
ए लि
बो ध</w>
प्रश् नमा</w>
बी पी</w>
म ो</w>
अगा वै</w>
फ् लो
घ रा
बढ् दा</w>
बलिउ ड</w>
दि क्
आक्रो श</w>
च रा
पाल् पा</w>
उचाइ मा</w>
प ह
निषेधा ज्ञा
र सहित</w>
न् मुख</w>
य ज्ञ
क्षम ता
हाइड्रो पावर</w>
वि द्
बढा एका</w>
फु र्
म द</w>
जस पाका</w>
एएफ सी</w>
प्रभाव शाली</w>
मातह तका</w>
परिणा म
सोध पु
तातो पानी</w>
देव राज</w>
न देखिएको</w>
गाउँपालि कालाई</w>
प्रदू षण</w>
बुझ ेको</w>
हा रिक</w>
सम्भा व्य
अक्टो बर</w>
ए कोले</w>
घाँ स</w>
वै चारिक</w>
सम्मि लित</w>
उत्तर दायी</w>
साप्ता हिक</w>
विधेय क
खबर सँग</w>
वि कृति</w>
मा सु
पन् छा
ओ म
काम ले</w>
अन्तर राष्ट्रिय</w>
भर पर्दो</w>
सि कार</w>
जि प</w>
मुम्ब ई</w>
श्या म
रोनाल् डो
खुकु लो</w>
अति थि</w>
म्या च</w>
ह नु
उपयोग ी</w>
इ का</w>
नै पर्छ</w>
ठाउँ को</w>
आ राध
लगा ई</w>
त ल्
विरू द्ध</w>
अघ िल्
नगर को</w>
अग्र सर</w>
न क
बे च्
भा षण</w>
अ विश्वास</w>
को त्स
अग् नि
अर्को तिर</w>
अधिकृ त
छा त्रा
बि ना
माइ ती
रौतह ट</w>
उ जा
न त्र</w>
इट हर
प्रेरण ा</w>
हा वा</w>
ल् हो
ह मला</w>
बगा एको</w>
राज नैतिक</w>
राउ तले</w>
खे त</w>
भ्रष्टा चारको</w>
समर्थ नमा</w>
बलि ङ</w>
सर् जन</w>
कु ल्
एसो सि
ट्र म्प</w>
नु ले</w>
ना री</w>
यसपा लि</w>
सै नि
रहे का
न सहित</w>
ब क्यौ
उत् तीर्ण</w>
विनि मय</w>
हिँ ड्ने</w>
पाँच थर</w>
अर् कै</w>
जी वि
कार्य विधि
भर त</w>
फेब्रुअ री</w>
ता त्
े ँ</w>
दैन ौँ</w>
का ट्ने</w>
प्रतिष्ठा नले</w>
राखि ने</w>
आन न्द
सि ग्
ढा का</w>
डडेल् धु
लाइ नको</w>
प्रतिष्ठा नमा</w>
कि नेर</w>
बे च्ने</w>
लम्प िक</w>
रु ण</w>
बंगला देश
उँ छु</w>
स् त्री</w>
फुटपा थ</w>
मान्छे लाई</w>
लाख ौं</w>
पत्रि काले</w>
भ रो
देखा एका</w>
साँ घु
बैत डी</w>
कमा एको</w>
अर् काको</w>
ए को
रहे काे</w>
विचा रा
जान कार</w>
श्व रमा</w>
सु हा
को टी</w>
की र्
सभामुख को</w>
च हल
चन्द ले</w>
आ परा
घण्टा को</w>
चा प
बस् नु</w>
चा सो
दै मा</w>
जु टेको</w>
इला मको</w>
ड्रा इ
भग वान</w>
अवस्था का</w>
ढो र
अधिवेश नमा</w>
पि का</w>
सि यल</w>
सदस्य हरु</w>
बैठक पछि</w>
क हाँ
० ००</w>
पा ई
भे गमा</w>
विश्वविद्यालय ले</w>
एकै पटक</w>
शा सक
ज फत</w>
आयोग लाई</w>
प्रदेश बाट</w>
तु ला
मुख मा</w>
ङ सहित</w>
न्या यको</w>
ओ लम्पिक</w>
सचिवालय मा</w>
सम् भव
विस्फो ट</w>
म त्
मारि एका</w>
ध ्र</w>
फा ल्
महा भि
रि टमा</w>
मि का</w>
तपा ई</w>
ज् वा
२०६ ८</w>
वृद् धा
चि ह्न</w>
प हे
अलि कति</w>
सब ल</w>
बि न्दु</w>
सि या
बन् नु</w>
छात्रवृ त्ति</w>
सके की</w>
ड रले</w>
पु टि
मा उ
प्राव धान
का टेर</w>
बा सी</w>
सक् नुपर्ने</w>
कि स्ता</w>
टा का</w>
अपहर ण</w>
तरि का</w>
ब समा</w>
प्रसा ई
बरा लले</w>
स्थान हरूमा</w>
जन लाई</w>
विधा मा</w>
ऋ णको</w>
देश ीय</w>
बाँ केका</w>
टि कल</w>
त्यस यता</w>
उ र्जा</w>
उप स्थि
बाँ केको</w>
सर्वोच् चको</w>
सचेत कमा</w>
दु र
बु क</w>
तपाईं लाई</w>
अ चम्
संक्रम णका</w>
उ सका</w>
ते लको</w>
घ ट्ने</w>
लगानीकर् ता</w>
स्क ट
चन्द्र ा
सं स्थापन</w>
घे रा
डे ंग
नि धि
बस पार्क</w>
२०० ७</w>
गठबन्ध न
कांग्रेस बाट</w>
च्या न
सवा लमा</w>
घिसि ङले</w>
कि न्
वि न
हेर फेर</w>
सेप्टे म्बर</w>
आपरा धिक</w>
विधि बाट</w>
उद्योग लाई</w>
सावधा नी</w>
कस लाई</w>
ण पछि</w>
मत पत्र</w>
बे च्न</w>
जे ने
अनुमति पत्र</w>
भा ज
पुन राव
वा गढी</w>
गोर् खा</w>
मि र</w>
सुकु म्बा
इ जा
बि घा</w>
स यौं</w>
ना ति
सञ्चार कर्म
ब्याट् सम्या
छ र्
ट्या क्
भगवा न्</w>
सफ् ट
बेलु की</w>
ग्राह कलाई</w>
सेव क</w>
नगर का</w>
कार ीको</w>
नबि ल</w>
प्रकृ तिका</w>
जबर् जस्ती</w>
क ने
ति नका</w>
राप्र पाले</w>
परामर् श
डे री</w>
कृ ति
पर्खा ल</w>
यात्रु को</w>
पोख राका</w>
श्रमि कको</w>
मह न्थ</w>
बुझ िएको</w>
समाज वाद</w>
शु द्ध</w>
आफू सँग</w>
बना इने</w>
आंशि कदेखि</w>
मह शु
बहा व</w>
सेना पति</w>
जी त</w>
पन् ध्र</w>
अत्या धिक</w>
ढ ल्
पा लामा</w>
भाष ाको</w>
भट्टराई को</w>
यात्र ी</w>
का टि
हिसा ब</w>
भव ्य</w>
सं सारमा</w>
हेटौँ डा</w>
रुपा न्तरण</w>
च तु
ओ सार
बु ल</w>
राज पा</w>
व्यक्ति मा</w>
गोल् ड
देउखु री</w>
बज ेका</w>
आधु नि
उप मेयर</w>
प्रो जे
उठा उँदै</w>
किनबे च</w>
व किल</w>
देश ै
एसो सिए
ऋष ि</w>
बालि कालाई</w>
ग ग
फ ले</w>
इन्टरने सनल</w>
सङ्क्रम णको</w>
पाकिस्ता नी</w>
गु ण</w>
पर्यट कले</w>
अवधि को</w>
फर् केका</w>
गाँ जा</w>
भि ड
प्रति दिन</w>
फौ ज
नि गम</w>
प्रतिष्ठा नको</w>
घट नाले</w>
ठ ्
आश् चर्
अ सार
क रले</w>
फ्रा न्स</w>
चाह े</w>
जा तको</w>
ओ र्
गा न्
एजे ण्डा</w>
सा र्थ
उनी हरूका</w>
खुला सा</w>
अगु वा</w>
स्थान हरुमा</w>
ई न</w>
भइ सक्यो</w>
खु म्
बाहि रका</w>
बहि ष्
कठिना इ</w>
यि नै</w>
ता तो</w>
गु ठी</w>
पा लाई</w>
क्षेत्र ीले</w>
० ७</w>
वर् ण
पु टी</w>
सद ै
चाह न्छन्</w>
सीमा मा</w>
न आउने</w>
लि पु
यो जनाले</w>
उद्देश्य का</w>
नेपाल सँग</w>
० ९</w>
कि न्ने</w>
प्रयोग शा
विद्रो ह</w>
जो डे</w>
अर् जुन
वाद ी
देव कोटा
कुँ वर</w>
ञ्ज ली</w>
मि क
अ ज्ञा
अध्यक्ष ले</w>
खोज् दै</w>
नागरि कका</w>
गरे नन्</w>
विशेष ता</w>
ग्र ी
द या
लक्ष्य मा</w>
ख र
लि नका</w>
तेह्र थु
क्र ा</w>
को र्
नि याँ</w>
आइ पुगेका</w>
उप करण
त ला
गे ट</w>
जवा न</w>
झ र
त्र ो</w>
आदान प्रदान</w>
जु द</w>
आफन्त ले</w>
न न</w>
चौ पा
विवे क</w>
ज्ञाने न्द्र
अ सहज</w>
खर् चमा</w>
पो ल</w>
बिराम ी
था रू</w>
जु टेका</w>
पाँच थ
स्टि क</w>
न ह
उ ही</w>
फो क्
बजा री
ौं देखि</w>
एजेन् डा</w>
बि पी</w>
डेभल प
य ममा</w>
आ देशमा</w>
हा रेर</w>
रहे कामा</w>
े श्वर</w>
चरि त्र
हृद य
भित्रि एको</w>
बसे की</w>
भा न</w>
भूमि गत</w>
भित्र्या उने</w>
घा तक</w>
पा यो</w>
वातावरण मा</w>
ताप्लेजु ङ</w>
सि जनमा</w>
वडा को</w>
व धि</w>
म झ
म्या रा
दल हरु</w>
गौ शाला</w>
मजबु त</w>
ज ि</w>
मेगावा टको</w>
सो साइ
मेह नत</w>
साता देखि</w>
नि मा</w>
कमा उने</w>
गृह मा</w>
अघ िका</w>
वीरगन् ज</w>
कुरा हरु</w>
च्छे द</w>
थ लो</w>
हेलिकप् टर</w>
सेमि फाइनल</w>
यथा र्थ
खा न
दु बै
घटना लाई</w>
ठ कु
वीर गञ्
रूपै याँ
बेल् जि
पीडि तले</w>
तालि काको</w>
भ ड्
भई रहेको</w>
पा एर</w>
क ड
बक्यौ ता</w>
पि न</w>
युवा ले</w>
पर् वमा</w>
अभि लेख</w>
थि त</w>
टि मका</w>
सक् नेछ</w>
खा एको</w>
आस न्न</w>
डे पुटी</w>
ना हरु</w>
सक् नुपर्छ</w>
असो जमा</w>
उन् न
ता लमा</w>
संसद बाट</w>
ते ज
० ६</w>
घा ट
नु होला</w>
ध्व स्त</w>
जा तिको</w>
ज्ञा पन</w>
बो केका</w>
बो लको</w>
त ेर</w>
सुरु ङ
लेख ्ने</w>
विद्यालय लाई</w>
चै त
न जाने</w>
ने पछि</w>
स पथ</w>
भे द
लेख ्न</w>
राजधा नीको</w>
बो हरा</w>
स्वास्थ्य को</w>
ज हि
वर्ष यता</w>
नेप् से
दे वेन्द्र</w>
हि त
प द्
आ गमन</w>
क्वारेन् टाइन</w>
गरि नुपर्ने</w>
न्ड मा</w>
लि याले</w>
मण्ड लले</w>
पराजु लीले</w>
भए कामा</w>
हो मि
र ङ</w>
गाँ उ
आइ पुग्दा</w>
सर् त</w>
कि टा
उपभो क्ता
से नामा</w>
जा य
टे न</w>
रो गी</w>
रु वा
लगा उनु</w>
क्र मा</w>
उज्या लो</w>
रह ा</w>
अभाव का</w>
च ले</w>
नौ लो</w>
एका एक</w>
अहि लेका</w>
नेपाली हरुलाई</w>
र बहादुर</w>
ट री</w>
क्र ो</w>
भन् नुभएको</w>
पेनाल् टी</w>
ब्र ेक</w>
लि ग
सेल् सि
पृथ् व
क्वि न्टल</w>
ले खे
चौध रीलाई</w>
ख्य क</w>
अं ग</w>
मध्य े
फुट बलको</w>
भक्त पुरका</w>
समुन्न त</w>
बहादु रसिंह</w>
ओ ले</w>
दोहो रि
स् टाइ
रो का</w>
डे ङ्ग
दी पेन्द्र</w>
खोज ेका</w>
नु हा
नेता का</w>
प्र लोभ
प्राप् ति</w>
साइ ड</w>
खो लेर</w>
न् ह</w>
व ली</w>
सुनिश्चित ता</w>
ङ टार</w>
हैसि यत</w>
हु न्थे</w>
बजे टले</w>
ँ लाई</w>
दुई जना</w>
दुवै को</w>
ौं को</w>
देव कोटाले</w>
अन्य था</w>
उत्खन न</w>
सि टमा</w>
युनि ट</w>
र देखि</w>
इन्डो ने
प्रतियोगि ता
सन् धि</w>
रू ढ</w>
र् त
बे ग्
ज ंग</w>
खाँ चो</w>
नु मा</w>
चि या
जा तका</w>
संस् करणमा</w>
योग दानको</w>
पवि त्र</w>
प्रक्रि यालाई</w>
खो की</w>
देखि एन</w>
ल्या न्
अ टो</w>
पुग् नेछ</w>
को सिस</w>
जुटा उन</w>
दिल् लीमा</w>
सि द्ध
खानेपा नी
दैन थ्यो</w>
डे मो
यात्रु लाई</w>
श्री लङ्
मा लिक</w>
नोक्सा नी</w>
सङ्घ र्ष</w>
सर्वसाधारण ले</w>
शा स्त्र</w>
फर् केर</w>
तो लामा</w>
योग ेश</w>
प्रदेश लाई</w>
निर ं
पु रे
भा ग्य</w>
स्ट े</w>
तथ्यांक अनुसार</w>
सदै व</w>
न हुनु</w>
जनकपुरधा म</w>
युनाइटे डले</w>
कार्यक्रम अन्तर्गत</w>
बना उनुपर्छ</w>
पा बाट</w>
पु समा</w>
स् वे
नव निर्वाचित</w>
कल्या ण
पद्ध ति</w>
चौ ता
मना इ
झो लु
पु च्छ
सत्ता रूढ</w>
जि ते</w>
गर् नै</w>
कार ीले</w>
सिन्धु लीबाट</w>
शिक्ष कको</w>
वार्षि कोत्स
कसु र</w>
ज लेर</w>
पि एको</w>
ध नी
तोडफो ड</w>
नि रु
बे ल</w>
रा रा</w>
बस पार्
ग एकाले</w>
तुलसी पुर</w>
क हरुलाई</w>
गर् दैछन्</w>
दा का</w>
दुवै ले</w>
हद सम्म</w>
झा पामा</w>
न् ज</w>
लामिछाने लाई</w>
से नालाई</w>
श ो</w>
ति रेर</w>
चहल पहल</w>
ल्यान्ड ले</w>
ेर ो</w>
रेमिट्या न्स</w>
देश कै</w>
नि क्षे
कार णबाट</w>
रह नुभएका</w>
थि याे</w>
सकि न्न</w>
अल्प मतमा</w>
जोख बहादुर</w>
नाघ ेको</w>
जो र</w>
निर पे
उ नेको</w>
जन युद्ध</w>
द मक</w>
औचि त्य</w>
सु रू
ता ला</w>
पुगि सकेको</w>
पछ ि
ल्या उँदा</w>
मी न</w>
म हरा</w>
ब्यु रो</w>
निस्क ने</w>
हजार ौँ</w>
रिजा ल</w>
अदाल त
निर्ण यलाई</w>
भग वती</w>
मुद्रा को</w>
१९ ९९</w>
शि ल</w>
ब लर</w>
सर्व दलीय</w>
भेन्टिले टर</w>
ल् ट</w>
ए प्प
जा त्र
आलो च
पौडे ल
गो ठ</w>
श्रीलं काको</w>
जस अनुसार</w>
बाहिरि ने</w>
सुनुवा ई</w>
प् ले</w>
संस् कृत</w>
निर् म
डो जर</w>
० ७४</w>
ल्या उनुपर्ने</w>
शा र
क ष्ट
रक्ष क</w>
अनु दानमा</w>
ओसार प
सु लभ</w>
अन लाईन</w>
लगानीकर् ता
रा तो
जम्कट् टेलले</w>
पाकिस्ता नको</w>
सूर् यो
बजा रबाट</w>
पा समा</w>
ले न्द्र
पुगे की</w>
जा न्
कोरि याले</w>
शाखा ले</w>
जवाफ दे
भर् न</w>
योजना का</w>
पाठ्य क्रम</w>
ं गु
प्रति बन्ध
यो जनालाई</w>
सबै का</w>
स्थाना न्तरण</w>
न ताको</w>
कञ्चन पुरको</w>
ति र्ने</w>
वाम पन्थी</w>
प तन</w>
बन् नेछ</w>
ठक् करबाट</w>
त्यस तर्फ</w>
अवस्था बारे</w>
काग ज</w>
काम हरु</w>
बा स
संरच नाको</w>
चि न
र त्न</w>
क्वारेन्टि नमा</w>
बाइडे नले</w>
प्रकाश शरण</w>
उ ज्
सर्वोच् चमा</w>
सर् ट</w>
डि जेल</w>
ण विक</w>
बनाइ एका</w>
ने ल</w>
यि नी
वक्त व्य
विष्णु प्रसाद</w>
कमि टीका</w>
आफ् नी</w>
हे ल
ला मा
नेक पाले</w>
एम एस</w>
चाहि एको</w>
नु न</w>
निका लिएको</w>
अर्को तर्फ</w>
ल्या उँदै</w>
संघ मा</w>
२० १३</w>
धर् ना</w>
आउ ने
आराध ना</w>
उमे रका</w>
संगठ नका</w>
खु ट्
अर् पण</w>
मन्त्र ीमा</w>
नर् स</w>
न री</w>
निर्ण यले</w>
अ स
वे यर</w>
पुर्या एको</w>
गु न्
हो ली</w>
समाज लाई</w>
बैंकि ङ्ग</w>
न भइ</w>
स त्र</w>
च् चि
काली कोट</w>
नपा एर</w>
ङ ्</w>
पि सा
स्वर् ग
प्रा लि</w>
मुलु कबाट</w>
भनि एका</w>
पे रिस</w>
पुस्त कमा</w>
उपचार पछि</w>
ी माथि</w>
टर् स</w>
सा रा</w>
ना च</w>
झा पाका</w>
इन्जिनिय रिङ</w>
का हरु</w>
लागि रहेको</w>
घ ु</w>
बन्द ीको</w>
बैङ् कले</w>
कार खा
भित्रि ने</w>
सर् किट</w>
भइ सकेपछि</w>
कुवे त</w>
मनि ष</w>
पी पी
ना बाट</w>
सी ई
झन् झ
बैं कबाट</w>
सु न्ने</w>
ते क्वा
अ डा
सात ौं</w>
सञ् चि
धो का</w>
यौ न
ब हरा
बेइ जि
पूर्ण रूपमा</w>
प्रे ममा</w>
सं योजन</w>
व धिक</w>
संघ ीय
माध्य म
वर्षा ले</w>
लु गा</w>
कान्ति पुर</w>
संशो धनको</w>
भए ँ</w>
बेग् लै</w>
सेन् टरमा</w>
एपि एफले</w>
ने सनल</w>
त्त ो</w>
ण िक</w>
अरु लाई</w>
माग् ने</w>
म्ब ु</w>
ँ दो</w>
महि लामा</w>
बालि काको</w>
सा म्
से वी</w>
मोटरसाइक लमा</w>
क हीँ</w>
बढा उँदै</w>
जि ट</w>
खे ले</w>
पानी का</w>
एक जुट</w>
खा को</w>
लाख ौँ</w>
क् वार्
स्था निय</w>
पश्चि ममा</w>
दु ग्
छ ठ</w>
पूर्व अध्यक्ष</w>
दर बार
इच् छुक</w>
करा र</w>
औषधि को</w>
परि कल्पना</w>
जनप्रतिनिधि ले</w>
कमि टीले</w>
अन् सा
नुपर् यो</w>
महा प्रबन्धक</w>
अं श</w>
सिभि ल</w>
रजि ष्ट
लकडा उनका</w>
टेक् नो
मेलमिला प</w>
्य ौँ</w>
रो चक</w>
नोभे म्बर</w>
सम्भाव्य ता</w>
बच्चा को</w>
लाग् थ्यो</w>
न म
दि ल
बासिन्दा ले</w>
उत्पाद नका</w>
बा ले</w>
पहि लेको</w>
सि टि
जी वित</w>
अर् कालाई</w>
का ट्न</w>
गरि योस्</w>
दा ङको</w>
डि ट</w>
मे गा</w>
अनुसन्धान बाट</w>
प्रकाश न
जो डी</w>
उठ ्न</w>
क स्ता</w>
दश ैं</w>
विचारा धीन</w>
पर् दै</w>
मुख्य मन्त्री
पा टी
भि टा
य रका</w>
प्र करण</w>
ङ्ग िक</w>
माथि बाट</w>
कुट नीति</w>
बि का
ओ भर
इ मि
विश्व विद्यालयमा</w>
ल् ड
उल्लेख नीय</w>
सत्र मा</w>
ज्ञापन पत्र</w>
प्रति लिटर</w>
उ ब्
ज्य ू
स कै</w>
प्र सू
खड् काको</w>
स जग</w>
बा हु
अर्थ मा</w>
रह र</w>
बस् नुपर्ने</w>
दी पक
डढे लो</w>
गरा इने</w>
महत् त्व</w>
मिडि या
सा टो</w>
द ीलाई</w>
टा ढा
कम मा</w>
लमजु ङ</w>
चितव नले</w>
ल् टी</w>
सुख ी</w>
हा ल्न</w>
फिल् मले</w>
मु ल</w>
व्याव हारिक</w>
ट्या क्सी</w>
खे लले</w>
घटना स्थलमै</w>
जा डो</w>
उठा एर</w>
गुण स्त
ता ली
बेलाय तको</w>
धुलि खेल</w>
माघ मा</w>
दा इ
इन् भे
अधिकार ीका</w>
परे की</w>
विना यक</w>
चल खेल</w>
प्र र्
से स</w>
ज ू
ए टी
रोग बाट</w>
प ेको</w>
पाँच ौ</w>
२ ५०</w>
बढा इ
बा दल</w>
वर्गी करण</w>
जी प</w>
भने कै</w>
दाय रा</w>
स्ना त
लो प</w>
विषय गत</w>
प्रया स
रक्षा मन्त्री</w>
जंग लमा</w>
हेर् दै</w>
य हि</w>
कँडे लले</w>
उपाध्या यले</w>
भ रिएको</w>
साध नमा</w>
नर् सिङ</w>
बिष यमा</w>
मिडि यामा</w>
त्रिवे णी</w>
बिहि बार</w>
नेता हरुलाई</w>
कार्य पालिका</w>
ज री</w>
अ द्या
आ क्रामक</w>
कु ण्ड</w>
लागू औषध</w>
म्यान चेस्टर</w>
प खा
उठ ेर</w>
हैसिय तमा</w>
युरो पियन</w>
ट् वान्
रण मा</w>
शृ ङ्ख
कोरि याको</w>
दबा बमा</w>
बो क्
नि मन्त्र
मार् क</w>
प थ्र्यो</w>
बढा उनुपर्ने</w>
कमा इ</w>
बता उने</w>
डे न
कांग्रेस मा</w>
अभि युक्त
मे क्सि
तर लता</w>
भित्र्या उन</w>
ब क्स</w>
गठ नका</w>
रूपा न्तरण</w>
निगम का</w>
वन स्प
गरा उनुपर्ने</w>
नाथ को</w>
आ त्ति
बहु मतको</w>
गम्भी र
ची नसँग</w>
समूह बाट</w>
बनि रहेको</w>
मातह त</w>
अन्ति ममा</w>
अष्ट्रे लिया</w>
मा नका</w>
बो लेको</w>
फौज दारी</w>
आफु ले</w>
थि ए
टा उन</w>
बेरु जु</w>
आका श
ए ड
शं कर
लिम्ब ू</w>
बिराम ीले</w>
तुरु न्तै</w>
पा त
बना उने
बजा रका</w>
पालि काका</w>
माग ेका</w>
त्रि पुरे
शि कार</w>
का लिन</w>
म न्द
अन् ध
क्षम तामा</w>
म कि
सा ङ</w>
परि कार</w>
त्रि शू
रो ध
तो क्ने</w>
न् वित</w>
ऊ ँ</w>
जी र्ण</w>
जब कि</w>
जो म
मा रेको</w>
मुस्ता ङ</w>
स ब</w>
मु कु
डब् लु
छैट ौं</w>
पला यन</w>
देव ीको</w>
पं क्ति
घर घरमा</w>
मामि लामा</w>
समस्या ले</w>
रो केको</w>
लाग् नेछ</w>
ह म
डब् ल
बहा नामा</w>
डि या</w>
क्ष ्
निर्वाच नलाई</w>
अधिवेश नको</w>
ए डि
ना मा
मरा सि
तुल नात्मक</w>
पर्यट नको</w>
पस ल
प्या न
सि रहा</w>
े जी</w>
हिमपा तको</w>
आउ नेछ</w>
झ न</w>
हा स्य</w>
भा डा
उनु को</w>
प्रतियोगि ताका</w>
सुझा व
ध ै
ठाकु रले</w>
छै नौँ</w>
आ यर
यस ी</w>
गरे न</w>
एस ई
ब गर
ज डि
छा उप
राज स्व
मृत कका</w>
गरि दिने</w>
अ व्यवस्थित</w>
मेघ गर्जन</w>
अ पु
डे ट</w>
व रमा</w>
त सँग</w>
प्रति भा</w>
भनि ए</w>
ड म्ब
काम बाट</w>
बे ँ
शुक्र बारदेखि</w>
रो मा
निका सा</w>
व्यक्ति त्व</w>
एक् स</w>
समय का</w>
मत गण
छोरा छोरी</w>
बाह क</w>
शब् द
बा द</w>
बा याँ</w>
गि रफ्
इ ङ्
नाइ जे
क्र ु
कार्य वाहक</w>
आ राम</w>
आक्रो शित</w>
कु श</w>
प्रतिवेद नले</w>
कपिल वस्तु</w>
नगरपालि कालाई</w>
पी एस
छा ला</w>
बैठ कलाई</w>
ब रि
क्या मेरा</w>
ङ् ग्य</w>
ल स्थित</w>
डुबा नमा</w>
क रुपमा</w>
सो म</w>
छे उ
ना पी</w>
अ मृत</w>
भ्याक्सि न</w>
हि नामि
सिमा ना</w>
स घन</w>
सा मान
चुहा वट</w>
स यौँ</w>
या एर</w>
निकाय बाट</w>
र क्सी</w>
रा तमा</w>
उप दफा</w>
कार्यकर् ताको</w>
गाउँ मै</w>
जा न्छन्</w>
प्रतिष् पर्
निर्देश ित</w>
लाभा न्वित</w>
राई लाई</w>
जर् मन</w>
म्या न्
जन ही</w>
अभाव ले</w>
कामदा रको</w>
हरा यो</w>
संस्था बाट</w>
सा वित</w>
प्रशा न्त</w>
चिन् ह</w>
काला पानी</w>
जर् स</w>
पूर्वाधा रको</w>
अ श्
चु रो
के सन</w>
असु ल</w>
शा क्य
भु र्
दा समेत</w>
रक्ष ाका</w>
ना मले</w>
जर्म नी</w>
द क</w>
१ ३२</w>
एमाले की</w>
छा ड्न</w>
उभि एर</w>
टि का
पोख रा
बस े</w>
गह ना</w>
कारो वार</w>
छा डि
बोहरा ले</w>
धर् माव
रा त्रि
र स्थित</w>
अपा ंग
स्व स्थ
थ ी
न दार</w>
मध े
पेस ा</w>
वर्ग का</w>
बिर् ता
आप त
प्रालि ले</w>
घा टन</w>
रह न्छन्</w>
शि र</w>
आक्रम णबाट</w>
स्थग न</w>
जन शक्तिको</w>
मनो बल</w>
ट ीलाई</w>
हिंसा त्मक</w>
सा क्ष
एस ए
हा स्य
भ द्र</w>
काल देखि</w>
संक्रमण मुक्त</w>
लामिछा नेको</w>
आफू माथि</w>
त म
से ज</w>
वा सी
र स</w>
सन्तु लित</w>
उपा य
लि या
कारबा हीमा</w>
गठबन्ध नलाई</w>
मर् म</w>
ग े</w>
ब का</w>
बैङ् कको</w>
सकि एन</w>
बढे काले</w>
ए न्ड
अग्र ेजी</w>
धा मा</w>
मुख्यमन्त्र ीले</w>
जे ठ
० ४</w>
मि लाइ
फे ल</w>
लाग् दै</w>
विश्वकर् माले</w>
एकता बद्ध</w>
चुनौती पूर्ण</w>
अधिकार का</w>
ब लका</w>
वा समा</w>
मु गु
सं चालनमा</w>
सदस्य हरू</w>
खो जे
भन्द ा
आ खि
स्टे ट</w>
चिन् ता
सिंहदर बार</w>
क रमा</w>
लि म्पि
यति खेर</w>
म् मे</w>
ल्या उनु</w>
खु ले
नै पर्ने</w>
कारि णी</w>
सिन्धु ली</w>
अ म्बा
इ एका</w>
आ णविक</w>
द ण्ड
इ लाम
मार् के
क रूपमा</w>
मतदा न
श् मा</w>
दु खा
धा न्न</w>
पै दल
गतिविधि मा</w>
पुग ी</w>
सुनि ता</w>
क् वे
मे ची</w>
क्रे डिट</w>
य र्
बाख ्रा
भत् कि
व्य ङ्ग्य</w>
युव ती</w>
ती नव
लम् बा
अङ् कले</w>
लि यो
युरो प</w>
ग तिको</w>
भू भाग</w>
क पाल</w>
६ ००</w>
सि ल्
पति ले</w>
साध नलाई</w>
खुवा उने</w>
हप् तामा</w>
सं कल्प</w>
वा ही</w>
दैनि की</w>
क्षेत्र फल</w>
सुरुआ त</w>
नपा एपछि</w>
पा इन्
च् छा
अन् र्त
सन् देशमा</w>
ल नमा</w>
विधेय कको</w>
न् सी</w>
कु रो</w>
ख गे
प्रतिष् ठित</w>
उल् लङ्
खर्च ेर</w>
हिँ ड्न</w>
आउ नुभएको</w>
म ीलाई</w>
सा स</w>
ग हुँ</w>
खा नपा
से ली</w>
टेलिकम ले</w>
बाँके मा</w>
यहाँ स्थित</w>
आइ पि
घोषणा पत्र</w>
पाइ प
न रेश</w>
गर्ने को</w>
दुर् घटनाको</w>
वैज्ञा निक
उँ थे</w>
ए रै</w>
मुलु की</w>
सुना एको</w>
ँ दैनन्</w>
अध्या गमन</w>
ए सम्म</w>
रच ना</w>
बुटव लमा</w>
सड कबाट</w>
धा रा
त् तमा</w>
सङ् कट</w>
पोखरे लको</w>
मि सन</w>
डे ल</w>
लि न्छ</w>
ए टि
सक्रि यता</w>
ना र</w>
छा डेका</w>
विरो ध
मार् न</w>
आन्दोल नलाई</w>
कुकु र</w>
बज ेको</w>
आचार् यको</w>
त्यस बारे</w>
हत्या मा</w>
अपे क्षा
ओ लम्
लो ले</w>
सफल ताको</w>
कमि टीमा</w>
ढुंगा ना</w>
शि शु</w>
वृद्धि को</w>
पूर्ण बहादुर</w>
य ौ</w>
रायमाझ ी</w>
बसि रहेका</w>
द रा
कु रै</w>
१ २०</w>
महा समिति</w>
रेश म</w>
औष ध
चढ ेर</w>
ती करण</w>
प्रकाशन गर्दे</w>
इजा ज
जी व</w>
दू रीमा</w>
भाइर स
ने मकि
एशो सिए
च् चा
रा तको</w>
शुरु वा
के शन</w>
ह् वाइ
म्या ग
कक्ष ामा</w>
कैला लीमा</w>
अपरि हार्
फू लको</w>
भ ृ
दर्श कले</w>
स्ना न</w>
क फी</w>
टा इज
पे रि
अ दु
समर्थ क</w>
टि मलाई</w>
धनगढ ीमा</w>
मिथि ला</w>
अ नियन्त्रित</w>
क्ष तिको</w>
अप मान</w>
स्था मा</w>
भूकम् पको</w>
दश कमा</w>
ज हाँ
कि राँ
उदय पुरको</w>
गर् व</w>
डिजा इ
प्रा चीन</w>
ऊर् जा
अगु वा
दोष ीलाई</w>
यस ैले</w>
ंग ो</w>
जे ष्ठ</w>
अन्या य</w>
मा स</w>
१ ६८</w>
काभ्र े</w>
पर्व का</w>
ट्वान् टी</w>
क्ष ता</w>
गि रिजा
गरे कै</w>
थ प्ने</w>
वाम देव</w>
प्रयोग कर्ता
सहज ता</w>
बज ्रा
राजदूतावा सले</w>
ह र्ष
अनौ ठो</w>
सि द्धि
ग इ
काउन् सिल</w>
उ मा
मैना लीले</w>
२० १२</w>
पोख ्रे
स्मार्ट फोन</w>
क्या च</w>
गा ड</w>
त्व का</w>
यु रो</w>
महत्व का</w>
प्रति व्यक्ति</w>
चाप ीय</w>
संस् करण</w>
सहा रा</w>
व नको</w>
या न</w>
ज स</w>
उजा गर</w>
पा एनन्</w>
घा ती</w>
आक्रम णको</w>
ए ल्
निस्क न</w>
मा ने
तिवा रीले</w>
सदस्य हरुले</w>
अनलाइ न
टो प
गु ट</w>
गर्द छौं</w>
निकट तम</w>
क हरूलाई</w>
बन् धित</w>
कन् टे
इजला स</w>
पब् लिक</w>
य न्त्र</w>
फु ल</w>
चौ कीमा</w>
टेलि कम</w>
मि नी</w>
बा जा</w>
एमाले सँग</w>
हि तका</w>
गुल् मी</w>
न जा
व्यापार ीले</w>
स् ट्रि
एक ताका</w>
घरा यसी</w>
र क्
मन्त्रिपरिषद् ले</w>
नसके र</w>
भण्डा री
ख ल्
भु इँ
अ ला
न हुन</w>
दि पा
यु थ</w>
गर्नु स्</w>
भ ंग</w>
समा रोह</w>
हौ सला</w>
सु ख्
ली स्थित</w>
जन्मि एका</w>
पो शा
वृ द्ध</w>
जि म्बा
पशुपति नाथ</w>
ढु वा
मनोरञ् जन</w>
अ ञ्
बिक्री दर</w>
बाल कको</w>
नेटवर् क</w>
बो हो
बा पतको</w>
रि लो</w>
पढ ेर</w>
कन् या</w>
ब खत</w>
युक्रे न</w>
को श
पाँच ौँ</w>
लिभर पु
साथ बाट</w>
प ट्ट
नीलक ण्ठ</w>
ओ ग
सल मान</w>
ना मबाट</w>
प्रति स्थापन</w>
थो क</w>
ग्रु प</w>
ब ्र</w>
सोही अनुसार</w>
कला कारको</w>
परीक्ष ाको</w>
उद्घा ट
ङ् गु
अ रेबि
लिम्पि या
द ह</w>
काली कोटको</w>
दू ध
उल् टै</w>
ठा ँ
श्री मान</w>
जिम्मेवा रीमा</w>
बा स्
बि चौ
लागि रि</w>
कन् स्ट्र
दै लेख</w>
लु ट
आयो जनालाई</w>
प्र जन
सिका इ</w>
एनआर एनए</w>
यहाँ बाट</w>
पद मार्ग</w>
स तह</w>
देव कोटा</w>
प्रशास नको</w>
लम् ब</w>
छ े</w>
गम् भिर</w>
स्थायि त्व</w>
विशेष ज्ञ
वा पत</w>
मौ ज्
पाकिस्ता नले</w>
जङ्ग ल</w>
पदाधिकार ीको</w>
तपाई को</w>
विघट नको</w>
टाइ म</w>
बोल पत्र</w>
विज्ञा पन
आ स्था</w>
थ न</w>
क्लब लाई</w>
दि पक</w>
जंग ल</w>
स्व वि
म राज</w>
ी तिक</w>
टा रमा</w>
ट प
पराजु ली</w>
से न्ट</w>
प्रा य</w>
गौर व</w>
हा ङ</w>
स् का
हो टेल</w>
फिलि पि
ई न्
कठ ो
सङ् केत</w>
उपभोक् ताको</w>
कार्य भार</w>
स्वय म्
धा री</w>
संस्था न</w>
धरौ टी</w>
स्वी कार्
बर्खा स्त</w>
मतदा ता
मु ल्य</w>
अफगानिस्ता न</w>
बि गा
क सको</w>
सि मेन्
एक पछि</w>
ति म्
टि कट
म् भ
हर े
अन्तर् राष्ट्रिय
रु ख
दसै ँ</w>
१ ५
आई जी
त्यो भन्दा</w>
ले खेर</w>
सि लो</w>
रहे न</w>
ना न्तर</w>
त्सा हित</w>
कोरोना भाइरस</w>
क त्व</w>
कार्य कारिणी</w>
उन् नत</w>
हत्या को</w>
प्र भु
रंग शाला</w>
सा उने</w>
सोम पाल</w>
बुझ ेका</w>
बोला उने</w>
दा ना</w>
निर् विरोध</w>
प्रस्ता वलाई</w>
खा ँदा</w>
मतदा ताले</w>
उपभोक् ताले</w>
पाइ यो</w>
देखा इएको</w>
गरे कामा</w>
प्रतिनिधि सभाका</w>
शर् मालाई</w>
लगा उँदा</w>
जि तको</w>
राष्ट्रि यता</w>
वार् ताको</w>
श् वास
जबरा ले</w>
कार् कीलाई</w>
छु वा
काउन् टर</w>
नु पर्</w>
जना भन्दा</w>
प्या ड</w>
भे ष
अस्ट्रे लिया</w>
स्व रमा</w>
र न्
छोरा लाई</w>
पहिले देखि</w>
प्रता प</w>
आ शं
मध्य पहाडी</w>
न पुगेको</w>
चाह न्छ</w>
स् टल</w>
रह नेछन्</w>
सक् छौं</w>
सहम तिका</w>
नामि बि
खा द्य
बे रोजगार</w>
आस पास</w>
रु ट</w>
हुनु अघि</w>
रुपन्दे हीको</w>
मौज् दा
वितरण मा</w>
सर सफाइ
वर्ष की</w>
मूल्य वृद्धि</w>
पि डि
राज ले</w>
ए जु
मालि का</w>
का ज</w>
न विरुद्ध</w>
बाँ च्न</w>
राहु ल</w>
ग ीले</w>
उमे द
क्य ू
देश व्यापी</w>
अ सहमति</w>
छ वि</w>
झो ला</w>
क् लो
गु म्बा</w>
यु भेन्
छाउप डी</w>
दा म</w>
शक्ति लाई</w>
अ सि
तामा ङको</w>
सञ्चार कर्मी
छा एको</w>
रेन् टी</w>
फैस ला
सर्वेक्ष ण</w>
अन्दा जी</w>
उहाँ हरुले</w>
वि कले</w>
खु लेका</w>
दुब ई</w>
विवाद का</w>
गरि नु</w>
समर् पित</w>
जापा नले</w>
दा ता
बच्चा लाई</w>
कानु नले</w>
त्रि यु
कोभि डको</w>
साहित्य िक</w>
एनसे ल</w>
कसु रमा</w>
विस्ता रमा</w>
रो केर</w>
परि क्षण</w>
बो ग
ज्या ला</w>
सि जनको</w>
मा गमा</w>
फाइना न्
महा सङ्घका</w>
करिडो र</w>
मा हो
१ ७
मा सि
धु लो</w>
सम कक्ष
जोगा उने</w>
संगठ न
बो का</w>
गो लमा</w>
महा न्</w>
क् की</w>
नि रुप
खु ट्ट
दोल खा</w>
च्या लेन्
खे तीमा</w>
हे रिएको</w>
स्थानी यलाई</w>
ललि ता</w>
वार् ता
जागर ण</w>
अर् बको</w>
खु लेर</w>
न्य ू</w>
दिइ सकेको</w>
धेरै लाई</w>
गु म्
वाइ स</w>
मौ ला
खानेपानी मन्त्री</w>
अलै ँ
सञ् जय</w>
बि न्दुमा</w>
खा डी</w>
सर् च</w>
तीनव टै</w>
करण ीय</w>
य ताको</w>
तया री
स्कु टर</w>
वि ही
भने की</w>
नीति ले</w>
भ नि</w>
युव कको</w>
उ म्
द रको</w>
ब्य क्ति
अरु को</w>
तेस ्रो
अफगानिस्ता नमा</w>
अज्ञा त</w>
इ का
डे लि
सि प</w>
कास्क ीका</w>
रि टी</w>
ज ीका</w>
कैला श</w>
प्रतिष् ठा</w>
ल डेर</w>
आयोजना बाट</w>
ग्राह कको</w>
श व
पश्चि म
टे कु
बढ े</w>
कर्णा लीका</w>
ना राका</w>
सकि न</w>
तै पनि</w>
कोहल पुर</w>
नेदर ल्यान्
भिटा मिन</w>
प्र द</w>
गरा उँदा</w>
पा एँ</w>
बोला एका</w>
क्षेत्र भित्रका</w>
दा बे
सम् म
वा हिक</w>
ल्या ई</w>
लाग् नु</w>
मो दीको</w>
क्ष य
गुराँ स</w>
रे न</w>
कि पर</w>
प्रविधि मा</w>
प्राथमिक ताका</w>
क्षेत्र भित्र</w>
भाग को</w>
पद मुक्त</w>
अव लोक
१ ६
सु स्त</w>
लो ह
गो पाल
भू त
सु परि
महा अभियोग</w>
एक साथ</w>
अन्यो ल</w>
जा म</w>
निया मक</w>
किसि मले</w>
स्मा रक</w>
समा धानको</w>
स्वी कृ
उपाध्या य</w>
सद र</w>
दाजु भाइ
हिउँ दे</w>
र ंग</w>
प्रधान ले</w>
दु इ
लि नुपर्छ</w>
न बारे</w>
साइ ट</w>
० ७५</w>
क्ष क</w>
लोक सेवा</w>
घटना क्रम
पछ्या एको</w>
स् ने
सा तामा</w>
ट क्
२० ११</w>
गर्नु अघि</w>
फ ड्
त् कृष्ट</w>
शङ् का</w>
वर पर</w>
ढोर पाटन</w>
च य</w>
प म्
पाठ कले</w>
दू र</w>
इजराय ल</w>
नेम्वा ङले</w>
सा र्न</w>
जोश ीको</w>
स्य ो</w>
आई सीसी</w>
ष् य</w>
पोलि ट
उप विजेता</w>
ल न्ड
न्य ु</w>
छो ड्ने</w>
परे मा</w>
हो ल्
बाँडफाँ ट</w>
कोरि यामा</w>
लघु वित्
बने की</w>
कारबा हीका</w>
स्नात को
मन्त्रिपरिष द</w>
नेता हरूलाई</w>
ग ले</w>
शिक्ष ाका</w>
० ७६</w>
दि दी</w>
स की</w>
पै साको</w>
दाहाल लाई</w>
देश बीच</w>
क् र्
आ गो
आ ति
टु ँ
करोड भन्दा</w>
सक्नु हुनेछ</w>
भरि का</w>
समय अघि</w>
अब् बल</w>
कले जका</w>
कमा उन</w>
कम्प्ले क्स</w>
नि कल</w>
ल्या ब</w>
च नले</w>
धा मी</w>
यस कारण</w>
उ चाइ</w>
क् समा</w>
सम्प त्तिको</w>
ला लले</w>
कवि हीन</w>
स्वास्थ्य कर्मी
पहिरो का</w>
कारो बारको</w>
अनु पात</w>
कुरा हरू</w>
या इएको</w>
गन्तव्य मा</w>
ज रमा</w>
सोधपु छ</w>
आइत बारदेखि</w>
विषा दी</w>
आया त
गाउँ बाट</w>
सुर ज</w>
तुल ना</w>
अभियन् ता</w>
नि टाइज
नि धि</w>
समानुपा तिक
घाँ टी</w>
भए नन्</w>
गु म
ग च्छ
हाइ ड
आफू हरुको</w>
भण्डा रीलाई</w>
सञ्चारमाध्य मले</w>
स्कु लमा</w>
डडेल् धुरा</w>
बि द्या
बढ् नुपर्ने</w>
प्रतिनिधि ले</w>
बझा ङ</w>
मु छि
प्रजा तिका</w>
बेइ जिङ</w>
त्रियु गा</w>
भानु भक्त</w>
फे स्टि
स दा
ट्रो ल</w>
जि ति
जापा नमा</w>
ह्वा त्तै</w>
सङ्क्रम ण
च्च ै</w>
सु नेर</w>
काङ्ग्र ेस
हिन्द ी</w>
महा लक्ष्मी</w>
दिन हुँ</w>
उल्लेख ित</w>
ट्र फी</w>
ल्या इने</w>
महा लेखा</w>
भे ट्
लेख कले</w>
स्वा य
ह ेर</w>
गा ह</w>
य ही
लै ङ्गिक</w>
ब् ल्या
सेवाग्रा ही
रो ज्
फे र्न</w>
प्रे मी</w>
मिल् दा</w>
पालु ङटार</w>
रण को</w>
ण्ड ी</w>
सुदूरपश्चि ममा</w>
लो ड
तराई मा</w>
सु रेन्द्र
दु री</w>
मि ना
पुर ै</w>
त पाइ
पुनराव लोकन</w>
शय ्या
दा ल</w>
२० १०</w>
हु नै</w>
ख्या त</w>
योज नको</w>
डा लाई</w>
भर् ने</w>
विवाह को</w>
पर् ने
उजु री
पि उने</w>
क्यापि टल</w>
बहु दलीय</w>
हा नि
डाय स्पो
ब ंगा
प्रति किलो</w>
वृद्धि का</w>
बच त
बलात् कार
आइ जी</w>
आफू हरुलाई</w>
आम्दा नीको</w>
सप्त रीको</w>
मछि न्द्र</w>
अद्या वधिक</w>
नि मार्
बहिष् कार</w>
चु स्त</w>
सम्पाद क</w>
वर्ग ीय</w>
सीमा वर्ती</w>
सन्दी पले</w>
प ीले</w>
वार् ताका</w>
चौ ला
ट्रा न्
भेन्टिले टरमा</w>
सहकार ी
चट्या ङ</w>
मुद्दा लाई</w>
शत प्रतिशत</w>
धि कृत</w>
ति मल्
क रेन्ट</w>
अ चे
बर् द
परे न</w>
रोकथा मका</w>
का ण्ड</w>
क ब्
व्यवहा रिक</w>
था न
त त्व
उद ्या
का ट्
त्यसै को</w>
प्रमो द</w>
स रिता</w>
आइ सी
छा पा</w>
ब्या क</w>
कार्यक्रम हरु</w>
पूर्व मा</w>
डु बेर</w>
ंग िक</w>
न्द र्
बु किङ</w>
क्षि प्त</w>
धि तो</w>
पा इ</w>
आउँ दैन</w>
ति लागु
निष् क्रिय</w>
डेभलप मेन्ट</w>
बेच ेर</w>
पि ता</w>
तुरु न्त</w>
पृ थ
ड ्यु
स्टेडि यममा</w>
डो मा</w>
ओ मि
पाइ ला</w>
मि ड
युद्ध का</w>
बागलु ङको</w>
स तर्क</w>
पा ती</w>
दोष ीमाथि</w>
खटि ने</w>
साम्रा ज्य
ग् लाइ
यु गमा</w>
सभ्य ता</w>
धा रमा</w>
ओ झे
सर्भि स</w>
अध्या पन</w>
गोवि न्द
सिंहदर बार
उपभोक् तालाई</w>
छुट्या इएको</w>
सन्तु ष्ट</w>
जन मान
ञ् ज</w>
श्रे ण
को पार्
अध्यय नको</w>
द छन्</w>
गो कर्ण</w>
के हीले</w>
पी ड
पृथ्वी नारायण</w>
रोल् पा</w>
कले जले</w>
पा तमा</w>
नुपर् दा</w>
मञ् चमा</w>
अ स्त
मुक्ति नाथ</w>
था रु
म्याने ज
बैं कलाई</w>
गा न</w>
निर्देश ि
फि फा</w>
इमि रे
न लिने</w>
कठो र</w>
ब सी</w>
सिलि न्डर</w>
सा ङ्
क्रिके टर</w>
भूमि कालाई</w>
अपरिहार् य</w>
सं सार</w>
मधे शी</w>
त् तिमा</w>
बढ ी
मकवान पुरको</w>
श य</w>
पु स्ता</w>
सुन्द ा</w>
संशो धन
वास ीले</w>
खे प्
हर् क
कास्क ीको</w>
लगाय तमा</w>
ठू लै</w>
महामा रीले</w>
मान बहादुर</w>
वि मल</w>
क्ष तिमा</w>
रा े
हस्ता क्ष
शर् मा
तिलागु फा</w>
उप े
चौ तर्फी</w>
मह त</w>
ह ड्
गुरु ङलाई</w>
पद म</w>
कु टी
कृ त्रि
राज्य लाई</w>
रो क्का</w>
मु हान</w>
भा द्र</w>
नागरिक ताको</w>
टाउ कोमा</w>
२० ४६</w>
खरि दका</w>
ढ ल</w>
छि टो
किन की</w>
डे न्ट</w>
अं कको</w>
क्ष तिलाई</w>
हटा एको</w>
उत्स व</w>
बुहा री</w>
पोर्चु ग
मर्या दित</w>
अङ् ग्रे
दी पेन्द्र
सिंगा पुर</w>
स्थानीयवास ीको</w>
दूता वास
ति नलाई</w>
रामे छा
प्रव क्
सफा ई</w>
सार् क</w>
महि ने</w>
एक मात्र</w>
बाब जुद</w>
शौ चा
लगा एपछि</w>
नी त</w>
व्यक्ति सँग</w>
प्रवाह मा</w>
पु लमा</w>
सि डि
घटना स्थल</w>
कर् तालाई</w>
कार्य ले</w>
स्याङ् जा</w>
मु ना</w>
वा रको</w>
गोदा वरी</w>
आ मन्त्र
देख ेका</w>
बि न्दु
विरा ट</w>
उनु का</w>
छनो टको</w>
आरो ह</w>
फाउन्ड ेस
रा जि
बताउ छन्</w>
सं ज्ञा</w>
बसि रहेको</w>
को इ
हिँ डि
सर्वा े
उनी हरुका</w>
सम्बन्ध को</w>
चे तना
अभिया नले</w>
एयरलाइन् सले</w>
आवा गमन</w>
परि क्रमा</w>
जन चेतना</w>
पुग् दै</w>
यस वर्ष</w>
के रा</w>
परे का
पढा उने</w>
सिट ौला</w>
देख ्ने</w>
आईपी ओ</w>
प ल
काँग्रेस को</w>
तथा पि</w>
रे क्टर</w>
मधु र</w>
का मी</w>
कित् ता
गर् नेमा</w>
पाठ क</w>
पे शा</w>
अ ञ्चल</w>
आईसी यू</w>
रा मा
गरि मा</w>
एम् बे
परिष द</w>
को को</w>
हुम् ला</w>
पौ ड्या
स्वामि त्वमा</w>
महोत्स वको</w>
स्व कीय</w>
गि एको</w>
यद्य पी</w>
फो नको</w>
आ एन</w>
ताला बन्दी</w>
अवधारण ा
हिनामि ना</w>
लक्ष्य का</w>
सोच ेको</w>
उल् टो</w>
प्र था
यात्रु ले</w>
अ सुरक्षित</w>
टर् ड</w>
घर् ती</w>
अध्यक्ष का</w>
उद्योग का</w>
प्रति वादी</w>
थे रा
लार् ई</w>
फा रम</w>
प रको</w>
पशु मा</w>
तीन जना</w>
पश्चि मा
चि च्या
हु दै</w>
हिँ डेको</w>
दुर् लभ</w>
ना म्
पशु पन्
नाय िका</w>
घर जग्गा</w>
घाइ तेको</w>
हि तको</w>
अ ा
रु घा
ए च</w>
नेपाल खबरसँग</w>
रे खा
क्षम ताका</w>
दार्चु ला</w>
या एका</w>
कै यौं</w>
कृत्रि म</w>
गु र्
पदाधिकार ीले</w>
सना खत</w>
स वै</w>
सं ग्रहा
परि वेश
अफ्रि का</w>
पब् लि
चाइ ना</w>
भे लामा</w>
अनु कू
गरा ज</w>
तिमिल् सिनाले</w>
कार्य समितिको</w>
दिइ यो</w>
ण्ड े
ह तार</w>
ज्यो ति
स्वा भि
श नको</w>
वि मला</w>
धनुष ाको</w>
तो मा</w>
एशि याली</w>
चे पा
पुग् छन्</w>
टे बल</w>
च न्दा</w>
भी डभाड</w>
छ ू
सं जा
वर्ष े
ढि ला
गु जा
मि तिमा</w>
ी कृत</w>
झ ै
फर्कि ए</w>
मुख्यमन्त्र ीको</w>
इन् स्टि
म्बु लामा</w>
क्वा टर
मे घ</w>
सुर्खे तमा</w>
हर को</w>
हिँ डेका</w>
बन्द ुक</w>
टी भी</w>
क रे
इ म्
सन्दर् भ</w>
ठा न</w>
डि भि
ने वार</w>
प्रति भा
नेतृत्व लाई</w>
रु सको</w>
बे लाको</w>
एसि ड</w>
बाँ धि
रुपैयाँ भन्दा</w>
समा र्
जिम्मेवा री
क्ल बको</w>
सडक खण्ड</w>
निरा शा</w>
बढ् नु</w>
न म्
यस अघिको</w>
ग तिका</w>
आखि र</w>
ई न्</w>
ब रमा</w>
छ वि
पश्चि मा</w>
अपरा न्ह</w>
२०६ २</w>
लगा इने</w>
कम ध्ये</w>
दोहो र्</w>
ना च
ओलम् पि
बढ ीले</w>
यथा वत</w>
इलेक् ट्रो
कड भि
विवेक शील</w>
दि नेछ</w>
नव ौँ</w>
शि ता</w>
व हा
समिति बाट</w>
ँ का</w>
कोल का
सा य</w>
यु ग</w>
ख रेलले</w>
तामा झ</w>
इ यो</w>
ति बाट</w>
छा ँ
लु को</w>
सु नेको</w>
प त्या
लिङ् दे
बैठ कका</w>
खु मल
आँखा मा</w>
सगरमाथा को</w>
जि प्
विद्रो ही</w>
रै था
दु व्
च्च ी</w>
प्रस्ता वको</w>
विविध ता</w>
आ कलन</w>
राख् नुपर्छ</w>
पौ ने</w>
महा देव</w>
ता न
अग् नि</w>
लिपु लेक</w>
मो टर</w>
सं चार</w>
डेंग ु</w>
व्यव स्थापक</w>
भै ं
व टा
दा नका</w>
ट्रया क</w>
ऐ नबहादुर</w>
भुटा न</w>
प्रधान सेनापति</w>
सम याव
मुख ि
गौत मलाई</w>
शो षण</w>
मझ ौला</w>
ढु ंगे
अनुगम नका</w>
ललित पुरका</w>
सङ्घ र्ष
भूकम्प बाट</w>
शी ला</w>
हनु मान
पत्रकार को</w>
स्वा द</w>
बहादु रले</w>
लि ङ
पछा डि
पा ठे
विष यक</w>
सोम बारदेखि</w>
हेलिकोप् टर</w>
क्रान् तिको</w>
सं युक्त
कैला लीका</w>
छो डि
वि कट</w>
भन् नु
उँ छौँ</w>
प्रभाव ले</w>
ब ग्ने</w>
आफु लाई</w>
कृष कलाई</w>
प सिना</w>
पुरा तात्
दौ डमा</w>
काग ज
पो को</w>
नदि ई</w>
श्रीमत ीको</w>
मे री</w>
फार् म</w>
प्रसू ति</w>
अम र</w>
फै लिन</w>
बस्त ी
य े
श्वास प्रश्
डोल् पा</w>
या द</w>
स वा</w>
विका सलाई</w>
प्रा न्त</w>
हु नबाट</w>
सि मित</w>
मा फि
ध क्का</w>
कारो बार
ह ड
को शि
चु ली</w>
हिन्द ु
गर् नाले</w>
रहे कोछ</w>
तथ्या ङ्क
पुरुष ो
अनुप स्थित</w>
धा रामा</w>
बि गो</w>
ल म</w>
बु द्धको</w>
आयुर् वेद</w>
ज गन्
स सु
रोकि ने</w>
अ श
जो र
विवाद को</w>
म रेको</w>
जीव नका</w>
ला माको</w>
खर् क</w>
मनोन य
फा यर</w>
गो रु</w>
पठा एर</w>
सि नो</w>
न की</w>
वितरण को</w>
ओमि क्रो
पाँच वटा</w>
नि ध
छलफल पछि</w>
पत्र का</w>
म्या नपा
दिन यता</w>
मही ना
निष् ठा
घटा एर</w>
रूप मै</w>
सिग् दे
म दि
पोजि टिभ</w>
दृ ढ</w>
क्लब मा</w>
अरू को</w>
महा सङ्घ</w>
जिज्ञा सा</w>
युनाइटे डका</w>
शे ष
ने श</w>
ग जे
ध म
या तना</w>
म न्त्र</w>
मान्य ता
शा सक</w>
गर्नुपर् दछ</w>
सांसद हरु</w>
महान्यायाधि वक्ता</w>
सु स्ता
उत्पाद नलाई</w>
भेरिय न्ट</w>
के यर</w>
चाड पर्व</w>
याताया तका</w>
जुलु स</w>
ण ि</w>
सहभाग ि</w>
दर्श कको</w>
परीक्ष ार्थ
अ र</w>
प्ले ट</w>
स्पे निस</w>
विष् फो
सिंह लाई</w>
ष्ट ा</w>
ता म
ए अनुसार</w>
शा लि
बाँस् कोटाले</w>
बङ्गला देशमा</w>
अ स्थिरता</w>
गणतन्त्र को</w>
रुपै या</w>
व्यवसाय को</w>
सबै जसो</w>
एसोसि एस
हटा इएको</w>
भार ती
० ७७</w>
ड ं
र म
ौ ली</w>
पाण्ड ेको</w>
से क्यु
जि या
मि सा
मि ङ</w>
काठमाडौं ले</w>
२०६ ९</w>
फर् नि
सोध ेको</w>
दि ली
भ रा</w>
रा त्र
सवा ल</w>
अघिल् ला</w>
खण्ड न</w>
सध ै
कार् की
प्या क</w>
त्यस बाहेक</w>
धरौ टीमा</w>
अन शन</w>
ट ल
रा जाको</w>
बे स</w>
बि चमा</w>
शु राम</w>
मु निका</w>
व्यवस्था का</w>
बो लेका</w>
सुक् खा</w>
खोटा ङको</w>
चा लि
लडाइ ँ</w>
उपलब् ध
फर्का उन</w>
अं कसहित</w>
किशो रीलाई</w>
हुला की</w>
प्रदेश सभाका</w>
थ री</w>
ह ले
च्या उ</w>
न गरिएको</w>
बमोजि मको</w>
का े
डेब्य ु</w>
दौ ड</w>
मोह न
हाल् छ</w>
गे श्वर</w>
अरू लाई</w>
बाघ को</w>
योर् क</w>
चेक जाँच</w>
मान लाई</w>
सीई ओ</w>
रह को</w>
केश व
डो टी</w>
देश बीचको</w>
प्र बन्ध
पुनः स्थापना</w>
श् मी
यस अघिका</w>
उपमहा नगरपालिकाले</w>
उक् लिएको</w>
व्यवस्था ले</w>
निर्वाच नपछि</w>
ग्रे ड</w>
विश्वस नीय</w>
ल घु</w>
मतदा नमा</w>
व हन</w>
ले मा</w>
एयरलाइन् सको</w>
भो गि
पे सा
आँखा को</w>
चौ रमा</w>
राम ले</w>
पाकिस्ता नका</w>
कम ला
विस्फो टक</w>
गर् नसमेत</w>
वि न्दु
छापा वाल</w>
दि नलाई</w>
ख रेल</w>
दशमल ब</w>
बेचबि खन</w>
बना एपछि</w>
पि यो</w>
दल हरूको</w>
क्ष ामा</w>
विके टका</w>
व क्ता
ख सेर</w>
माग लाई</w>
आ सि
न्द ो</w>
अ जय</w>
ल्यान्ड का</w>
रह स्य
प्रमुख लाई</w>
गत वर्ष</w>
फिल् मका</w>
सामा नको</w>
सर्वो त्कृष्ट</w>
एम्बु लेन्
२०० ८</w>
स्वदेश मै</w>
भा नु</w>
या सँग</w>
सोम बारको</w>
सात ौँ</w>
सुन सान</w>
सार ेका</w>
ब ु</w>
के टी</w>
पु स्
रो स्</w>
ट्रम्प को</w>
स्व रोजगार</w>
न परेको</w>
सि टीले</w>
मिहिने त</w>
बुढाथो की</w>
मन्त्र ीका</w>
मे ट</w>
होट ल
कम्पन ीसँग</w>
थप लियाले</w>
गाड ी
मौसम विद्</w>
यू एई</w>
रि का</w>
सो भि
शास्त्र ीय</w>
डु ब
किलो मिटरको</w>
इ ण्डि
शे ख
मे ची
ऐ री</w>
जो हो</w>
अति थि
अं कमा</w>
सेवाग्रा ही</w>
खुकु री</w>
त म्</w>
खा समा</w>
भा रु</w>
उठ ि
पाहु ना</w>
न्ड को</w>
प्रो ड
शिक्ष कले</w>
लग न
व्यक्ति हरु</w>
स्त रबाट</w>
प्रगति शील</w>
शम् भु</w>
न लगायत</w>
नोक्सा न</w>
मू र्ति
युव क</w>
श्रेष्ठ का</w>
चार् टर्ड</w>
दिक् तेल</w>
सम यस
दुग् ध</w>
प्रणा लीबाट</w>
सुना र</w>
व्यव स्थाप
बहु मुखी</w>
कथा मा</w>
उ सो</w>
शी तल</w>
श्वर प्रसाद</w>
सु ल्
हरू मध्ये</w>
निर्णय अनुसार</w>
म्याग जिन</w>
बरि ष्ठ</w>
ए आई</w>
श्रृ ंख
ल्ला ह</w>
गा न्ध
प्रचार प्रसा
सि वा
अव रोह
आचार संहि
जाय ज</w>
बि रु
प्रदर्श नीमा</w>
ह्वाइ ट</w>
व्यवसायी हरुले</w>
बि तेको</w>
स्नातको त्तर</w>
हरू माथि</w>
मलेसि यामा</w>
गि स्ता
भाग ब
ट् टि
वु म
ब्रि फि
यात्र ाका</w>
नि मो
ओ म</w>
दा मो
सड कका</w>
नारायण प्रसाद</w>
अख्तिया रको</w>
स्वा गत
गौत मको</w>
अ यो
सुदूरपश्चि मका</w>
रसु वा</w>
भ याव
रामे छाप</w>
उ ठे
लाय न्स</w>
अव श्य</w>
स्वी कार
संखुवा सभाको</w>
जा नु
स्वतन्त्र ताको</w>
पार् कि
लुम्बि नीमा</w>
पा रमा</w>
हा त्ती
काफ् लेले</w>
सा हु
अपे क्षित</w>
शिक्ष कलाई</w>
व्यवस्था पिका</w>
ज गे
मे ट
आ गम
मु हा
घोषणा पत्रमा</w>
पा े
दो र्
बहा ल</w>
दश ैँ</w>
इ ँ</w>
र थी</w>
ब स्तु
गा उने</w>
याताया तको</w>
नीति लाई</w>
कृष कले</w>
मौज्दा त</w>
गर् दैनन्</w>
क्र सर</w>
स्को र</w>
सो झै</w>
शि ल्
हि म्
मता न्त
पशु जन्य</w>
जान का</w>
स् टको</w>
स ला
द लाल</w>
ड मि
आवश्यकता अनुसार</w>
न्या नो</w>
जा ली</w>
भे डा</w>
तट ीय</w>
अफगानिस्ता नको</w>
मन्दि र
सहभागि तामा</w>
जु ट्
धन बहादुर</w>
फ स्टा
ला उने</w>
न रहने</w>
चु प</w>
सा बु
मिने टको</w>
भि न्न
छा याँ
क्या म्प</w>
बर्ष को</w>
कानु नमा</w>
चट्या ङसहित</w>
नजि कबाट</w>
ल कुमार</w>
उहाँ हरूले</w>
प्रदू ष
भू गोल</w>
फ्र ी</w>
पाठ्य पुस्तक</w>
कले जको</w>
लो का</w>
ठेगा ना</w>
बहु उद्देश्य
जस पाले</w>
गो ला
कल म</w>
डेङ्ग ु</w>
सम् भार</w>
हु नुभयो</w>
बु ल
सर्ला हीको</w>
ब ड
अभि ष
भ याे</w>
फु टे
कम्युनि ष्ट
बढा इने</w>
आई पुग्दा</w>
ख े</w>
न गरि
समाजवाद को</w>
द्रु त</w>
भए देखि</w>
अल म
इन्डि यन</w>
दुई पटक</w>
एन्टि जेन</w>
जनता सँग</w>
बु झ</w>
नपा एका</w>
साउन देखि</w>
विवा दा
साँ च्चै</w>
अफ्रि की</w>
महा प्रसाद</w>
दु रु
उल्लङ् घन</w>
्र े</w>
रक्त दान</w>
तो किएका</w>
लगाय तलाई</w>
घर परिवार</w>
नेपाल सहित</w>
दौ ड
बस्त ीका</w>
मच् चा
अ न्न</w>
रक्त चाप</w>
न रमा</w>
जु नियर</w>
कँडे ल</w>
काँ कडभि
उप ल्लो</w>
श त्रु
प्र ो</w>
राष्ट्र पतिमा</w>
क्यान डा</w>
श शा
की य
रूप न्दे
क् र्या
ख प्त
अनु चित</w>
शो ध
पुस्ता ले</w>
काठमाड ौ</w>
ख सा
राजा ले</w>
बु ढ
सेवा बाट</w>
युव ती
छलफ लको</w>
चा ल</w>
राम कृष्ण</w>
दूता वास</w>
पास पोर्ट</w>
ब्या ट्री</w>
सुख् खा</w>
निर्वाच नबाट</w>
पे स्तो
ज्ञा न
मा ई
कम र्
भक्त जनको</w>
मध्य ेको</w>
वं शी</w>
महाधिवेश नबाट</w>
महाभि योग</w>
ब्यू रो</w>
चाल कले</w>
मु नाफा</w>
लाख सम्म</w>
रे ल्
भ ञ्
भा ले</w>
खो ली</w>
धन राज</w>
अन्तर गत</w>
आठ ौँ</w>
एन एम
सर ेको</w>
जङ्ग लमा</w>
ह का</w>
मगर को</w>
प्रिमि यम</w>
रो टी</w>
साँघु रो</w>
फड् को</w>
शङ् कर</w>
हाम ्रै</w>
मुद्रा स्
इला ममा</w>
सहकार ीले</w>
दशक देखि</w>
स्वी कार्य</w>
साह को</w>
पु ल्
के बल
भद्र पुर</w>
७ ००</w>
पि तृ
थाल् छ</w>
बहुउद्देश्य ीय</w>
खे लेर</w>
नी तिका</w>
बद नाम</w>
२० २५</w>
बनि सकेको</w>
युग सम्म</w>
लेख नाथ</w>
रु म</w>
दा जु</w>
शि ला</w>
फ्या क्स</w>
बिक्र ीमा</w>
अ व</w>
उप प्रमुखमा</w>
खो जे</w>
क्ष् म</w>
संरक्ष णको</w>
मनो नित</w>
प् स</w>
सार्थ क</w>
अनु हारमा</w>
सूर्यो दय</w>
ओ लीका</w>
हुनु भन्दा</w>
ति मी
प्रा डा</w>
चाल ेको</w>
छो ड्न</w>
माछा पुच्छ
इतिहा सको</w>
मान् म</w>
हुँ दैनन्</w>
चा ल्
नारा बाजी</w>
विवादा स्पद</w>
त मा
गु ठ
ओ मा</w>
चिनि ने</w>
महा लेखा
महोत्त रीको</w>
निकुञ् जमा</w>
गो कर्ण
बा ही</w>
शरी रलाई</w>
सुना उँदै</w>
सं सारका</w>
परिया रले</w>
तै नाथ</w>
य रिङ</w>
प्रती क</w>
पार्टी की</w>
द्धा रा</w>
दृ ढ
शाखा मा</w>
रैथा ने</w>
पाइ नेछ</w>
गरि सकेपछि</w>
अ ण्डा</w>
खेल कू
मा न्य</w>
नियन्त्र णको</w>
हिमा लको</w>
वुम न्स</w>
कि रण
छ ्
बो रा</w>
उद्य म</w>
क लं
सञ्जाल मार्फत</w>
अनुभ वी</w>
समाज सेवी</w>
दुर् व्यवहार</w>
त ब
पण्डि त</w>
बजे बाट</w>
मर् मत
पाकिस्ता नमा</w>
प्रधानमन्त्र ीमा</w>
नेदर ल्याण्ड
शु भे
मुल भूत</w>
ड बडी</w>
य हीँ</w>
राष्ट्रपति लाई</w>
शर द</w>
सम्प दा
ज ता
मुटु को</w>
नि शुल्क</w>
डाइ भर्
नेम्वा ङ</w>
का टेको</w>
सभा पतिको</w>
दाउ रा</w>
८ ००</w>
डु ब्
को र
राज तन्त्र
टी बाट</w>
झ र्
रच नात्मक</w>
हरि प्रसाद</w>
प्र ि</w>
मो चन</w>
प्र हा
बा राको</w>
स्त म्भ</w>
ह ्रा
काठमाडौँ का</w>
आँ ट</w>
हप् ताको</w>
छु टेका</w>
स्वास्थ्यकर्म ीको</w>
वि हि
टो ल
ङ्ग ी</w>
न् ध</w>
सं व
लोड से
ढिला सु
क थित</w>
जा उ</w>
ज स्तो
श्रो ता
० ७८</w>
बचा उ</w>
खेलकु दमा</w>
प्रोत्सा हित</w>
सि धा</w>
उप न्यास</w>
टि भ
म ड्रि
फे वा
आपूर् ति
राम कुमार</w>
सक् छौँ</w>
ए यरको</w>
समानुपा ति
गु रू
सम्झौता अनुसार</w>
हजार सम्म</w>
कै यौँ</w>
चिन्त न</w>
अगाडि को</w>
अपना एर</w>
मुख्य सचिव</w>
क ने</w>
रुप मै</w>
डी आईजी</w>
मतदा ताको</w>
बो ली</w>
ने हरू</w>
सुना उने</w>
पत्रकारि ताबाट</w>
संक्रमित मध्ये</w>
सि ने</w>
द्वि तीय</w>
ध व
पा ई</w>
विष यले</w>
पत्रकार लाई</w>
झोलु ङ्गे</w>
ज स्थित</w>
ध न्दा</w>
बु ँदा</w>
उ नि
के स</w>
महिना वारी</w>
कुराका नीमा</w>
बिस्ता र</w>
ख ै</w>
शुरु मा</w>
पार् वती</w>
सो च्न</w>
श्रद्धा ञ्जली</w>
न्तरण को</w>
निकाय सँग</w>
डि ल
उद्धा रका</w>
कता रमा</w>
एकेडे मी</w>
है दरा
खो लेको</w>
सो ला
च पे
रे स</w>
बु द्धि</w>
तह सम्म</w>
यू रो
खेती योग्य</w>
धु वा
बाल विवाह</w>
महा सङ्घले</w>
पुलि सले</w>
हिँ ड
ज कुमार</w>
ल्यान्ड को</w>
ग्या रेन्टी</w>
ण्ड का</w>
एस पी
जना मध्ये</w>
चौ की
चे म्बर</w>
पुर् पक्षका</w>
कुट नीतिक</w>
पा एकी</w>
काठमाडौँ वासीलाई</w>
ध्य ै</w>
सु मधुर</w>
जु री</w>
तारि ख
पुग् दैन</w>
ै बाट</w>
निवेद नमा</w>
सा इन्
लाभ को</w>
व्यवसाय लाई</w>
डो र</w>
गरि रहँदा</w>
देउ रा
त ेका</w>
ब ीका</w>
आग जनी</w>
कोषा ध्यक्ष
लि म्बु
पछ्या उँदै</w>
जीवि कोपार्
सकि रहेको</w>
घिमि रे
टे निस</w>
सेल्सि यस</w>
व्यक्ति हरू</w>
आफन्त को</w>
बो ल</w>
फेर ब
बेहो स</w>
पौ डी</w>
कोरो नाले</w>
सम्भव तः</w>
नेत्र विक्रम</w>
सक् छु</w>
अन्तरि क्ष</w>
सं ख्यक</w>
आश्र ित</w>
समर् पण</w>
दम कल</w>
एन ए
ल सहित</w>
चाहि यो</w>
बना उ
ल ण्ड
व पूर्ण</w>
भयाव ह</w>
परिष दको</w>
उत्तर दायित्व</w>
डि पि
सि मा</w>
रे ट</w>
बिही बारदेखि</w>
बाहि रको</w>
ख तर
१ १०</w>
निम् न</w>
मछि न्द्रले</w>
गुरु योजना</w>
वेद ना</w>
ओसारप सार</w>
तट बन्ध</w>
बाग् मती</w>
चार ै
ख ी</w>
नियन्त्र क</w>
रच नाहरु</w>
सात वटा</w>
सौ र्य</w>
षड्य न्त्र</w>
सि य
प पु
खु द्रा</w>
द स्तु
असु ली</w>
लाख मा</w>
द स</w>
सहर को</w>
ब् ध</w>
आशि ष</w>
बन्द ीमा</w>
खा इ
कोष बाट</w>
प्रशा रण</w>
गन् ध</w>
डायस्पो रिक</w>
चाहा नुहुन्छ</w>
इ जिप्
अर्ब भन्दा</w>
हमा लले</w>
गिरफ् तार</w>
विज्ञप् ति
जोखिम पूर्ण</w>
सङ्क्रम णबाट</w>
ष्ट ी</w>
हु ु
कले ज
दुवै लाई</w>
ट्र ल</w>
ट हरा</w>
पर्यट कीय
आ एमा</w>
वि र
अन्ति म
प् वा
निरुप ण</w>
अपांग ता</w>
बासि न्द
फिल् ड</w>
कृषि जन्य</w>
भरो सा</w>
टा कुल्
दर्जन ौं</w>
प्रस्ताव माथि</w>
ह टेको</w>
य ताका</w>
श ल</w>
धन ीले</w>
लाग् नुपर्ने</w>
गर् भ</w>
एक तर्फी</w>
सार्वभौ म</w>
कात्ति कमा</w>
सहयोग ले</w>
एम ए
सुख द</w>
अपु ग</w>
म लाल</w>
सल्या न</w>
शिक्षा लाई</w>
टाकुल् लामा</w>
समझदा री
व काल
सङ् कल
होट लको</w>
के सीलाई</w>
युक्रे नी</w>
बसा ईका</w>
सातदो बाटोमा</w>
शुक् ला
यू मा</w>
निकुञ् जको</w>
पक्ष सँग</w>
सघा उने</w>
टो कियो</w>
पक्ष धर</w>
मु लक</w>
पोख रीको</w>
न पुग्ने</w>
मनाइ ँदै</w>
जटि लता</w>
ग्ला स्
भो क</w>
पुरुष मा</w>
गर् छौँ</w>
ब सको</w>
नि योग
उप न्या
खतर नाक</w>
फा स्ट</w>
रुकु म
मु गु</w>
मधु मे
बुध बारदेखि</w>
बिरा ट
दसै ं</w>
एस एल
प्यारा ग्लाइ
विषय का</w>
काठमाण्ड ौ</w>
जन सङ्ख्या
घर भित्र</w>
हास्य व्यङ्ग्य</w>
कार लाई</w>
शा सन
सुकुम्बा सी</w>
बी मा
हरि याली</w>
हिउँ दमा</w>
पा उँछ</w>
हजार देखि</w>
भ े</w>
को ह
एपी एफ</w>
गर ु
नाका बन्दी</w>
असा ध्यै</w>
छो डेको</w>
चापा गाई
गर् छिन्</w>
करोड ौं</w>
साउद ले</w>
राजनी तिलाई</w>
क्षति ग्रस्त</w>
ति नले</w>
पूजा आ
ला यक</w>
विकल् पमा</w>
जा ति
सा पे
सिन्धुपाल् चोकको</w>
आँ ग
स्ववि यु</w>
ब्या रे
क पा
स् कार</w>
पढ् दै</w>
मर्या दा</w>
बोर् डमा</w>
अवरोह हरु</w>
उ ड</w>
घिमि रेको</w>
सा नो
सहकार ीका</w>
लाम खुट्ट
वि दा</w>
ड बल</w>
कञ्चन पुरका</w>
कम ै
डी पी
कहाँ बाट</w>
समुद्र पारमा</w>
क अप</w>
रिपोर् टमा</w>
हा रा</w>
फर्का उने</w>
सन्तोष जनक</w>
पन को</w>
निरु त्साहित</w>
रेडियो सम्मको</w>
प्रक्रिया बाट</w>
स्य ु
छा ता</w>
क् टरमा</w>
गा उन</w>
साउ थ</w>
जि म्
ह ट्
ल ज्
च लेका</w>
न्यूनी करणका</w>
जना उन</w>
बासिन्दा लाई</w>
ओ हो
इ को
जु ट्न</w>
बिति सक्दा</w>
आई त
घटना पछि</w>
राम को</w>
चे न्न
ग हन</w>
प्र सं
नि न्दा</w>
मे सी</w>
बार्सिलो नाले</w>
संक टको</w>
ओझे लमा</w>
बा को</w>
छुट्या एको</w>
सङ् ग्रहा
खेल् दा</w>
जीव नलाई</w>
हुँदा सम्म</w>
बार्सिलो ना</w>
जोम सोम</w>
भा ई
भाग बन्
हरु माथि</w>
पुस्तका लय</w>
प्राप् तिका</w>
गो ठमा</w>
मन कला</w>
त्या ग
घु म
डा उन</w>
बुढा ले</w>
का बीच</w>
सु नी
पेस ी</w>
मध्ये बाट</w>
गरे ं</w>
छि रिङ</w>
मुद्दा का</w>
भञ् ज्या
आफ नो</w>
बिक्र े
ल्याण्ड को</w>
सं वत्</w>
आधुनि कीकरण</w>
इ मर्
निष्का शन</w>
दु नियाँ
पञ् जा
दि दै</w>
हुँ दो</w>
लै जा
हरा एका</w>
राति देखि</w>
गर ेरै</w>
दोहो री</w>
शाखा को</w>
ं लाई</w>
स व
ब्या डमि
न मि
गि लले</w>
क्याम रा</w>
ओ को</w>
बोले रै</w>
कप्ता नीमा</w>
बि र्सि
सिर् जना
फु ल
मोर ङका</w>
दल सँग</w>
भो टे
पटक सम्म</w>
ो लीले</w>
उत्त रा
परि योजनामा</w>
रि क्
बस् छन्</w>
एक लौ
उद य</w>
नति जा
मन्त व्य</w>
गण्ड कीमा</w>
दि यो
भे गका</w>
मान नीय</w>
अछा म</w>
बे थि
वित ै</w>
राखे पछि</w>
म रेका</w>
के सी
चौ र
ह ल्ला
ची नलाई</w>
हात्त ीको</w>
आक्रम ण
मन मोहन</w>
मतदा तालाई</w>
दै न्</w>
अवधि सम्म</w>
पुरुष ले</w>
सोलुखु म्बु
डि भाइ
इ नो
दृष्टिको णले</w>
युक्रे नको</w>
कमि सन</w>
उपमहा नगरपालिकाका</w>
अवधि भर</w>
जानकारी अनुसार</w>
आर आई</w>
मधेस मा</w>
आशा वादी</w>
विवरण अनुसार</w>
पहुँ चमा</w>
टिक टक</w>
अक्सि जनको</w>
एम्बे सड
निका लेका</w>
जोडि ने</w>
गरि एकोमा</w>
क दर</w>
बा री
एसि या
सदस्य हरूले</w>
बि ल्
खना लको</w>
टेलिकम को</w>
पो ल्
सं ग्रह</w>
जगन् नाथ</w>
ले क
ौँ को</w>
सं भावना</w>
आ स्था
क लि
मस् जि
शा स्त्री</w>
ना श</w>
चा रका</w>
विधेय कलाई</w>
भीम दत्त</w>
निरा शा
भ रा
र् ली</w>
पा टो</w>
भे द</w>
अग्नि प्रसाद</w>
प्रा ध्या
दि एनन्</w>
भर् खर</w>
उ खु
चर् चा
पा खा</w>
इन् धनको</w>
शब् दमा</w>
मिडि याले</w>
टे न्डर</w>
चार् यले</w>
देश भित्र</w>
पार् छ</w>
कल्याण कारी</w>
अ ङ्ग
प त
सि म</w>
गोपन ीयताको</w>
ना उ</w>
तेक्वा न्दो</w>
क डाइ
आन्दो लित</w>
ष्टा चार</w>
राष्ट्र ले</w>
क्षे प्या
सर त</w>
न तर्फ</w>
खेलाड ीमा</w>
क ताका</w>
ब सन्त</w>
अनु मानित</w>
आइत बारको</w>
च्याम्पियनसि प</w>
अ शो
व रीमा</w>
गोरखा पत्र</w>
उप निर्वाचन</w>
होम स्टे</w>
राजवि राज</w>
ह त</w>
प्रयोग ले</w>
लेख् दै</w>
इन् फो
प्रतिनिधि मण्ड
सौन्द र्य</w>
क मे
बता इ
सि सि
व्यवस्था अनुसार</w>
हजा रमा</w>
वास्त वि
वि क्र
वि चारको</w>
आर् मीले</w>
ष्ट िक</w>
११ ः३०</w>
सिक् न</w>
वि जु
ट्वी टरमार्फत</w>
भाव ना
काँ धमा</w>
अभि लेख
मा क्
लुट पा
अप् ठ
सांग ीतिक</w>
दिदी बहि
ना र
पाइल ट</w>
उ डेको</w>
शा के</w>
जी त
गि रि</w>
वि र</w>
सुना इन्</w>
प्र था</w>
फु कुवा</w>
बिहा नको</w>
अनु पातमा</w>
भइ रहँदा</w>
ग्र न्थ
विमानस्थ ल
मुलुक भर</w>
राख् छ</w>
यस बीचमा</w>
प्रक्रि याको</w>
गिराव टलाई</w>
भेद भाव</w>
गु प्त
का सँग</w>
आ ना</w>
इ श्
सो मा</w>
प्रत्या भूति</w>
परीक्ष ा
आ उन
गर्नु भन्दा</w>
सु गर</w>
एभरे ष्ट</w>
उपल व्
शुक्ला फाँ
तो क्
नि लम्ब
सचि वले</w>
स यको</w>
संघ ीयताको</w>
ताना शाही</w>
मे मो
ए लगत्तै</w>
सु ष्
इ लाई</w>
मत ल
मे र</w>
हुने ले</w>
ट् जर
अपरा धमा</w>
समा थि</w>
प काउने</w>
चढ ्
बाहिरि एका</w>
सम्हा लेका</w>
ि म</w>
तथ्यां कले</w>
क्ष मा</w>
हर ले</w>
महा नगरपालिकामा</w>
र् नु</w>
खै रे
बा स्तो
त्रिशू ली</w>
आर् सन
न्द्र प्रसाद</w>
खेलि रहेको</w>
निर् दोष</w>
मो डमा</w>
रकम मा</w>
अम र
क च्ची</w>
उडा नमा</w>
तिम ीलाई</w>
पर्व तको</w>
वै दिक</w>
या र्
शक्ति ले</w>
ते श्रो</w>
एक् सन</w>
हु नासाथ</w>
ज डा
म्या ड्रि
स रि
वर्ष ौंदेखि</w>
खोज ेर</w>
च्या प्लि
ना स</w>
हिम् मत</w>
कर्म ीको</w>
अ लग्
ठे क्
ट् ट</w>
बालबालि काले</w>
उड्ड य
अरु ले</w>
सी बाट</w>
द फा
मुस्ता ङको</w>
फ ्यु
नै तिक
अहिले सम्मकै</w>
कर् मा
पि एस
माहो ल</w>
क ्यो</w>
शा लाको</w>
ऐ नले</w>
जा गेश्वर</w>
उ सै
मो ल</w>
मधुमे ह</w>
रजिष्ट ्रा
वन्यजन्तु वाट</w>
साथ ीहरु</w>
प्रति क्रिया
चु ल्
क स</w>
सिरहा को</w>
दायि त्व
खुला उन</w>
बा उ
एसई ई</w>
न बीच</w>
लय ले</w>
जन निर्वाचित</w>
न गरेका</w>
पुग् नु</w>
गते भित्र</w>
प्रतिस्पर्धा त्मक</w>
रोनाल्डो ले</w>
सच्या उन</w>
मन्त्रिपरिष दको</w>
न बोलेरै</w>
गैँ डा</w>
चक् र</w>
आ एसँगै</w>
निर्माण लाई</w>
म् य</w>
औ पचा
दि एन</w>
लागि परेको</w>
खोज् नु</w>
काठमाडा ैं</w>
एस इ
टर लाई</w>
समार् फत</w>
स्टो र</w>
यस बारेमा</w>
सङ् गीत</w>
शाह लाई</w>
च्याप्लि नको</w>
संलग् न
ग्लास् गोमा</w>
त्रु टि</w>
आन्दोल नरत</w>
चरण का</w>
आत्म विश्वास</w>
भो जन</w>
मा न्द
क्या नले</w>
बिजु लीको</w>
पढा उन</w>
म्याने जर</w>
पुर् व</w>
शिशु लाई</w>
जु वा</w>
दृ ष्टि</w>
२०० ९</w>
ग्रा फी</w>
महाशाखा को</w>
मन्त्रालय सँग</w>
विवरण मा</w>
रामे श्वर</w>
पशु पालन</w>
ता रको</w>
सह महामन्त्री</w>
धरा नमा</w>
हा लेको</w>
टुँ डि
ढका लको</w>
भण्डा र</w>
श्रोता समक्ष</w>
पुस्ता लाई</w>
तिया र</w>
कष्ट कर</w>
खाँ दबा
पद भार</w>
बढा उनु</w>
चा ह</w>
एसोसिए सन</w>
राष्ट्र संघको</w>
श न
सचिवालय को</w>
टि म
च्या र्ली</w>
साझेदा रीमा</w>
आँ कलन</w>
इन्स्यो रेन्
पूर्व को</w>
भए छ</w>
सम्झ नामा</w>
रेड क्रस</w>
व्यक्ति त्व
सो झो</w>
मा मिला
भ् वाइस</w>
बन्दर गाह</w>
वक्तव्य मा</w>
लि य
टोप बहादुर</w>
पक्ष बीच</w>
लो पटक</w>
पू रक</w>
टि फि
सुशा सनको</w>
प्रति केजी</w>
भो ज</w>
ग एकी</w>
अ न</w>
चि लो</w>
ख जु
साथी हरू</w>
ट्रा भल</w>
साबि त</w>
कार्य दलको</w>
२ २०</w>
गि रोह
एकलौ टी</w>
अर्ध शतक</w>
सञ्चारमाध्य म
इन् ट</w>
कोरोना विरुद्धको</w>
बलात् कारको</w>
स्क टिस</w>
बंगला देशमा</w>
त् तिका</w>
सहकार ीमा</w>
जन तामाझ</w>
ना री
भा त</w>
बि दाइ</w>
एका मध्ये</w>
ट्या क्टर</w>
चित्र ण</w>
हो टे
मि ति
चु नि
हि क्
जनप्रतिनिधि को</w>
सोभि यत</w>
का स्य</w>
हा लका</w>
पि छ
ति लो
त्र सित</w>
धा त्मक</w>
चल ्यो</w>
२०६ ५</w>
सह न</w>
चार ै</w>
पन ौ
ट हरु</w>
खा नाको</w>
भ ले</w>
बु वा
चाह ेका</w>
प्रा ज्ञ
कि एर</w>
सुम नले</w>
आव धिक</w>
पौडे लका</w>
जोड् दै</w>
चला एर</w>
जिता उन</w>
अभिभाव कले</w>
बा लेन</w>
ग्र ेस
सदस्य हरुको</w>
सन्दी पलाई</w>
प्र सङ्
निर्देशनालय ले</w>
लो जि
महिना मै</w>
जोड् दा</w>
समुद्र ी</w>
जनक पुरमा</w>
हाइड ्रो</w>
केन्द्र ीत</w>
लै मा</w>
निज गढ</w>
स्वास्थ्य मन्त्री</w>
गोरखा को</w>
राज पत्रमा</w>
उप्रे ती</w>
ं दैन</w>
धर् मको</w>
ब ो</w>
बस्ने तको</w>
पा थी
माग् दै</w>
के दार
वीरेन्द्र नगर</w>
बिज नेस</w>
ल्या पट
अ म्
नि धन
थ र्
न गर्नु</w>
२० ३०</w>
गुमा उने</w>
वक्त व्य</w>
गिरिजा प्रसाद</w>
स् न</w>
हिँ डेर</w>
खस् दा</w>
परिमा णमा</w>
खा मा</w>
वै वाहिक</w>
म तोमा</w>
आ विष्
गर्भ पतन</w>
२० ४८</w>
शाह ीको</w>
समय अनुसार</w>
लाइ भ</w>
ता के
नेतृत्व का</w>
उदाहर ण
सं चालक</w>
धा म</w>
छो रीले</w>
परि त्याग</w>
चाँ गु
समस्या बाट</w>
सि आइ
स्व भाव
हा ई</w>
पुर् न
भू भागका</w>
विदेश ि
विद्यार्थ ीका</w>
ल डि
ज्ज त</w>
क ्</w>
सार्वभौ म
इ नर्
क्रि यामा</w>
अब्दु ल</w>
अग्र िम</w>
हा फको</w>
एन्फा ले</w>
हस्त क्षे
बजे पछि</w>
कसै सँग</w>
ले स</w>
संसद ले</w>
बि ट</w>
ना ला</w>
टि भि
पर्व ता
भ न</w>
ठेकेदा रले</w>
थापा का</w>
युव तीको</w>
भित्रि एका</w>
पै साले</w>
दस्तावे ज</w>
हुनु मा</w>
फि दि
गु ला
अ सम्भव</w>
इन्स्टि च्यु
बाने श्वर</w>
गग नकुमार</w>
पुरुषो त्तम</w>
स्पे न</w>
वा ल
स्व देशमा</w>
प्रि ती</w>
आर म्भ</w>
उँ छौं</w>
महा न</w>
काला न्त
मो र</w>
मले न्द्र</w>
विधि को</w>
उप ज</w>
ञ् छ
गोल रक्षक</w>
दोहो र्या
सि पा
प्रतिबद्ध ता
इमान्दा र</w>
हक प्रद</w>
ट्वी ट</w>
गौतम बुद्ध</w>
ल्याइ एका</w>
लु का</w>
लगा उनुपर्ने</w>
डर लाग्दो</w>
अधि ग्रहण</w>
राज तन्त्र</w>
सिफारि श</w>
र् ना</w>
बौ द्ध
रह नुपर्ने</w>
राम पुर</w>
इलेक् ट्रिक</w>
निर् भर
स्र् था
अ स</w>
नवी करणीय</w>
क समेत</w>
के रु
खा नु</w>
दर् ताको</w>
मृत्यु दर</w>
रहे पनि</w>
शुद्ध ीकरण</w>
१ ६०</w>
फि जि
पोखरे ललाई</w>
छु ट्ट
प्र दीप
रु द्र
शि ष्टाचार</w>
खेलकु दको</w>
मच् छि
आर् य
लै ंगिक</w>
अला वा</w>
टु ङ्
हरु मध्ये</w>
टे केर</w>
ंग ी</w>
कानू नको</w>
सिरि जमा</w>
प्रकृ या</w>
क्यापि ट
ब न
विस्ता र
ले नको</w>
य स्तोमा</w>
राप्र पाको</w>
ह लि
तामा ङलाई</w>
द मन</w>
ी करणको</w>
धनकु टाको</w>
अध्यक्ष ता</w>
क लमा</w>
घ ृ
हरा उन</w>
ताली म</w>
प ्यू
नु लाई</w>
फैला उने</w>
न लमा</w>
शुक्र बारको</w>
क ब
प ड्
स् को</w>
बु ढी
पुनरा वेदन</w>
पर् नु</w>
लय का</w>
ति वारी</w>
देखि न्थ्यो</w>
पो सा
काम हरू</w>
ब्याट्सम्या न</w>
शी तल
इँ टा</w>
बता एपछि</w>
भृ कुटी
उ देश
जहि ले</w>
गु ल
भइ रहेकाले</w>
साता अघि</w>
क्वा लि
खा स्त</w>
कोभि डका</w>
रोमा ञ्च
के र
न पुर</w>
भै सकेको</w>
जना उने</w>
सम्बन्ध न</w>
नाय क
को ड</w>
ब गैँ
क्षेत्र ा
काफ् ले</w>
खे सो</w>
मुद्रास् फी
नजि कका</w>
सं सारको</w>
प्र ष्ट
लम्ब ्या
नेपा मा</w>
मत सहित</w>
रो जेको</w>
अनु दानको</w>
का हरू</w>
त प
एकद म</w>
रे लको</w>
बाँ झो</w>
बाढ ीको</w>
नेपाल स्थित</w>
जीवन शैली</w>
वि र्
फिल् मलाई</w>
डल रमा</w>
इ ले</w>
शिक्ष ित</w>
शुक्र राज</w>
हामी कहाँ</w>
मूल्य को</w>
हि ल</w>
झाँ क्र
प्रान्त मा</w>
बुध बारको</w>
क् सको</w>
लेक् सी</w>
इच्छा कामना</w>
हाम ्रो
कि एपछि</w>
गि ट्टी</w>
नो बेल</w>
ले लाई</w>
क सू
जावला खेलले</w>
स नलाई</w>
उप निर्वाचनमा</w>
ड् दै</w>
एमसि सी</w>
चो कका</w>
भ ्य</w>
निरन्त र
महि नाका</w>
अग्र णी</w>
मध्य ेका</w>
वा चा</w>
ञ ्</w>
ला लको</w>
महिला हरू</w>
मो क्ता
मजदु री</w>
श् वास</w>
आगलाग ीबाट</w>
ट मा
परा ज</w>
जन गण
लाल बाबु</w>
अ खण्ड
बि बि
एम सी</w>
राजधा नी
सफल तापूर्वक</w>
प नि
अन् वे
त रुण</w>
सा न्दर्
जस पाको</w>
ँ डा</w>
जित् दै</w>
बर्द घाट</w>
श ्</w>
शि वको</w>
भूकम्प पछि</w>
ग ङ्गा
महानगर मा</w>
हु नका</w>
न हर</w>
कि मि</w>
महिला तर्फ</w>
परि पक्
इ ड</w>
इस् ला
चला एका</w>
मिला एको</w>
कारवा हीको</w>
घटा एको</w>
मि साइ
जन बाट</w>
ज्य ू</w>
स्त ब्ध</w>
खु ट्टा
आकां क्षी</w>
वा कां
लोस पा</w>
ना प
तथ्याङ्क अनुसार</w>
डु ल</w>
प्रान्त को</w>
सूच नाका</w>
घर् तीले</w>
थे ँ</w>
पशुपन् छी</w>
शान् तिको</w>
स्टे शन</w>
डि न</w>
गर को</w>
ड कु
अर्का तिर</w>
सम्बन्ध का</w>
बचा उने</w>
बोला उन</w>
राज कीय</w>
त वरले</w>
पि च्छ
रे ख
तु वा
पक ड</w>
एक्का सी</w>
एजे ण्डा
माटो को</w>
गरि एपछि</w>
विनि योजित</w>
बाढ ीका</w>
निर्देशना लय</w>
यस तर्फ</w>
ा ले</w>
आउ नुपर्ने</w>
पीडि तका</w>
वर् ल्ड</w>
ज्या दै</w>
अडि यो</w>
राष्ट्रपति बाट</w>
राज वंशी</w>
आउ ट
वकाल त</w>
उप समूहको</w>
मोबाइ लमा</w>
शु रू
प्र संग</w>
दोस्रो पटक</w>
बन्द ीका</w>
पुस्त कको</w>
माइ ती</w>
पु डा
बालबालि कामा</w>
बाजु रा</w>
महा से
थापा थ
अँ ध्या
का वा
सा े
लागे न</w>
अ फ्
कञ्चन पुरमा</w>
मद न
चुना वका</w>
मा टी</w>
रेन् जर्स</w>
बा नियाँ
बुढाथो कीले</w>
जुम् लामा</w>
प्र स
चि उ
घा टामा</w>
घा र</w>
स् मा</w>
बा ली
हा तह
अरू ले</w>
लग ेका</w>
पुष्प लाल</w>
शार दा</w>
बता उँछ</w>
प्रति लि
रेल मार्ग</w>
दि नै</w>
एमसी सीको</w>
सहा य</w>
निगरा नीमा</w>
का सहित</w>
मह त्वको</w>
र्थ ी</w>
ू एच
न् छिन्</w>
पुन स्र्था
गो कुल</w>
हि ट</w>
निर्देशनालय का</w>
समु ह</w>
राखे प</w>
तो केर</w>
प्रतिनिधि को</w>
युक्रे नमा</w>
बेला सम्म</w>
सै निक
वीर बहादुर</w>
अर् डर</w>
अभ्या समा</w>
भट्टराई लाई</w>
ब लले</w>
खो लिएको</w>
पण्डि तले</w>
सी डी
ठू ला
जन गणना</w>
च्या नल</w>
अ ली</w>
या ए</w>
रा ता
उ कास्
उप्रे तीले</w>
हमा ल</w>
भूत पूर्व</w>
दि ँ
पद स्थ</w>
स सहित</w>
ै देखि</w>
क् सले</w>
सि क्ने</w>
मसान्त सम्ममा</w>
जस्तो सुकै</w>
उडा नका</w>
निधि ले</w>
स्व चालित</w>
प्या नल</w>
वे ल</w>
मै ला</w>
निय त</w>
प्या सि
जिल्ला स्थित</w>
कार ु
न् टन</w>
पारि एका</w>
प्रजन न</w>
एपी एफ
निर् मल</w>
बाल ्य
एन् टो
पुष् पा</w>
अस्त व्यस्त</w>
छिमे की
चे न</w>
भविष्य को</w>
सम्पर् कविहीन</w>
विधा नमा</w>
गरि रहेकी</w>
गणेश मान</w>
हाल ्यो</w>
नर सिंह</w>
विश्लेष क</w>
क ू</w>
जिल्ला लाई</w>
रिसो र्
य न्त्र
तिहा रको</w>
अमा द</w>
आपत कालीन</w>
लम् सालले</w>
डिया लो</w>
द य
ङ सँग</w>
बिहा नदेखि</w>
जना वर</w>
वा चन</w>
जमि नको</w>
गणेश प्रसाद</w>
छैट ौँ</w>
चला न</w>
बैत डीको</w>
व ण</w>
देख े
ब जारी</w>
व्यक्ति हरुको</w>
दिइ न्छ</w>
परिवार सँग</w>
टु क्रा</w>
बी स</w>
हु गिलले</w>
स्टे सन</w>
जिते की</w>
ताइ वा
बना इ</w>
ने बित्तिकै</w>
पे शी</w>
थपि ने</w>
चुरो ट</w>
संरक्ष क</w>
बता यो</w>
छु ट
कद म
कीर्ति पुर</w>
भूमि हीन</w>
श् वे
डाक् टरले</w>
क्षेत्र सँग</w>
टा उने</w>
बाँ च्
सबै तिर</w>
ट्र्या क</w>
भु मिका</w>
पु र्व
ढंग बाट</w>
व य
देव ता</w>
पराज य</w>
न्याय का</w>
वि श्रा
स्व च्छ
उहाँ हरु</w>
राज ेश
बाँध ेर</w>
गो ठ
अं क
वर्षे नी</w>
भा ई</w>
व श</w>
एक ले</w>
मु न्
भत् किएको</w>
प्रे मबहादुर</w>
आवा जलाई</w>
हा री</w>
ले नि
जी वितै</w>
हिजो को</w>
धादि ङको</w>
डि यो</w>
परि चालित</w>
जनसंख्या को</w>
मु द्धा</w>
आका शमा</w>
तै बाट</w>
जब सम्म</w>
वि कको</w>
ल् नु</w>
सम् मानमा</w>
बन्ध न</w>
लगा ए
भे टे
सी प
गार् ह
अभियुक्त लाई</w>
मे डल</w>
महा नगरपालिका
योग ी</w>
गुप् ता</w>
न ट
भ्रम ण
हेर चाह</w>
ं कित</w>
पुडा सै
अध्यक्ष समेत</w>
बर्ष ीय</w>
फो न
ह ्यु
घर बाहिर</w>
को दो</w>
ल र्
टि ङमा</w>
ख सी</w>
लो न</w>
ध्या मा</w>
जु वा
दुव् र्य
श रि
राजी व</w>
आ ले</w>
म रु
टुंग ि
अन्त्य े
खाद्या न्
रच ढा
क्या म्
नप रोस्</w>
सिमा नामा</w>
कर्णा लीको</w>
प का
बना उनु
तिहा रमा</w>
मतान्त रले</w>
गति लो</w>
सक स</w>
भि ङ</w>
दा सले</w>
भ्या ट</w>
म ता</w>
सडक खण्डमा</w>
कन् ट्या
न्द्र ा</w>
घण्टा सम्म</w>
छा त्रा</w>
न पा</w>
फे रिएको</w>
अल्प कालीन</w>
राष्ट्र वादी</w>
सड कलाई</w>
ग हुँ
दे वको</w>
सि ना
इ ङ</w>
बाल ीमा</w>
ति लक</w>
टेक बहादुर</w>
स्त र
सा क्षी</w>
बाध क</w>
पाउँ दैनन्</w>
को समेत</w>
नागरि कमा</w>
ं कर</w>
त्रिपाठ ीले</w>
रि ज
भए कालाई</w>
ङ्ग ्या
ब गर</w>
मार्ग बाट</w>
अनि ता</w>
कम रेड</w>
सन् देश
क्षति पूर्
लिम्पिया धुरा</w>
सांसद हरुलाई</w>
पद यात्रा</w>
स रु
बिही बारको</w>
ब द्धता</w>
डे टा</w>
महशु स</w>
खेल लाई</w>
गाउँ घरमा</w>
आकां क्षा</w>
घु मा
ब्राजि ल</w>
कर्मचारी हरु</w>
शा सनको</w>
इरा न</w>
भाष िक</w>
अह मद</w>
गत ेका</w>
नेपाली हरुको</w>
राम शरण</w>
नागरि कता
चा ई</w>
लम्बा इ</w>
सु शीला</w>
चि ज</w>
अर्थ सचिव</w>
द ्रो
परि पत्र</w>
परीक्ष ण
दा ताले</w>
र मण</w>
ग स्ती</w>
श्रो त</w>
शक्ति का</w>
ख ड
घा उ</w>
राउ ण्ड</w>
सद नको</w>
बजा रलाई</w>
सञ्जा लको</w>
करण ले</w>
माध्य मले</w>
जहा जको</w>
घरदै लो</w>
भेटि एपछि</w>
धा वन
सु देव</w>
डे रा</w>
सुविधा को</w>
पा लले</w>
धु र्
सह कार्यको</w>
प्राधिकरण लाई</w>
टेन् सन</w>
सुरक्षाकर्म ीले</w>
विभा जनको</w>
ब ञ्चित</w>
निर्णय बाट</w>
जंग ली</w>
टे न्ट</w>
जि तका</w>
उभि एका</w>
कार्यक्रम हरू</w>
भे ट्ने</w>
बन्द ु
कोरोना भाइरसको</w>
मिड फिल्
ल हान</w>
पन्त को</w>
अं कित</w>
विका सले</w>
भ ीले</w>
च र
ल लित</w>
कोभि ड
बुझा इएको</w>
ह ट
सम या
प्र ख्यात</w>
भ्रा तृ</w>
वर्ष िय</w>
निकुञ् जका</w>
भु षा
दिनु होला</w>
बिक्र ीका</w>
फ्रान् सेली</w>
ति रि
त्य हि</w>
क न
जीव न्त</w>
आ रि
कि रा
कर्पोरे ट</w>
वि च्छेद</w>
ति न</w>
भत्का उन</w>
के ले</w>
चो लेन्द्र
अनुसन्धान ले</w>
आ वेद
साथी भाइ
खो लाले</w>
दि ंदै</w>
भृकुटी मण्ड
चला उँदै</w>
१९ ४६</w>
बद्र ी</w>
निर ौलाले</w>
जोगि न</w>
मका लु
प्रालि का</w>
नि लम्बि
हा तपा
सङ्घ ीयता</w>
आ इ</w>
कन् सल्
जो शी
रा तिको</w>
रि ट
धर्माव लम्ब
पे टमा</w>
इ तर</w>
कलाकार ले</w>
भा उ
ना ली</w>
एयरलाइन् स</w>
स वै
आफू हरूको</w>
व चन</w>
आ लेले</w>
अमेरि कालाई</w>
सा क्षा
छरि तो</w>
त्य त्तिकै</w>
ह ु</w>
चा उचा
रिसो र्ट</w>
आसपा समा</w>
ती जन्य</w>
वित् तिय</w>
सि म्
सु दन</w>
बि गत</w>
शिव राज</w>
वि मलेन्द्र</w>
न भन्दा</w>
न्यायाधीश को</w>
ठा डो</w>
याताया त
स प्ता
यूएई ले</w>
द म</w>
भे ने
जय न्ती</w>
मा ता</w>
सञ्चार कर्मी</w>
हिं साको</w>
पुरातात् विक</w>
लगानीकर् तालाई</w>
न्ड ो
कर्मचा रीका</w>
माछापुच्छ ्रे</w>
को लम्बि
आन्दोल नले</w>
जी बी</w>
छ ँदै</w>
प्या ज</w>
बि चको</w>
पुस्ता का</w>
चौ ं
प री
ओ मान</w>
आ यु</w>
एकै दिन</w>
सध ै</w>
आ शी
सेवाग्राह ीले</w>
अ निश्चित
पद ीय</w>
तेजा बी</w>
आति थ्य
च प्प
जता त
सम् मै</w>
ठ े</w>
गरि दिए</w>
जस बाट</w>
ह्या ट्रिक</w>
बहा ल
खुट् टामा</w>
छा न्ने</w>
मा रिएको</w>
ग्लो बलको</w>
साउ द</w>
गरि एकाले</w>
निर्या तमा</w>
घ ट्न</w>
हिंसा का</w>
वा लको</w>
दा ङका</w>
जङ्ग ली</w>
बन्दा बन्दी</w>
दाजु भाइ</w>
रोग ले</w>
मानन्ध र</w>
अ स्वाभाविक</w>
नजिकि ँदै</w>
बू ढी
बरा ह
जो ग
लै या</w>
गौर वका</w>
खगे न्द्र</w>
सेवाग्राह ीलाई</w>
लि इरहेका</w>
दा ँ</w>
फर्कि एपछि</w>
प्ला स्टि
के न</w>
मर् ने</w>
राज ु
हस्पि ट
निलम्बि त</w>
बने पा</w>
रगत को</w>
युट्यु ब</w>
सहुलि यत
नवलपरा सीको</w>
दा ह
वास्तवि कता</w>
क वा
च ल्दै</w>
मना ङ
निरं कुश
न व</w>
जना विरुद्ध</w>
उभि एको</w>
गाउँ दा</w>
इन् स्टा
च्यालेन् ज</w>
ता स</w>
ब ब
थप ेको</w>
सं चार
सि ध्या
रौतह टको</w>
चो टि</w>
प्रक्रि याका</w>
हे ड</w>
श पथ
सुन्द री</w>
सेवाग्राह ीको</w>
च ट्टा
द्ध य</w>
हा नेर</w>
लिमिटे डका</w>
ट स्</w>
शा सकीय</w>
सर दर</w>
पर् साका</w>
सङ्क्र मित
भोग ेको</w>
शिशु को</w>
नाम करण</w>
उत्रि एको</w>
दा नबाट</w>
पार् कमा</w>
गर् नमा</w>
रो यल</w>
प्र ेसन</w>
अधिवेश नले</w>
अ जि
मो दी
प्रत्यक्ष तर्फ</w>
फर वार्ड</w>
नेदरल्यान् ड्
खड् कालाई</w>
ता सँग</w>
उत्पाद कत्व</w>
सुर्खे तको</w>
दा बी
ल हरू</w>
हा तबाट</w>
प्रति वाद</w>
किसा नका</w>
काठमाडौँ बाट</w>
अन्त्य का</w>
एक् लो</w>
अ मित</w>
संक्रमण कालीन</w>
के की</w>
मही ना</w>
भूकम् पका</w>
विश्वा समा</w>
अ झै
कम्पनी हरूले</w>
सेन् ट्रल</w>
फि ल</w>
माइ क्रो</w>
श् चि
सफ्ट वेयर</w>
सि इ
पूर्व पश्चिम</w>
स्वर्ग ीय</w>
पछ ी</w>
किना रा</w>
त्रिपुरे श्वरस्थित</w>
सा कार</w>
अलैँ ची</w>
झर ना</w>
ह वल्
विश्व मै</w>
सिम रा</w>
ै का</w>
पुर् जी</w>
अदु वा</w>
का लका</w>
ं ै</w>
ढि लाई</w>
माओवाद ीलाई</w>
० ७९</w>
ता न्ने</w>
दिइ नेछ</w>
प्या कु
पत्रकार ले</w>
ढ ीकरण</w>
वि मोचन</w>
गा ढ</w>
इमिरे ट्स</w>
नि यो</w>
ब स्तु</w>
विषय वस्तु</w>
माझ ी</w>
ब क्सि
लि इन्छ</w>
मार् ट
श्री मान्
चला इएको</w>
सेवा ले</w>
मतदा नको</w>
क्रियाकला पमा</w>
ँ ध
रोजा इमा</w>
इन् ड
शरी रका</w>
खड् ग
खो प
बना इरहेको</w>
२०६ ६</w>
खा नको</w>
ने हरु</w>
चो लेन्द्र</w>
एन जी
कि क</w>
लगानीकर् ताको</w>
चौला गाई
गरि नुपर्छ</w>
नक् सा
बाटो बाट</w>
श्रमि कलाई</w>
एम्बेसड रका</w>
सा रि
स्पि नर</w>
नेपाल ीहरु</w>
वृ द्धा</w>
विराम ी</w>
हेम न्त</w>
विमानस्थ लका</w>
गरा एपछि</w>
धा रको</w>
पढ ि
बिका स</w>
मा गे
मत पे
मानन्ध रले</w>
न लि
दल बाट</w>
तिहा ई</w>
घन् टा
स नबाट</w>
भि य
सुधा र
प्रति बन्धित</w>
अपरा धी</w>
नि हित</w>
न्त मा</w>
हाइड्रो पा
एनसे लले</w>
माइती घर</w>
ब लाई</w>
अन् यौ
अप्ठ ेरो</w>
से पछि</w>
विभाग लाई</w>
रेल् वे</w>
उद् दार</w>
ख न्ने</w>
सङ् खुवा
न लगा
भा स</w>
उ भ्या
युवा हरु</w>
राज को</w>
चुनौ तीको</w>
दा ई</w>
गरि न्थ्यो</w>
सके मा</w>
साह सिक</w>
इन्डोने सि
अ मे
बढि रहेका</w>
प ट्टी</w>
हैसिय तले</w>
हाराहा री</w>
रि क्षक</w>
जिते न्द्र</w>
ठाकु र
स्वय म्</w>
पाट नको</w>
आ एकोमा</w>
आ चरण</w>
च ीमा</w>
मि थ
उता रचढा
विना श
पु छा
को इला
माग ेर</w>
ति रबाट</w>
शा न</w>
पाउँ दैन</w>
बो ट
किशो री
दियो पोस्ट</w>
समाजवाद ीको</w>
विद्युत् को</w>
स्कू ल</w>
सुत् ने</w>
का लको</w>
पत्रि कामा</w>
उद्यो गी
अधिकार लाई</w>
प्रति वाद
म नको</w>
स् कार्
असो ज
से ल
ध नीलाई</w>
पहे ँ
संरक्ष ित</w>
छा क</w>
लडा कु
ग्रा उ
पूजाआ जा</w>
वकि लको</w>
घरधु री</w>
युव तीलाई</w>
अग्र वाल</w>
जहा जमा</w>
वि ला
निष् कर्ष
प्रजातन्त्र को</w>
रह ीन</w>
बाटो को</w>
गुज ्रि
सांसद हरू</w>
हा वी</w>
क लाको</w>
भुक्ता न</w>
जतात तै</w>
फाइ दा
हु नसक्
महिला हरु</w>
दिनु स्</w>
मोर ङमा</w>
विभा जन
वि मानमा</w>
सुर्खे तका</w>
आप्र वासी</w>
ऐ क्य
पुस्ता को</w>
रु ग्
दि एँ</w>
चाहि ं</w>
आत्मह त्या
ला ली
एक दिन</w>
बा ङ</w>
चौध री
क ताको</w>
अनेरास्ववि यु
न मान्ने</w>
नदी जन्य</w>
जस्ता को</w>
न हुँदै</w>
पिच्छ े</w>
बन् दे
जा नेको</w>
माथ ी</w>
सूर्य विनायक</w>
रा हा</w>
मे ण्ट</w>
रू सी</w>
रोमाञ्च क</w>
पुनर् गठन</w>
कम्युनि स्ट
स्ट्रा इ
रू ख</w>
लाल पुर्जा</w>
पक्ष ी</w>
नै ति
जु लाई
समा न
पश्चि मको</w>
गोल रहित</w>
गी तले</w>
ह ू
छा उ
दर्जन भन्दा</w>
आफै ंमा</w>
आरक्ष ण</w>
समे ट्ने</w>
इ मरा
हरा एर</w>
ट प</w>
बताउ दै</w>
जनमोर्चा का</w>
फ े</w>
ङ तर्फ</w>
ज क</w>
ना र्
जिल्ला कै</w>
बाटो मै</w>
साधारण सभा</w>
वर्ग लाई</w>
उनी सँगै</w>
दश ी</w>
सं गीतकार</w>
रवि न्द्र</w>
दामो दर</w>
कि नेको</w>
प्रयोग कर्ताले</w>
अभिष ेक</w>
च ेका</w>
द मी</w>
तारि खमा</w>
कने क्
खो लि
जोड ्यो</w>
सो सल</w>
ब ँ
भ ेसन</w>
कालो सूचीमा</w>
पञ् चे
परिस्थि ति
परीक्ष कको</w>
प्रय त्
कोटे श्वर</w>
दर खास्त</w>
शुभ चिन्त
रो डमा</w>
२० ५८</w>
संविधान सभाको</w>
अधिकार कर्मी</w>
राष्ट्र पतिका</w>
आसि फ</w>
उदाहर णका</w>
कार िता</w>
सुदृ ढीकरण</w>
त म्
उ नेमा</w>
अवसर को</w>
दल हरुको</w>
वनस्प ति</w>
प ीमा</w>
यस पटकको</w>
त्रि को
नियुक्ति का</w>
बोर् ड
ए स्
ल् दा</w>
मत भार</w>
पुष् प</w>
बे लैमा</w>
योज नमा</w>
खुला उने</w>
निटाइज र</w>
फाउण्ड ेश
बहु मतले</w>
मानिस हरुको</w>
गर्ने तर्फ</w>
नेपाल ीका</w>
पेन् सन</w>
बा दी</w>
फि ट
उभि ने</w>
सं क्षिप्त</w>
स्या ङ
अ धु
साक्ष रता</w>
आरो ही</w>
फेरब दल</w>
आ डमा</w>
सदरमु काम
वा लिङ</w>
प्रदर्श नका</w>
रे ज</w>
शृंख ला</w>
प्रति गम
हा इ</w>
अन्त रा
आदि को</w>
ताके ता</w>
भिडि ओ</w>
जा इ
भ्र ष्ट</w>
शुक्लाफाँ टा</w>
आँ सु</w>
साथ साथै</w>
भेट घा
ज ्यु
सना तन</w>
दर्जन ौँ</w>
ल डेका</w>
सावि कको</w>
रा धा
मे न</w>
ख गराज</w>
सोधि एको</w>
द्र् धन</w>
रि सा
च ना
मि ठा
कति ले</w>
ग्या लेक्सी</w>
गरा इरहेका</w>
संसद् ले</w>
तुल सी</w>
ग्या ँ
जवाफदे ही</w>
ब ग्
न् च</w>
सिलि ण्डर</w>
अ योग्य</w>
दा तृ</w>
परि क्ष
गर ोस्</w>
कुमा रले</w>
सर्वसाधारण का</w>
ख बाट</w>
स त्या
ल्याण्ड ले</w>
सिट ौलाले</w>
वि द्वा
गी तलाई</w>
भर् ती</w>
हर ित</w>
वै द्य</w>
अङ्ग्रे जी</w>
व्यक्ति हरूको</w>
रि यामा</w>
बि से</w>
ता बारे</w>
अन्तर् वार्ता</w>
शुरुवा त</w>
न दिँदा</w>
रि सर्च</w>
भारत तर्फ</w>
संरक्ष ण
प्रोजे क्ट</w>
सुरु देखि</w>
सा त्</w>
यो मा</w>
कन् ट्रोल</w>
बंगला देशले</w>
मार् चमा</w>
भो कै</w>
न दिएपछि</w>
द शन</w>
उत् थान</w>
गे श्वरी</w>
गर्नु पर्</w>
हर ै
गा मा</w>
क्या प्टे
श्व रको</w>
डा बाट</w>
य समध्ये</w>
प्लेट फर्
टक् कर</w>
साँ चो</w>
बिराम ीका</w>
स त
चा री</w>
रुपन्दे हीका</w>
लि इने</w>
ही ं</w>
सम्प दाको</w>
दर्श कलाई</w>
शशा ंक</w>
रि मा
महामा रीबाट</w>
लाल बहादुर</w>
पचा स</w>
उ छि
ता रे</w>
बैंक हरुले</w>
शै लीको</w>
कु न्
प्राप् तिको</w>
लुका एर</w>
दिला उने</w>
पहि ला
इतिहा स
अन धिकृत</w>
निर् जीवन</w>
धा मीले</w>
गोष्ठ ी</w>
कोषाध्यक्ष मा</w>
२ औँ</w>
भ ि</w>
यस हित</w>
खेलकु द
डेब्य ू</w>
चुनौ ति</w>
द ह
पढा ई</w>
साह लाई</w>
बूढा नीलकण्ठ</w>
अ प्रत्यक्ष</w>
० ०
धर्म निरपे
विराटनगर को</w>
विजय कुमार</w>
कान् छी</w>
चार् जिङ</w>
मना इन्छ</w>
मना उँदै</w>
ता न</w>
उहाँ हरू</w>
कावा सो
नि क्कै</w>
दि ए
सबै सँग</w>
२० ५९</w>
पुरुष लाई</w>
दी पा
सा यी</w>
मा ं
ला ने</w>
इन ँ</w>
से लि
दु ध</w>
पिसा ब</w>
ती र्थ</w>
द्ध न</w>
पट्ट ि</w>
जा ल
दो हन</w>
बुझ े
मकालु खबर</w>
अन सन</w>
एमसी सी
सि एका</w>
ल्याण्ड मा</w>
बन्द ो
छ क्का
पु नको</w>
राष्ट्रियसभा का</w>
दर्श ना
मंगल बारको</w>
वर्ष मै</w>
फर्कि एर</w>
एका इ</w>
प्रभाव मा</w>
गाउँ ले</w>
सदस्य हरूको</w>
आ ङ्
ग्रा म
क्या लि
रा धा</w>
दू त</w>
गि रीको</w>
श त्र
बे स्ट</w>
वर्ण न</w>
अनु बन्ध</w>
ल्याण्ड का</w>
तालि ममा</w>
पर् खि
छो राले</w>
शय ्या</w>
जिन्द गी</w>
उम्मे द्वार</w>
सत्य तथ्य</w>
काठ को</w>
कीर्ति मानी</w>
गतिविधि लाई</w>
ई लाका</w>
पर् साको</w>
पुटि नले</w>
समकक्ष ी</w>
उद्ध व</w>
मु ना
ग्या सको</w>
मिले मतोमा</w>
साथ ीको</w>
वल् र्ड</w>
थि यो
परि क</w>
जाँच बुझ</w>
भर बाट</w>
शेयर मूल्य</w>
प्रयोग का</w>
आव ्
छ ठ
त लामा</w>
बा म
ल गत</w>
थप ेर</w>
ला उन</w>
चोक स्थित</w>
म नी</w>
मानसि कता</w>
मुख्या लय</w>
ब ले
मे शि
बुझा ई</w>
भग व
कामदा रलाई</w>
भेने जु
राष्ट्र लाई</w>
झा डा
रहे न
अमेरि कन</w>
ह्रा स</w>
मावि मा</w>
ट हरू</w>
स्व स्
अ स्थिर
राष्ट्रियसभा मा</w>
ना माव
पुरस् कार
लि रहेको</w>
कोइरा ला
द ही</w>
ष् णु
कांग्रेस सँग</w>
ह ट</w>
पह लक
आ भार</w>
भरत पुरमा</w>
मर् कामा</w>
अर्घाखाँ ची</w>
कर्म ीले</w>
गे म</w>
२० ५२</w>
परि वर्
थ्र ी
भए लगत्तै</w>
ति रेको</w>
म ज्
व रबाट</w>
पुर लाई</w>
मा समेत</w>
नसके काले</w>
कोइरा लालाई</w>
विश्व भरका</w>
कुर् सी</w>
पाउ नुपर्छ</w>
दल बीच</w>
फो र</w>
ह ेको</w>
समा नान्तर</w>
वृ त्ति</w>
मे लाको</w>
कार्य शाला</w>
अन्र्त गत</w>
हिन्द ू
कृ त
सर सफाई</w>
ए आई
प रोप
नगरपालि काबाट</w>
पछिल् लोपटक</w>
पाण्डे लाई</w>
ति मीले</w>
अं कका</w>
न पुग्दै</w>
वि पिन</w>
बन्दर गाह
एजु केशन</w>
पा रे
विभाग बाट</w>
क माइ
वि चारमा</w>
मनो नीत</w>
पम् फा</w>
ब् लक</w>
गि नी</w>
शुल् कमा</w>
ठ गि
हजा रका</w>
राष्ट्र संघीय</w>
प्रयोग कर्ता</w>
ई बाट</w>
बिग्र िएको</w>
राख् नुभएको</w>
अधिकृ तले</w>
सदस्य समेत</w>
मे यरको</w>
ल खे
सेके न्ड</w>
स्थि ति
कीर्ति पुरस्थित</w>
मर्या दा
भ य
ओ पन</w>
का ण्डमा</w>
सक् थ्यो</w>
ना जु
पी एस</w>
भ न्</w>
अनु दान
ताप्लेजु ङको</w>
साह ्रै</w>
ँ बाट</w>
समे तलाई</w>
भैँ सी</w>
पूर्णि मा</w>
व्या ख्या
अभिभाव कको</w>
घुम् ती</w>
टा टा</w>
फु ड</w>
न होला</w>
घन् टामा</w>
हले सी</w>
ङ्गा मा</w>
गाई को</w>
अग स्ट</w>
नियमाव लीमा</w>
इञ्जि नी
द ती</w>
हरि कृष्ण</w>
आफू हरूलाई</w>
ली करण</w>
त् दै</w>
खटा इएको</w>
मा दक</w>
बङ्गला देश</w>
रसु वागढी</w>
मञ्च का</w>
मा डी</w>
था ल्ने</w>
न् टको</w>
हेर ेको</w>
ङ स्थित</w>
उप समिति</w>
बुबा को</w>
क भर्
प्रलोभ नमा</w>
ए प
लोक मार्ग</w>
रेश कुमार</w>
खो र</w>
व्या प्त</w>
गा उ
आत्म सात्</w>
मानिस हरुले</w>
अर् गा
अन्यो लमा</w>
भने जस्तो</w>
भैर व</w>
१९ ९०</w>
अपरा धको</w>
पेस्तो ल</w>
क री</w>
चपे टामा</w>
सी न</w>
भी षण</w>
जन सम्पर्क</w>
भइ सकेकाले</w>
लेखि एका</w>
तालिबा न</w>
इश् वी</w>
उड्डय नमन्त्री</w>
बाइ क</w>
कु ण्
हुँ दैछन्</w>
खबर दारी</w>
पोख री
प्राज्ञ िक</w>
मसान्त मा</w>
राख् छन्</w>
सौ राहा
नोभे म्बरमा</w>
उमेद वार</w>
प्रशास नलाई</w>
ट नले</w>
उहाँ हरुको</w>
पहा डमा</w>
देश ी</w>
भूकम् पमा</w>
स भ्य</w>
इ मे
फि न
खु र्सा
र् वाद</w>
चला उँदा</w>
दाबे दार</w>
व्या याम</w>
शा ही
मल् टि
चन्द्र मा</w>
भु त</w>
सङ्क्रम णका</w>
ओ छ्या
प्या ब्
प्ला ज्
कोरि यो
लेखे की</w>
रोजगा रमा</w>
बे रोजगारी</w>
वि हा
इजाज त</w>
आ आफ्नो</w>
घ ट</w>
लोक प्रि
चढ ्ने</w>
नेप्से मा</w>
मा याको</w>
वे ले</w>
सा निमा</w>
कता री</w>
उमे र
शुरु आ
ब ज्
वा ई</w>
तथ्याङ् कले</w>
रात भर</w>
पदाधिकार ीलाई</w>
तह देखि</w>
भे रि
कान् छा</w>
सुविधा का</w>
बो ले</w>
सदस्य सचिव</w>
पु रू
सिल वालले</w>
सुन्द री
इस्ला मिक</w>
न दीले</w>
वृद्धि मा</w>
ख सी
फर्का ए</w>
मि टरमा</w>
साह स</w>
अ मृ
कु टी</w>
सकि ए</w>
वाइ मा</w>
अफि स</w>
लक्ष ण
पुर की</w>
कोरि या
चि ङ</w>
अवस्था ले</w>
बगा एर</w>
भन् थे</w>
ह् वि
शास्त्र मा</w>
ी हरूले</w>
न् सन</w>
पा एन</w>
बाँ स
भनि रहेका</w>
हा बी</w>
इन्भे ष्ट
दा याँ
विद्यु तको</w>
एटि एम</w>
गि री
आत्म घाती</w>
गरा उनुभयो</w>
चार जना</w>
सम्मान नीय</w>
चल् नेछ</w>
वे स्ट
बि दामा</w>
२०६ ७</w>
प्रो टो
कृष िको</w>
वि मर्
चाँगु नारायण</w>
को टीले</w>
फु ट</w>
अश क्त</w>
दि ँदैन</w>
हिमा ल
नयाँ दिल्ली</w>
स कुशल</w>
गु णा
स्या उ
बैत डीका</w>
छो रो</w>
ऐ न
स्टा र्ट
धनुष ाका</w>
लोक ल</w>
निस् किएको</w>
स्पोर् ट्स</w>
खेलाडी हरु</w>
क्यान्सर को</w>
दस्तु र</w>
प्रतिनिधि सभा
टे कु</w>
पहि ल्यै</w>
आई एमई</w>
सु वास
हाल त</w>
डब् ल्य
क्रम श</w>
ला न्
परियोजना का</w>
ने तामा</w>
साँ स्कृतिक</w>
ं ग्र
मानिस हरूले</w>
लापर बाही</w>
जा न्न</w>
संविधान लाई</w>
त्यस क्रममा</w>
रघु गङ्गा</w>
डम्ब ना</w>
खा नामा</w>
पुँजी वादी</w>
ती ब्र</w>
घो डा
क्या मे
तल ब
न सक्छ</w>
न आएपछि</w>
प्र गाढ</w>
न ंको</w>
गा त्मक</w>
वित् तिकै</w>
बेहो रेको</w>
से तो
पार्टी सँग</w>
सु ु
ध्रु व</w>
र समेत</w>
अपरा जित</w>
साहित्य को</w>
बे हु
पहि राले</w>
रुपै ं
दि मिर</w>
हा तले</w>
दिदी बहिनी</w>
शुभे च्
पर् ला</w>
श्री कृष्ण</w>
बढा वा</w>
कानू न
इन्डि या</w>
जय न्त
यथा शीघ्र</w>
ति थि</w>
सञ् चित</w>
२०० ४</w>
इमान दार</w>
ज्ञानेन्द्र बहादुर</w>
बाने श्वरमा</w>
सुरक्षा कर्मी
शय्या को</w>
सजा यको</w>
प ङ्
मुकु न्द</w>
समा जिक</w>
खाँ णले</w>
सरकार बीच</w>
उप मेयरमा</w>
सि यो</w>
दिउँ सो
हातपा त</w>
नो स्</w>
सञ्चि ति</w>
परिवर्त न
दुःख द</w>
चो कबाट</w>
सिका उने</w>
जवा फी</w>
ए ड्
बसाइ ँ</w>
अचम् म</w>
जति सुकै</w>
का लागि</w>
नियुक्ति को</w>
सा नै</w>
वा सको</w>
मि ल्न</w>
अ पार्ट
निर ौला</w>
गर्नु हुँदै</w>
अ स्थिर</w>
फा ल्ने</w>
अनुगम नमा</w>
टो पी</w>
ग इसकेको</w>
खा नी
ष्ट ्र
डि ज</w>
सु ने
वर् गमा</w>
पाट नमा</w>
न खुलेको</w>
वा जे
रायमाझ ीले</w>
ज गत</w>
बि ष्ट
स्त े
गुजा रा</w>
सं ग्र
राष्ट्र मा</w>
नेपालगञ् जमा</w>
अप डेट</w>
दाँ त</w>
आशं कामा</w>
पोख राबाट</w>
भट् टको</w>
ना ता</w>
भाग ेर</w>
आरोप ित</w>
लि इरहेको</w>
क श्मी
द क्षता</w>
मतल ब</w>
साक्षा त्
अ ख
जुम् लाको</w>
इन्टरने टको</w>
वेबसाइ टमा</w>
बुँ दामा</w>
भारत बीच</w>
गर्ने ले</w>
बैंक हरूले</w>
मना इएको</w>
ल खन
ण्डा को</w>
हि रो</w>
आफै ँमा</w>
त्रिपाठ ी</w>
दवा व</w>
समयस ीमा</w>
उपमहा नगरपालिकाको</w>
एजे न्ट</w>
इटा ली</w>
इ काई</w>
मा ध्या
कम्पन ीबाट</w>
रिया ल</w>
सकि न्थ्यो</w>
रुघा खोकी</w>
डडे ल
स् की</w>
घर् ती
पै ठा
सीआई बी</w>
उल् लिखित</w>
तेह्रथु म</w>
खुवा उन</w>
घ ले</w>
चित्र बहादुर</w>
सु वालले</w>
सापे क्ष</w>
भाग ेका</w>
शी त
भे डा
पर का</w>
गम्भीर तापूर्वक</w>
सकि रहेका</w>
अ त्त
एक्का सि</w>
सामु हिक</w>
रि जर्
रण का</w>
वि प्रेषण</w>
नग द
परिवर्त नले</w>
करा ँ
ब म
पाल् पाको</w>
प्रेस र</w>
जा हेर</w>
जा हे
म्या दी</w>
द्वन्द् वको</w>
न लिई</w>
अहिले सम्मको</w>
ब लि</w>
० ८१</w>
नि जी
गरि सकिएको</w>
ग्राहक हरुले</w>
ठकु री</w>
फो र्ड</w>
जो ङ</w>
सार् की</w>
पर् सामा</w>
अव स्थ
फै ल
उत्साह जनक</w>
उ ठाउँ
छु टेको</w>
एन् टी
सेन् से
सहुलियत पूर्ण</w>
चय नका</w>
दुव्र्य व
ल गे
सामा ग्र
गति शील</w>
न राख्ने</w>
सम्मेल नले</w>
देखा ए</w>
रोह ण</w>
फाइ बर</w>
राज्य बाट</w>
देख े</w>
चढ ेको</w>
इंग् लिस</w>
उने लाई</w>
अ ठो
जु ध
इ न्द्र</w>
सु चना</w>
स्टा फ</w>
सुवेद ीको</w>
घो डा</w>
लक्ष् मण
ज रले</w>
ँ दैछन्</w>
ना व
बद लि
बाबु को</w>
दा ताको</w>
मि चेर</w>
सिरि जको</w>
सु जन</w>
मु केश</w>
चाह नुहुन्छ</w>
ढिलासु स्ती</w>
क्षेप्या स्त्र</w>
अग्र वालले</w>
क्वार् टर
गुमा ए</w>
औ जार</w>
ब्यु ँ
बह समा</w>
ण ्य
ग ज
प्रदीप कुमार</w>
क मार्फत</w>
१ ३०</w>
नुवा कोटको</w>
स्वास्थ्यकर्म ीले</w>
उत्पादन मूलक</w>
टाइ म्
थ प्न</w>
उडा नको</w>
स्प ेस</w>
नपा उँदै</w>
परा स्त</w>
२०० ६</w>
बन्दी पुर</w>
खेलि रहेका</w>
मरासि नी</w>
छ ली</w>
जन वादी</w>
बि रुद्ध</w>
देउवा सँग</w>
नव जात</w>
कार् बन</w>
तथ्यां कमा</w>
बजे टबाट</w>
सक् नुभएको</w>
भाव नात्मक</w>
त् मा</w>
उद्धा रमा</w>
पृथ्व ीको</w>
ख िक</w>
योग ेन्द्र</w>
अभि मुख
ओ डि
२० ४९</w>
एक्सचे न्ज</w>
सं सा
तपाई ँ
ब्रा ण्ड</w>
ज लेश्वर</w>
ए अर
सवारी साधनको</w>
ति एको</w>
लिम्ब ु</w>
सम् मलाई</w>
भव न
अग्र स्थानमा</w>
व्यक्ति बाट</w>
अचे ल</w>
पाल क</w>
झु क्या
स्था पि
सुर् तीजन्य</w>
लिम्ब ू
म न्थ
पर्व लाई</w>
बंगला देशको</w>
अगु वाइमा</w>
कठ ्
बेलाय तका</w>
कांग्रेस की</w>
आत ङ्क
पहिचा नको</w>
बहा ना</w>
प्रतिवेद नअनुसार</w>
जोड ीले</w>
ल्या यो</w>
म कर</w>
मेह न
पर्यट कका</w>
नेक पामा</w>
पोर् ट
आ ध्या
गान् धी</w>
मा नेको</w>
ब्रि टिस</w>
द्रु त
कन्ट्या क्ट</w>
हा ते
लि ला
हिजो आज</w>
भ् ला
साम स
त्का लीन</w>
क्वारेन् टिन</w>
प्यासि फिक</w>
दुइ टा</w>
नियन्त्र ण
दि ग्
पि पि
ब्रा ह्
वि हार</w>
स ब्
स् ड</w>
आ क्रा
एक मु
भा ग्न</w>
उँ न</w>
स्थ लबाट</w>
अल आउट</w>
तिम् सिना</w>
बहाल वाला</w>
पन मा</w>
न्त कृत</w>
महेन्द्र नगर</w>
छा डेपछि</w>
भेट ेका</w>
दा रले</w>
हरि बहादुर</w>
कमि टी
ग्रह को</w>
उदय पुरमा</w>
आरि फ</w>
शि ल
श्र मको</w>
सोला र</w>
ता हरू</w>
ज् वल</w>
यथा वत्</w>
बु खैरे
निर्मा णले</w>
ग ीको</w>
को णबाट</w>
शाह ीलाई</w>
रोनाल् डो</w>
विश्व कप
हाउ समा</w>
बल राम</w>
सं ञ्
प्रशास नमा</w>
कास्क ीमा</w>
गो प
पाइ एपछि</w>
ब मबहादुर</w>
मी ठो</w>
बहादु रको</w>
ै नन्</w>
पूर्ण पाठ</w>
देवकोटा लाई</w>
हि ने</w>
निर् देश</w>
अ प्रत्या
फि चर</w>
मल् लको</w>
प्रति कित्ता</w>
जति सक्दो</w>
प्र वी
एस एमएस</w>
फोर जी</w>
धा नि
भो ली</w>
य ज्ञ</w>
नुपर् थ्यो</w>
प्रे मको</w>
फेस न</w>
चौ ँ
हु स्
थु न</w>
ब्य हो
वासि ङ्
ज तिबेला</w>
या इ
संस्था हरुले</w>
कडाइ का</w>
ब्या ं
प्रति रक्षा</w>
आ एका
आइसि सी</w>
मृ गौ
प्रभाव कारिता</w>
नाइ ट</w>
उ तै</w>
ब्यव स्था</w>
चन्द्रा गिरि</w>
कालो बजारी</w>
खोजि रहेको</w>
बाने श्वरस्थित</w>
ज रू
माओवाद ीबाट</w>
मकवान पुरका</w>
शनि बारदेखि</w>
डेन मार्
पश्चि मका</w>
आर् मीका</w>
से फ</w>
स्व भाव</w>
मोर्चा को</w>
छि टै</w>
जीवन या
एनसे लको</w>
ज हरू</w>
सु दुर
बसो बा
बुझा उनुपर्ने</w>
आ दर्श
बार ै</w>
दि एकाले</w>
सुना रले</w>
तपाई लाई</w>
सा गमा</w>
मा दी</w>
पर्य वेक्ष
बैत डीमा</w>
रु को</w>
ञ् जल
राख् नुभयो</w>
धरा पमा</w>
सेक्यु रिटी</w>
गोर ख
पार स्
दिल् लीको</w>
विस्ता रित</w>
मौ खिक</w>
आ दान</w>
संसार भर</w>
फर्नि चर</w>
अध्या देश
्य ू</w>
लि याको</w>
फैस लामा</w>
गल कोट</w>
ष ड
व ता
ओमिक्रो न</w>
गरा उँछ</w>
ा त्मक</w>
शीर्ष स्थानमा</w>
कद मको</w>
उँ दैन</w>
पत्रकारि ताका</w>
वर्षा सँगै</w>
त् मिक</w>
कर् जा
इरा नी</w>
ज्या ला
बु र्
म झु
रिपोर् टिङ</w>
बढा उँछ</w>
कर् स</w>
प्रदर्श नको</w>
प केट</w>
संशो धित</w>
ती बाट</w>
मूल्या ंक
सा ख</w>
न् सको</w>
किर् ते</w>
समेटि एका</w>
नेपाल की</w>
क्या ना
सुना उँछन्</w>
बिराट नगर</w>
घ टे
के जी
सद नबाट</w>
क्रि प्
कोरि याका</w>
ब डि
१ ४०</w>
वर् ण</w>
शा हरु
खे तीको</w>
बन्ध ु</w>
रा त्मक</w>
ग द्
हा फ</w>
रुपैयाँ का</w>
विभे द
फा राम</w>
केन्द्र बिन्दु</w>
स्वाय त्त</w>
खेलकू द</w>
ए कि
ना ताले</w>
२ ५
माक् र्स
धनग ढी
वि ष</w>
गण ि
कम्पनी हरुले</w>
ले की</w>
हो ईन</w>
योजना बद्ध</w>
सुरक्षाकर्म ीको</w>
पोशा क</w>
भत्का उने</w>
मत ीमा</w>
ना ई
सुनसर ीका</w>
तालि म
मातह तमा</w>
लेन देन</w>
थि इन</w>
पु ु
सेना नी</w>
भी मबहादुर</w>
ल्या एपछि</w>
बताउ नु
गा को</w>
च ू
त्रिको णात्मक</w>
निर्ण या
भे ल</w>
जन्मि एको</w>
डुबा न</w>
सर् त
झु ण्डि
कारबा ही
माध्य ममा</w>
सोलुखु म्बु</w>
सू चि
उनी विरुद्ध</w>
पल् टि
ब्याज दरमा</w>
१ २५</w>
म नले</w>
उम्मेदवा रका</w>
किटा नी</w>
बो ल्ड</w>
बीबी सीले</w>
वार देखि</w>
गी तका</w>
भिड न्त</w>
प्र वर्त
व्यापा रको</w>
त्यस भन्दा</w>
ढु ङ्गे
न्द न</w>
तनहुँ का</w>
मुस्ता ङमा</w>
सो ना
अति क्रम
शत कीय</w>
कब् जामा</w>
नेता बीच</w>
कुहि ने</w>
देश हरूमा</w>
गण ित</w>
भे लाले</w>
२० ५६</w>
गुप् ताले</w>
मिश्र ित</w>
उप करणको</w>
कामदा र
ज रको</w>
मन्त्रिपरिषद् मा</w>
ढल् के
हा रेको</w>
पर शुराम</w>
क बहादुर</w>
आफन्त लाई</w>
खप्त ड</w>
मे श्वर</w>
मर् न</w>
सिम कोट</w>
राय ण</w>
च का</w>
१ ८३</w>
तट स्थ</w>
थेरा पी</w>
मूल तः</w>
मा रेर</w>
लागे काले</w>
लोकतन्त्र मा</w>
सो चमा</w>
दौ डि
बन्दे ज</w>
पूर्व का</w>
मिना हा</w>
बेला बेलामा</w>
मा गि
जि ता</w>
दा याँ</w>
रो श
विश् वे
दू रीको</w>
दुःख ी</w>
आधिकार ि
हि ला
जन मुक्ति</w>
भ्र ष्ट
पश्चिमा ञ्चल</w>
प्रवद्र् धनका</w>
बर्दि बास</w>
लगा तारको</w>
आ ङ
चि त्त
सचि वलाई</w>
ण्ड ो
न भएमा</w>
ठ्या क्कै</w>
विद्यार्थी हरुले</w>
लि रहेका</w>
भित्र बाट</w>
लिङ्दे नले</w>
भि डभाड</w>
सुविधा सम्पन्न</w>
आउ ला</w>
डा उन
जना एकाे</w>
सबस्टे सन</w>
विश्वा स
तल माथि</w>
अल् टि
विवाद ले</w>
अ स्वस्थ</w>
जन धनको</w>
सुना एका</w>
राख् नेछ</w>
कर्पोरे सन</w>
वेबसाइ ट</w>
विद्यार्थी हरुलाई</w>
तर कारीको</w>
अनु सारका</w>
बि उ</w>
प्रधानमन्त्र ीसँग</w>
सि के</w>
खोजि रहेका</w>
हु नुपर्दछ</w>
गु म्बा
ति रको</w>
सोध े</w>
विष म</w>
मध्य पुर</w>
राजधा नीका</w>
युवा हरू</w>
अ टेर</w>
पाउ ण्ड</w>
ल हरु</w>
रकम बाट</w>
ए ले</w>
ख को</w>
प्रदेश स्तरीय</w>
समानुपातिक तर्फ</w>
दि ना
प्रति पक्षमा</w>
हु मा
श का</w>
बेच वि
वाग् लेले</w>
खब रले</w>
शो भा</w>
सक् दछ</w>
बलात्कार पछि</w>
कान् छ
कम ी
स्वास्थ्य लाई</w>
गल् फ</w>
टि पर</w>
जा गृ
रि चार्ज</w>
अपना उने</w>
अपना एको</w>
उन्न ति</w>
नि योग</w>
ना मका</w>
बा ल्
नर् स
सम वेदना</w>
सडक खण्डको</w>
सक्रि यतामा</w>
हस्पि टल</w>
कर्मचारी हरुको</w>
रो ज
अग्र सर
ब्राजि लमा</w>
एक जनाको</w>
गरि ए
ग्रि न</w>
क् टे
पुगि सकेका</w>
नवल पुर</w>
हानि कारक</w>
कर्मचारी हरू</w>
ज मान
तु म्बा
मानि न्छन्</w>
ग्राहक हरुलाई</w>
गु न</w>
गा र्ड</w>
अ बि
ग इरहेका</w>
उद्धा र
मे रु
ट्रे डिङ</w>
गे ट
बा सीले</w>
राह तको</w>
न हर
तु ल्याउन</w>
को टबाट</w>
सि एर</w>
लि एकी</w>
समे तका</w>
भाष ित</w>
अर्थतन्त्र का</w>
बो क्न</w>
से टिङ</w>
स्वास्थ्यकर्म ीलाई</w>
चाह न्छौं</w>
घ डी</w>
फ्रान् सको</w>
धौ लागिरि</w>
स ट
कार्यक्रम बाट</w>
न वा
गरा उनुभएको</w>
के रा
ब हन</w>
ज्ञा नको</w>
गर्दा गर्दै</w>
अ ढा
या चना</w>
क्रा इ
अमेरि काबाट</w>
धु म
करा रमा</w>
स तहमा</w>
लि प</w>
साहित्य मा</w>
तिलो त्तमा</w>
नगर ेपछि</w>
ल त्ता
ऊर् जाको</w>
ग फ</w>
एफ सी</w>
गोल भे
क यौं</w>
२० ५१</w>
मो डे
प्रकरण को</w>
चक्र पथ</w>
शम् शेर</w>
का ण्ड
स्वा धी
फ्र ि</w>
बहरा इन</w>
श्रीम तीलाई</w>
झाडा पखा
भि जिट</w>
मन परी</w>
पञ्चा यत</w>
राजि नामा</w>
पारदर् शिता</w>
शत्र ु</w>
जा तिका</w>
छक्का सहित</w>
चेत नाको</w>
ए आईजी</w>
ओखल ढुंगा
गो ठा
सय देखि</w>
क्याम्प सको</w>
नुपर् दैन</w>
देव ले</w>
सांग ठ
कर्त व्य
जम ेको</w>
भ य</w>
सा री</w>
पठा ए</w>
कृष् ठ</w>
त्यस पछिका</w>
प्रभा वित
माल्दिभ् स</w>
पर् सन</w>
व्यक्ति हरुलाई</w>
पा उँदै</w>
कै दी</w>
कता रको</w>
साता सम्म</w>
अर्थ मन्त्रीले</w>
वं श</w>
चर् च</w>
झ र्ने</w>
बो लाइ
समयाव धि</w>
ब्ल्या क</w>
अर्गा निक</w>
ङ्ग को</w>
प्रर् दशन</w>
व ल
आत् मा
चितु वा</w>
बा लेर</w>
टु ङ्ग्या
समा तेर</w>
मलेसि याको</w>
शेर धन</w>
म्याग् दीका</w>
मा गको</w>
अस्पताल मै</w>
सेन्से टिभ</w>
मन्त्री हरु</w>
पु ष</w>
ँ डा
सरकार कै</w>
कु म्भ</w>
अधिकारी हरू</w>
बर् तौ
चौ डा
बागलु ङमा</w>
पट कमा</w>
मुद्रास्फी ति</w>
ड र्
सवा रीको</w>
आउ जाउ</w>
इन्जि न</w>
म र
दि नेछन्</w>
मा नुष
भूमि का
औस तमा</w>
० ७२</w>
एनआर एन</w>
उ ति</w>
स वि
हर े</w>
सहमति अनुसार</w>
सांसद हरुको</w>
ता माथि</w>
सं रा</w>
स्याङ् जाको</w>
इँ दैछ</w>
चेपा ङ</w>
लडा कु</w>
निस् किएका</w>
चौपा या</w>
अर्थ पूर्ण</w>
सि सी</w>
कोटा को</w>
नि दा
धि का</w>
बुझ् दै</w>
द् वारी</w>
परिवर् तित</w>
हा नेको</w>
रेस्टु रेन्ट</w>
ल्यापट प</w>
न्यायाधीश ले</w>
नम् वर</w>
मापदण्ड को</w>
छ पाइ</w>
सन् ध्यामा</w>
जोखि मलाई</w>
फ लाम
इ पि
१ ३३</w>
नाट कमा</w>
पोख ्
फोहो र
झड पमा</w>
यस र्थ</w>
फार् ममा</w>
दूतावा सको</w>
मी नबहादुर</w>
ए ट्
मन्दि रका</w>
न करा
अधि नायक
ड ु</w>
२० ००</w>
गा जा</w>
सु म्पि
चन्द्र बहादुर</w>
क रु
लुटपा ट</w>
महाधिवेश नले</w>
ध्रु व
कागज पत्र</w>
मो ती
एनआई सी</w>
नेपालगन् जमा</w>
अवै धानिक</w>
सहर का</w>
चेतना मूलक</w>
म्यानेज मेन्ट</w>
ट न
कु रि
पु स
सि यन</w>
कार्यका लका</w>
डब्लु एच
सीता राम</w>
मूल्य मान्यता</w>
सञ्चार मन्त्री</w>
मध्य वर्ती</w>
कम् बो
दश ौं</w>
सू त्र
आरक्ष णको</w>
सर्वाे च्च</w>
२ ४
सभा पतिका</w>
अन्तर् वार्तामा</w>
प्राइ म</w>
जन वरीमा</w>
चु र</w>
हु दा</w>
सङ् गठित</w>
जरू री</w>
न्तरण का</w>
सिल वाल</w>
इटहर ीमा</w>
मो डा
डिसे म्बरमा</w>
ी हरुको</w>
भन्द ैमा</w>
संस्कृ तिलाई</w>
मर् जर</w>
चि प्
नि जको</w>
एक् सर
जुटा उने</w>
गाउँ दै</w>
बसाइ ँ
भ क्ति
पार् व
सञ्चारमाध्य ममा</w>
सु टिङ</w>
म कै
अफि समा</w>
वारि से</w>
चाइ निज</w>
सा ग
उहाँ हरूको</w>
फो हर
य र्स</w>
आ कारको</w>
योग को</w>
परि चाल
रू सको</w>
ढाँ चा</w>
पाठ मा</w>
सम्मेल नका</w>
पाट ीलाई</w>
मेन् टमा</w>
व्यवसायी हरूले</w>
मृत्यु पछि</w>
हेम राज</w>
चतु र्
प्रविधि बाट</w>
प्र कार</w>
आ देशको</w>
मन कामना</w>
गरि एन</w>
टे ष्ट</w>
श्री वास्त
नैति कता</w>
ति थि
बे चि
हु नसकेको</w>
सुरु मै</w>
त न्
झु टो</w>
पूर्वाधा र
सर् जि
राह ीमा</w>
पार् नुभयो</w>
पाउ नेछ</w>
भेटि ए</w>
मञ् जु
क्याप्टे न</w>
निगम लाई</w>
फ्या ँ
पञ्चा यती</w>
आउ नु
ह् वी
लाभ ग्राह
स्वे च्छा
परि भाषित</w>
संक्रमि तलाई</w>
इ स</w>
विश्वा सका</w>
धि न</w>
क्रि स्टि
ल् हा
श्री राम</w>
लम्ब ु</w>
सुरुङ मार्ग</w>
ग ढी
१ ६५</w>
सं चाल
क्या ले
ण् य</w>
निलम्ब नमा</w>
अँ गा
बोलि भि
फ सेका</w>
हाल लाई</w>
ध मि
्य ु</w>
हा को</w>
ढुंगा नाले</w>
खा तु
न आउँदा</w>
पै सा
व्यावसाय ि
वितरण का</w>
आईजी पी</w>
पठा इने</w>
काभ्रेपलाञ् चोक</w>
गाउँ गाउँमा</w>
सो हि</w>
हे रे
टो लका</w>
जन उत्तरदायी</w>
लो पो
देखि न्थे</w>
फ् ल
चलि रहेका</w>
त टमा</w>
ध्व ज</w>
गोल्ड कप</w>
सोसाइ टी</w>
मञ्च न</w>
रह स्य</w>
सेवा हरु</w>
भि यत
सर्ला हीका</w>
खाँदबा री</w>
ट नेल</w>
साँझ सम्म</w>
ऐ रीले</w>
अन न्त</w>
जि सीले</w>
सांगठ निक</w>
सान्दर् भिक</w>
स स्तोमा</w>
बि रोध</w>
जागि रमा</w>
उपलव् ध</w>
ट रे
दर् ताका</w>
सम्भाव नालाई</w>
क ठा
घा ई
आज भोलि</w>
वाद ले</w>
हु न्छु</w>
मजदु र
ध क</w>
महा संघ
हातह तियार</w>
डेलि भरी</w>
पपु वा</w>
सञ्चारकर्म ीसँग</w>
संस्था नले</w>
२० ४७</w>
टि ने
ड ल्
टो लीबाट</w>
भाव नालाई</w>
े ले</w>
आँ बुखैरे
बृह त</w>
पहेँ लो</w>
पा ली</w>
सं गीत
आयोग बाट</w>
क पुर</w>
सा उनको</w>
कि रात</w>
न भ्या
ग्र ो
फ ण्ड</w>
श वको</w>
हि रा
टो खा</w>
रह ँदैन</w>
इटा लियन</w>
सौ र
प्र ब
पु त्र</w>
प्रा ण
म्यानपा वर</w>
पर्यट नमन्त्री</w>
ी हरुले</w>
सक् न</w>
हुनु ले</w>
चप्प ल</w>
ए सको</w>
तृ तीय</w>
अर् ग
कानुन बमोजिम</w>
फर क
बन् नुपर्ने</w>
गुरु ङ
अफगा न</w>
कु नामा</w>
के टी
दा नलाई</w>
उन ै
कार् ड
भि सामा</w>
सा नेपामा</w>
बाला जु</w>
पुन रु
मनो वैज्ञानिक</w>
भोज पुरको</w>
बस ्या
गत तर्फ</w>
मै थि
राइ ज</w>
बुझि न्छ</w>
रे टिङ</w>
संस्था हरु</w>
अप्रि लमा</w>
धर हरा</w>
सङ् कट
कर् णले</w>
हरु सँगको</w>
म निष
उत् कृष्ठ</w>
रमा उने</w>
भए यता</w>
पदार्थ मा</w>
प्रचण्ड सँग</w>
सिवा कोटी</w>
डिपि आर</w>
अग् ला</w>
परिस्थि तिको</w>
मैना ली</w>
मह ंगो</w>
हि स्
आ जीवन</w>
हरा उने</w>
हा नि</w>
सि ङ्गा
कार् टु
लेख राज</w>
न् डि
उत् ख
जम रा</w>
विज्ञप्ति मार्फत</w>
प्रणा लीले</w>
ब्याटि ङको</w>
ब्रि ज</w>
काभ्र ेको</w>
च लित</w>
भाव ुक</w>
आत्म सात</w>
भा ग्
हरू सँगको</w>
१० ८</w>
मधेस का</w>
अन् त</w>
घु इँ
पर्खा इमा</w>
लोडसे डिङ</w>
मु रा
य ि</w>
ड्रो न</w>
हुला क</w>
भे न</w>
संस्था हरू</w>
नि ष्ठ</w>
तालि कामा</w>
वर्ष कै</w>
सु ति
भ्या ली</w>
सन्ता नको</w>
आमन्त्र ण</w>
दौ रान</w>
रिपोर् टर्स</w>
गौत मका</w>
गं ज</w>
आया मिक</w>
फर् केपछि</w>
दाय क</w>
अ म्बि
रो प्ने</w>
कमा एका</w>
गोल् डेन</w>
चा मलको</w>
ब ललाई</w>
द् वी
संयन्त्र को</w>
ड म्बर</w>
तृ ष्
गण्ड कीका</w>
खु सीको</w>
स भाग
अनुशा सित</w>
अवस्था बाट</w>
ए डी
कि च
घण्टा पछि</w>
सह प्रवक्ता</w>
धु ने</w>
ऋण पत्र</w>
वर् क</w>
पूर्व राजा</w>
रि फर</w>
वि क्रे
रमे श
पूर्व राष्ट्रपति</w>
ऋ तु
लि ने
पठा उँदा</w>
प त्तो</w>
बजे टका</w>
मध्य म
सम्बो धनका</w>
जीवन स्तर</w>
स को
भनि यो</w>
पर्व तीय</w>
परि वेश</w>
ले श</w>
बे ं
शहर को</w>
एन पी</w>
परि र्व
ट मार्फत</w>
प्राइ भेट</w>
देखा इ
बा रा
रह ोस्</w>
कानुन मन्त्री</w>
क न्या
ज गमा</w>
सु डा
फु ल्
हता रमा</w>
व लीले</w>
पूर्वाधा रमा</w>
वै ठ
छोरा छोरीलाई</w>
थे ं</w>
आविष् कार</w>
हु न्थ
दि ष्ट</w>
तस् विर</w>
छा ती</w>
जब रा</w>
सश क्
मे ट्रि
सम ्रा
नेता हरुसँग</w>
उठा न</w>
ब े</w>
दा खि
नेदरल्याण्ड ्
सड कमै</w>
काग ती</w>
समे ट्न</w>
दू धको</w>
विद्यार्थ ीहरु</w>
नुपर् ला</w>
मना थ</w>
पूँजी गत</w>
शक्ति मा</w>
हटा इ
विरो धका</w>
कार्यक्रम मार्फत</w>
विकल् प
न जर
परि योजनाले</w>
भ ीको</w>
रामा य
सी धै</w>
मौ री
य त्रो</w>
सु दर्शन</w>
आर् ट</w>
टोली सँग</w>
निशा न</w>
तो क्न</w>
महिला माथि</w>
ब ं
योजना अनुसार</w>
महाराज गञ्
रहस्य मय</w>
प्रो फेस
ट्रा यल</w>
नाफा मा</w>
प्र कारले</w>
मन्त्री हरू</w>
पर्या व
अ लिक</w>
ज्य ूले</w>
प्र ण
कपिल वस्तु
फ् ल्या
भएका मध्ये</w>
समावे शी
भूमि को</w>
जे लको</w>
देखि एमा</w>
एक्ल ैले</w>
भाडा दर</w>
अब का</w>
ड ब
डुब ेको</w>
टे ण्डर</w>
ह कको</w>
चि रञ्
गाई घाट</w>
शो ष
मे का
नि द्रा</w>
खु लेपछि</w>
णा मा</w>
ठ म्या
उपाधि का</w>
मो टो
गर्ने हरू</w>
सा नदार</w>
ढ लान</w>
अव रो
पाथी भरा</w>
मत परिणाम</w>
ता लु
न लिएको</w>
सु बि
अनु वाद</w>
सातदो बाटो
यी मध्ये</w>
न् सले</w>
साबु न</w>
महोत्त रीमा</w>
कुखु राको</w>
अव रोध
आइसोले शनमा</w>
लिभरपु लले</w>
इमरा न</w>
चो ट
नि शा</w>
लि ङ्ग</w>
सू चित</w>
वाइ डबडी</w>
उनु होस्</w>
से नको</w>
कार्य कक्षमा</w>
२ १
भन् छु</w>
जन मोर्चा</w>
एमाले कै</w>
भोग् नु</w>
व्य ू
क् ती</w>
सदरमु काममा</w>
के बल</w>
संसद् बाट</w>
मै दान
स्क ीले</w>
को र्स</w>
सी जी</w>
वक् ताको</w>
सौन्द र्य
पो स्टमा</w>
सदस्य हरुलाई</w>
बा ट
फ णी
को खबाट</w>
क रका</w>
पुरस् कारको</w>
बा ले
सल्लाह कारको</w>
उप नेता</w>
न्यु रोड</w>
श नका</w>
आय कर</w>
परि सूच
पोख े</w>
एच आइ
ग्रा ममा</w>
ट्रान्स फर</w>
वन्यजन्तु को</w>
च कित</w>
सि नो
पदा वधि</w>
गर् छौ</w>
व रका</w>
हे क्टरमा</w>
नाजु क</w>
बिज नेश</w>
डि ए
चिनि याँ
धा ँध
सोध ्ने</w>
मेस् सीले</w>
उन समेत</w>
खोटा ङमा</w>
युरो पमा</w>
अवि लम्ब</w>
एन आइ
गरि न</w>
३ ५०</w>
स ति
हु वा
चाँ द
सय पत्र
स्थ ्य</w>
हरू प्रति</w>
मान सिंह</w>
काठमाण्ड ौं</w>
मि ना</w>
त्रैमा समा</w>
सो च्ने</w>
दृष्टि गत</w>
ठोक्कि एर</w>
जि यो
बै ङ्क
कर् फ
ब् वा
फे र्ने</w>
ट बल</w>
गो ला</w>
नगर ेर</w>
ठ हरि
का एको</w>
सा ई</w>
तेज बहादुर</w>
भि क्ष
मधु कुमार</w>
सुन्दर हरै
२० ५४</w>
आया मलाई</w>
बजारी करण</w>
संस्था हरूले</w>
बस् नेछ</w>
एकै साथ</w>
भुर् तेल</w>
मिले नियम</w>
निमार् ण</w>
गभर् नर
पूर्व तयारी</w>
प ू</w>
हु दैन</w>
वि सं
माग अनुसार</w>
विनाश कारी</w>
राता रात</w>
दि पेन्द्र</w>
सत्ता पक्ष</w>
सू क्ष्म</w>
यूएई लाई</w>
ङ्ग्र ा</w>
ं गोमा</w>
अराज कता</w>
ब्रा न्ड
संगठ नमा</w>
जो न
सश स्त्र
आव् हान</w>
युव तीले</w>
लोपो न्मुख</w>
च्या प्
ओ पी</w>
वाग् ले</w>
जन विश्वास</w>
कीर् गिस्ता
बे द
सिंहदरबार स्थित</w>
ख स</w>
आ न्द्र
न दिए</w>
निषे धित</w>
प्रिय ंका</w>
ती स</w>
बाँडफाँ ड</w>
अल्प संख्यक</w>
हि रे
सक् ने
संशो धनका</w>
ब्रह् म
टेक्नो लोजी</w>
दु ख</w>
ए थ
गु णात्मक</w>
भेट घाटमा</w>
े ं</w>
र् नुपर्ने</w>
उद्यम शीलता</w>
गैर कानूनी</w>
पढ ेको</w>
प्याराग्लाइ डिङ</w>
ला ज</w>
अर्जेन्टि ना</w>
सुष् मा</w>
जाँच का</w>
क्या बि
ली ला</w>
भाइर सले</w>
इजराय लमा</w>
सु नेपछि</w>
मेमो रियल</w>
चौ डा</w>
गोल किपर</w>
बि क</w>
सि द्धि</w>
पेरि स
भक्त जन</w>
प्रमुख का</w>
ल्यान्ड मा</w>
भाँ डा</w>
छै ठ
अर्जेन्टि नाले</w>
ब गाउँदा</w>
चौता री</w>
वा नमा</w>
का भा</w>
योजना अन्तर्गत</w>
बि मा
इनर् जी</w>
मस् र्या
स्थ लका</w>
घट् दो</w>
च ्यू
पर्व तमा</w>
मा न्दै</w>
मी ना</w>
रण नीति
सापकोटा को</w>
दे वा
दीपेन्द्र सिंह</w>
न् यमा</w>
या उँदै</w>
प्रवद्र् धनमा</w>
किलो मिटर
स्टे क</w>
कोठा को</w>
सात वटै</w>
क्र मिक</w>
लकडा उन
छा ड
गा भि
प्रणा लीका</w>
साथी हरूले</w>
एटी एम</w>
ज सो
ी हरूको</w>
सि कि
एसि याका</w>
मह ल</w>
भु व
व स्त
पा ल्ने</w>
र सा
सा ल्
कले जो</w>
ठ मेल</w>
स्कु लको</w>
त्यति खेर</w>
चै ते</w>
मुख्य तया</w>
जर् सी</w>
गु टे
त् से</w>
बि म
आइ पुग्ने</w>
मा उन्
कु श्मा</w>
जन्म ेको</w>
एमा ओ
ताल मे
स पोर्ट</w>
द रका</w>
अध्यय न
मोर्चा ले</w>
जु ले</w>
पाँचथ रको</w>
स् ट्रे
जापा नका</w>
मण्ड लमा</w>
पाइ रहेको</w>
कै दको</w>
संसद लाई</w>
झ िएको</w>
पे ले</w>
फ्रान् सका</w>
समस्या हरु</w>
अ ङ्ग</w>
गु फा
क्याम्प सका</w>
शीर्ष कको</w>
सम्झौता पत्रमा</w>
प्रतिरो धी</w>
पोर्चु गल</w>
मे रै</w>
गुमा उनेको</w>
टा ई
चौर जहा
सम्झौ ताका</w>
न या</w>
सु ँ
घुइँ चो</w>
उ नेछन्</w>
ब सले</w>
महामा रीमा</w>
नेपाल बीच</w>
वृ क्ष
मे ला
लि का</w>
मार् टम</w>
केही बेर</w>
वि राम</w>
समा धानमा</w>
आवश्यक ताका</w>
मोटरसाइक लको</w>
षड्य न्त्र
ल्या उनका</w>
१० १</w>
मानिस हरूलाई</w>
मानुष ी</w>
बेल्जि य
दा रको</w>
लो भ</w>
गा एर</w>
वा टर</w>
गोर् खा
स् कि
लघुवित् तको</w>
चे न्
सघा उ</w>
तिमिल् सिना</w>
प्रतिरो धात्मक</w>
रोकि यो</w>
स्वार्थ का</w>
छ ँदा</w>
न रेन्द्र
झा को</w>
के मा</w>
त्रा ले</w>
उद् द
स स</w>
भ लमा</w>
के न्
अध्यक्ष द्वय</w>
बागलु ङका</w>
आदेश पछि</w>
उ म
सुनसर ीमा</w>
अभिमुख ीकरण</w>
महा का
हजु र</w>
अर् की</w>
इजराय लले</w>
इञ् चार्ज</w>
तिब्ब त</w>
संख्या को</w>
झन्झ ट</w>
बि क्रम</w>
कर् जामा</w>
बु वाको</w>
के तिक</w>
इ भेन्
छानबि नका</w>
नगर स्थित</w>
का टिएको</w>
अ वा
ट् स
इन रुवा</w>
पारस् परिक</w>
भे ट्टा
निस्क ेको</w>
सह जी
राज वंश
उद्या न</w>
न्द ी</w>
बि शेष</w>
रे सु
बा रे
को र</w>
साथी हरुले</w>
यु रिया</w>
स्वयं सेवक</w>
सु धार्
मानिस हरूको</w>
भाष ाका</w>
आ न</w>
स्वय ंले</w>
डाइभर् सन</w>
पुनरु त्
दोल खाको</w>
बुबा ले</w>
प्रति रोध</w>
रि पब्लि
भ ै</w>
म स</w>
प्याले स्टि
उत् ते
नि लम</w>
भने ँ</w>
रो ज</w>
प्लाज् मा</w>
बा स्के
सभाग ृ
वर् ड</w>
प्रशास क</w>
मञ् जु</w>
वाद का</w>
टा यर</w>
अ निश्चित</w>
रा नाको</w>
वाद मा</w>
राना भा
राख् नका</w>
मास् टर</w>
ख ्य</w>
न लागेको</w>
रा उन्ड</w>
ता ज
उत्ख नन्</w>
चाह ेर</w>
निकुञ् जले</w>
बन्द ीले</w>
मंगल बारदेखि</w>
खेल हरु</w>
श्रीमा नको</w>
गर्नु हुने</w>
पुरुष तर्फ</w>
फल दायी</w>
ने त्र</w>
भिन्न ता</w>
विद्यार्थी हरू</w>
हाते मा
जर्म नीको</w>
छ न्त
अभियान अन्तर्गत</w>
प ीका</w>
यो भन्दा</w>
सो भन्दा</w>
सुन कोशी</w>
हिसा वले</w>
लिम्ब ूले</w>
डि टी</w>
पि क्
टो मा</w>
सि टीको</w>
कृष कको</w>
शंकर प्रसाद</w>
जुम् लाका</w>
बुटव लको</w>
वा ल्
पढ् दा</w>
९ ००</w>
नि याको</w>
बासिन्द ाको</w>
लो गो</w>
व्य स्त
भेटि न्छन्</w>
आलो पालो</w>
न बुझ
किना र</w>
छु टा
सर ा</w>
अन्तर देशीय</w>
व लोकन</w>
घ टि
या ङ</w>
आचार् यलाई</w>
तान सेन</w>
स् टी
च न
ध्य ा</w>
काङ्ग्र ेस</w>
खत रामा</w>
गरि एकामा</w>
उ दा</w>
काम काज</w>
काठमाडौं स्थित</w>
सूर् यको</w>
मे यरका</w>
चिन फि
ब ्य</w>
खु श
ला ङ
लेख े</w>
उनु परेको</w>
काठमाण्ड ौ
मै दानको</w>
वा ललाई</w>
अ क्षर</w>
संसद् का</w>
रु समा</w>
नबि त्दै</w>
टर् मि
सञ्चारमाध्य म</w>
कपिल वस्तुको</w>
हि टी</w>
संघर्ष को</w>
तथ्याङ् कमा</w>
ता रे
फ्रेन् च</w>
ख ी
म री</w>
आध्या त्मिक</w>
भैरह वा
कार्य पालिकाको</w>
राजा राम</w>
करण लाई</w>
अहिले कै</w>
पि कल</w>
टे न
रेड क्र
बा जा
शि शिर</w>
त रु
व्यावसाय ीक</w>
थि ङ</w>
चिन्ता मणि</w>
बेल् ट</w>
रि यो</w>
गरे कोले</w>
श्रा द्ध</w>
थि इनँ</w>
विराटनगर का</w>
चि सा
या उँछ</w>
पुत ली
प्रयो गात्मक</w>
करोड ौँ</w>
तो केका</w>
विरु वा</w>
निर्णय का</w>
स यमा</w>
ग एँ</w>
या न्त्र
सं कु
वाद लाई</w>
फो र्स</w>
ब्याटि ङमा</w>
तब सम्म</w>
बिता एका</w>
साध नका</w>
प्रवेश मा</w>
औचि त्य
तर कार
न्यू न
कुल प्रसाद</w>
ता नेर</w>
पा ल्न</w>
झि नो</w>
स् नो
घो ष</w>
आगलाग ीमा</w>
यहाँ सम्म</w>
आश्र ममा</w>
सुवास चन्द्र</w>
भारत सँगको</w>
स्वस्थ ्य</w>
भए को
दोहो र</w>
दु ष्
जना थ</w>
ह द</w>
कर्मचारी हरुलाई</w>
बढ् नुपर्छ</w>
फै लिने</w>
गे टमा</w>
इ न्दु</w>
प्रा र्थ
डे ड</w>
मूल्य का</w>
बता उन</w>
सार्वभौम सत्ता</w>
मूल्या ङ्क
तारि ख</w>
महतो को</w>
रात्र ि</w>
बाँ च्ने</w>
प् ट</w>
स् क्र
टर् की</w>
बनाइ यो</w>
प्रवृत्ति ले</w>
सि ड्
व्यवसाय ीहरु</w>
जेन् सी</w>
जग दी
मिला न</w>
मा याले</w>
त्रै मासिक</w>
बार ेको</w>
प्ला स्टिक</w>
मसान्त भित्र</w>
फो कल</w>
गरि एकाे</w>
राजदू ता
छु टको</w>
काठमाड ौ
आवा गम
जिते पछि</w>
नु वार</w>
स्कार् पियो</w>
चा ल्न</w>
ब् वाइ
शताब् दीको</w>
शै ली
या र्सा
बा गी</w>
फ स्
मुस्ता ङका</w>
कन्स्ट्र क्सन</w>
य मी</w>
टा न</w>
पि उन</w>
स्वा स्थ</w>
गाँउ पालिका</w>
डि पो
ठ ले</w>
एस का</w>
प िक</w>
गर्ने छौं</w>
को ल्
नी जि</w>
ते ज</w>
गरा उनका</w>
सिट ौ
द स
जोखि मका</w>
त्यसै मा</w>
० ७३</w>
फा ले</w>
हप्ता देखि</w>
महिला हरुको</w>
अन्त ः
अलग् गै</w>
महा सचिवमा</w>
फ्रान् समा</w>
भेट ेको</w>
लेखा परीक्षण</w>
गुप्त चर</w>
रजिष्ट्रा र</w>
जात्र ाको</w>
नर बहादुर</w>
लोकप्रि यता</w>
क तैबाट</w>
बार ले</w>
म ु</w>
नेवि संघ</w>
म ्युनि
सन्ता नलाई</w>
प्रयोग को</w>
खा पु
का बु
गुम ेको</w>
एसि यामा</w>
सान् त्व
काँकडभि ट्टा
सङ् गठनको</w>
संयोज कमा</w>
राष्ट्रिय ताको</w>
अपना उनु</w>
देउरा ली</w>
विष्ट को</w>
खा ल</w>
व्यवस्थाप कीय</w>
शिक्षा मन्त्री</w>
सेप्टे म्बरमा</w>
ओम प्रकाश</w>
दि वा
दा स
टा र्न</w>
मधेस को</w>
कला त्मक</w>
सुरक्षा लाई</w>
क माथि</w>
लकडा उनमा</w>
जनता प्रति</w>
न रले</w>
डो को</w>
छ र
घण् ट
सम्पाद नमा</w>
आइ पी
वे ल्
सम्प त्ति
मत भेद</w>
रा ठ
नि चो
काम पाले</w>
चढ ्न</w>
मानि एका</w>
गर्ने बारे</w>
व्यहो रा</w>
जि वि
सा ल्ट</w>
इन् थ्यो</w>
तना व
पा रा
सम्भाव ना
सं गत</w>
रिय लले</w>
न् ता</w>
एका उन्
म् ब</w>
वृ त्त
परिपक् व</w>
प्रयोग लाई</w>
रहेन छ</w>
डी बाट</w>
ली ला
पहलक दमी</w>
ए सी</w>
एपि एफ</w>
प सेर</w>
सर्व त्र</w>
ऐ नलाई</w>
ला मालाई</w>
महा भारत</w>
लोकतन्त्र लाई</w>
वा हित</w>
क् लिन</w>
दै ँ</w>
अग्र ज</w>
दिली प</w>
ह म्मे</w>
समे टेको</w>
ब्रि टि
सरकार विरुद्ध</w>
उत् सर्जन</w>
हि ल्
मञ्च ले</w>
सक् दिनँ</w>
लेख मा</w>
रोहि त
प्रतिवेद नको</w>
गु फा</w>
नर् भिक</w>
जित् दा</w>
शीर्ष क</w>
पस ेको</w>
राखि यो</w>
कामदा रले</w>
जन आन्दोलन</w>
आत ंक</w>
सुझा ब</w>
गुल् मीको</w>
व्यक्ति हरूलाई</w>
स् ट्रो
नि वेदन
पञ्चा यत
रास्व पाले</w>
हवल् दार</w>
संगठ नलाई</w>
चो टी</w>
बुँ दा
सुदूरपश्चि मको</w>
मस्यौ दामा</w>
ै ना
गौ र</w>
मलेसि या
ः ००</w>
सह ो
१४ औं</w>
छ टप
प म्प</w>
के सीका</w>
भाष ी</w>
प्र गतिको</w>
हरू कै</w>
दाखि ला</w>
छा डिएको</w>
डि एका</w>
बी माको</w>
डेमो क्रे
नगर ले</w>
छा पि
पंक्ति मा</w>
स ङ
फै लन</w>
डे ंगु
केबल कार</w>
गुण स्तरमा</w>
दा दु
कटा री</w>
खरिद बिक्री</w>
पा ख
वरि परि
आ शङ्का</w>
त्यस पछिको</w>
दुर् भाग्य</w>
ने श्वर</w>
कूट नीति
कि राना</w>
साइ ँ
डि आइजी</w>
ग्रह मा</w>
थालि न्</w>
भेट वार्तामा</w>
चि याको</w>
धु म्बा
मधेश मा</w>
चाड बा
गोकर्ण ेश्वर</w>
खुम् चि
आप त्ति
घाँ टीमा</w>
इन् जुरी</w>
स्रो तबाट</w>
दिन भित्रै</w>
दार् जि
फ सेको</w>
प्र दु
म्यारा थ
क्र मित</w>
जि त्यो</w>
जु नमा</w>
आल म</w>
है रान</w>
त पत्र</w>
लि इसकेको</w>
युनिय नका</w>
बाँ ड्ने</w>
मि तिले</w>
ौँ देखि</w>
हवा ई
रञ् जित</w>
देश सँग</w>
पाइप लाइन</w>
जनमान सको</w>
का ट</w>
ओ सी</w>
त मै</w>
श नले</w>
ध े
ना मै</w>
बालबालि काका</w>
नेपाली हरू</w>
वा सुदेव</w>
रिपोर् ट
कानुन अनुसार</w>
लो चन</w>
अम्बा नीको</w>
श्रम जीवी</w>
कोरि यन</w>
इतिहा समै</w>
एल पी</w>
मे ष</w>
तो के
भविष्य का</w>
बहु आयामिक</w>
भ वानी</w>
ल न्च</w>
दे ख</w>
अपरे सन</w>
क्षमता भन्दा</w>
फे दी</w>
स प्
बजा रले</w>
मही नामा</w>
खटा एको</w>
अनि लकुमार</w>
दि मागमा</w>
का मै</w>
केन्द्र विन्दु</w>
बिर्ता मोड</w>
बो तल</w>
मध्या वधि</w>
मो टो</w>
नपा ए</w>
२० ५०</w>
खेती का</w>
गैँ डा
लिभर पुल</w>
क ष्ट</w>
मङ्गल वार</w>
दु इ</w>
गरि बीको</w>
लगा एकी</w>
रोय ल्टी</w>
१ ८०</w>
आरोह णका</w>
त्यसै लाई</w>
भु जेल</w>
छन्त ्या
सह कार्यका</w>
ब ्रो</w>
था है</w>
ब्ल ड</w>
मेन् टको</w>
पेशा गत</w>
युनिय नको</w>
प्रतिष्पर् धा</w>
निर्या त
प्रलोभ न</w>
सङ्क टमा</w>
सर् प</w>
आ श</w>
निय मको</w>
मध्य रातमा</w>
सञ्चाल कले</w>
ब स्यो</w>
वा गम
पी डा
आईत बार</w>
पौ रा
मि ल्यो</w>
क् तको</w>
हे लम्बु</w>
रोक् नका</w>
भ्रष्टा चारमा</w>
ष्ट र</w>
अनु कुल</w>
वर्ष हरूमा</w>
द राज
चि ह्
अस् मिता</w>
सूर्य बहादुर</w>
प्रजा ति</w>
मिडफिल् डर</w>
भ या
मिसाइ ल</w>
लार् इ</w>
सञ् चय</w>
विज्ञ हरुले</w>
अव गत</w>
सङ् कल्प</w>
डीपी आर</w>
भ्या लेन्
ठाउँ ठाउँमा</w>
तत् पर</w>
याताया तमा</w>
प्र म</w>
आवश्यक तालाई</w>
सातदो बाटो</w>
रो बर्
फर् केको</w>
प्रवर् धन</w>
ट ू</w>
कार्य क्षेत्र</w>
रिक् सा</w>
मगर लाई</w>
काउन्सि लले</w>
परमा देश</w>
पि स</w>
साइ त</w>
कार्य न्व
नक आउट</w>
विके ट
जे ट</w>
योजना हरु</w>
इन्द्र बहादुर</w>
त्य ौ
महेन्द्र बहादुर</w>
वि डम्बना</w>
आँग नमा</w>
विर् ता
प्रत्या रोप
हा मा</w>
प्रतिलि पि</w>
रि र्
ज मीन</w>
साथ ीले</w>
सर्व सम्म
न ू</w>
नी सँग</w>
वर हरु</w>
धनकु टामा</w>
झा र
ज घ
मा नेका</w>
पर ले</w>
ता न्
भ वा
ति ल
पि च</w>
जहा जले</w>
न म</w>
इरा नले</w>
नर ैना
चासो लाई</w>
बि जे
ल सम्म</w>
ने म्बा
इलाम का</w>
न दिएर</w>
इनो भेसन</w>
अर् चना</w>
विद्यालय बाट</w>
भ्र ममा</w>
मौ लि
उत्त रमा</w>
बा ई
बा णिज्य</w>
बब ई</w>
वि धानको</w>
न लगायतका</w>
के ला
पुनर् निर्माणको</w>
कि या</w>
वर्षा याममा</w>
आ श्रम</w>
विश्व लाई</w>
मर् म
जिल्ला हरुमा</w>
आश्चर् य</w>
व रलाई</w>
त लास</w>
मूर् त</w>
अब देखि</w>
गु ग
अधिकारी हरु</w>
तामा कोशी</w>
लक्ष्य सहित</w>
ग्रु पका</w>
विधेयक माथि</w>
विश्वे श्वरप्रसाद</w>
ू न्</w>
बद ला</w>
विनो द
ताइ वान</w>
ी करणका</w>
सैनि कको</w>
भागब ण्डा</w>
कि लले</w>
क टन</w>
हुम् लाको</w>
उ दार</w>
उठा ए</w>
उच्च तम</w>
ट्रे सिङ</w>
क्ष णिक</w>
हा लेका</w>
चिन् ताको</w>
मोटरसाइक ललाई</w>
दूतावा सका</w>
खै रो</w>
महाधिवेश नका</w>
हा नमा</w>
या क</w>
प्रविधि मैत्री</w>
१४ औँ</w>
गरि सक्ने</w>
ट्र कमा</w>
क सम्म</w>
संस्था हरूको</w>
मिनेट मै</w>
इ निङ</w>
ट्रे लर</w>
र मण
राजनी तिले</w>
खुला इएको</w>
राप्र पा
ब्याडमि न्टन</w>
ए यरले</w>
आ एपनि</w>
विधेय कले</w>
ख टाइ
दल हरुबीच</w>
त्यस कै</w>
त् साह
हि रो
मो ह</w>
प्लेट फर्म</w>
मेची नगर</w>
रह नुपर्छ</w>
मण्ड लको</w>
क्लि निक</w>
जघ न्य</w>
अ सहयोग</w>
बहरा इ
हातेमा लो</w>
स प्ला
फ न्
रोजगार दाता</w>
थि मि</w>
प्रति मा</w>
फणी न्द्र</w>
अक्ष य</w>
ङ् स</w>
आया म</w>
भिय तना
त् तो
बुझा एर</w>
गृह को</w>
फाई नलमा</w>
नट आउट</w>
हर पल</w>
सप्त रीका</w>
गर्ने छु</w>
विधि पूर्वक</w>
मन्त्री समेत</w>
फ्या क्
न हुँदासम्म</w>
ङ् दी</w>
र ङ्ग</w>
सद् भाव
मंग ल</w>
ठा नेर</w>
योग दान
गुणस्त रहीन</w>
मा ना
आप त्कालीन</w>
क्ष त्र
प्रवक् ताले</w>
कांग्रेस कै</w>
मझु वागढी</w>
लाइ सेन्
भ को</w>
खो जी
ता मूलक</w>
शर् माका</w>
रुपा कोट</w>
फिदि म</w>
ज ू</w>
गर्द थे</w>
णिज ्य
बगर मा</w>
जा नी</w>
भे लालाई</w>
प्र वे
खा एका</w>
गु रा
उ प्रान्त</w>
मि कता</w>
जहा ज
दलि त
अ पन
डे न्
ग ड्
सि केको</w>
भइ सक्दा</w>
जनप्रतिनिधि लाई</w>
प ख</w>
अर निको</w>
कार्य लय</w>
मन न</w>
अ भद्र</w>
भ्रम णले</w>
इन्डि याको</w>
गा एको</w>
क्लि यर</w>
खो लाबाट</w>
वस्तु लाई</w>
दुरु स्त</w>
विगत देखि</w>
पे मेन्ट</w>
दी क्षा</w>
दु ख्
संसद का</w>
दर् शा
व्या पी
हात्त ीले</w>
गोरखा का</w>
वडा अध्यक्ष</w>
संसार कै</w>
रेस्टु रेन्
जोखिम युक्त</w>
कोर ला</w>
बा झि
धा रिलो</w>
निर ज</w>
युवा हरुको</w>
सं योग</w>
मि ठो</w>
दूतावास लाई</w>
कार्य हरु</w>
छ त्र
वित रक</w>
लागे की</w>
उदाहरण ीय</w>
पाइ रहेका</w>
ते ल
निवा सको</w>
आका ङ्
राणा को</w>
बलिउ डमा</w>
ल्या उनुपर्छ</w>
घे रामा</w>
छुट् टि
रि ङ
मुख्य तः</w>
ए सले</w>
बिहा र</w>
भिडियो लाई</w>
तालि मको</w>
दु खेसो</w>
दक्षिण पन्थी</w>
फ्रि ज</w>
चि र
फि त
कर्मचारी हरुले</w>
र कुमार</w>
क्यालि फोर्
स्वर् णि
ढि क्का</w>
ले ज</w>
च मे
र कमा
को ठे</w>
उन ि</w>
व्यक्ति हरूले</w>
अक्टो बरमा</w>
भइ रहने</w>
सो नाम</w>
पुगि न्</w>
बद ल्न</w>
ब्रो ड
क हा
एसएल सी</w>
एक छिन</w>
प्रकृ ति
एपि एफ
स्या हार</w>
शालि ग्राम</w>
दुर् भाग्य
इञ्जि नियर</w>
ई श्वर
घ डीमा</w>
आशा मा</w>
मोर्चा मा</w>
सुनी ल</w>
बाल ीको</w>
के ला</w>
छा डा</w>
ए लको</w>
चिकित् सा
सि टी
बढा ए</w>
लमजु ङको</w>
जोखि मको</w>
खि चा
निर्देश कको</w>
प्रतिव द्ध</w>
मर् स्याङ्
आउ नुभएका</w>
स्पर् धामा</w>
प्रतियोगि ताबाट</w>
ं की</w>
शब् दको</w>
फ लो
शल्य क्रिया
पुनर् स्थापना</w>
२०० ३</w>
नेपाली हरूको</w>
व ेको</w>
कठ् ठा</w>
देश हरुमा</w>
रहि आएको</w>
जन्म ेका</w>
श्रमि कले</w>
श्र ु
या े
झन् डा</w>
दा म्प
सुनि न्छ</w>
श वलाई</w>
आधा भन्दा</w>
मान्य तालाई</w>
स्टा टस</w>
भ्ला दिमिर</w>
बजा रसम्म</w>
मिसा एर</w>
ध्य े
नगरपालिका की</w>
जा न्छु</w>
गु गल</w>
शै लेन्द्र</w>
देखा परेको</w>
ञ् जन</w>
ए ट
ट भ
अध्यक्ष लाई</w>
विज्ञ हरूले</w>
कु म्
वर्ग ले</w>
ए लमा</w>
मित्र ता</w>
पि ड</w>
भाग ेको</w>
साध नले</w>
सा दा</w>
तया रीको</w>
घाइते मध्ये</w>
कार् गो</w>
बेलाय तले</w>
दुवै मा</w>
फ् टिङ</w>
दुब ईमा</w>
बा नियाँ</w>
पाटी सँग</w>
० ८०</w>
वार्षिकोत्स व</w>
ः ४५</w>
अनलाइ नबाट</w>
घण्टा भित्र</w>
ई लाई</w>
यो जन
दिन भरि</w>
भा ष</w>
महत् वाकां
रमा उन</w>
ज री
ब रे
म टि
ण्डि त</w>
सकि नँ</w>
अह म
स ्रा
दिइ सकेका</w>
स खा
फैस लाले</w>
से ले</w>
बढा उनका</w>
सि टा
रोहि तले</w>
कालान्त रसम्म</w>
नि काले</w>
या नो</w>
ला ठी</w>
बे डको</w>
रि माल</w>
मनसु नको</w>
इ ज्जत</w>
ज लेको</w>
आर डी
अपरा धका</w>
घो र</w>
खा र्
साम न्त
प्रजा तिको</w>
र विन</w>
चाहे मा</w>
क फ
वै द्य
गुना सा</w>
जना सम्म</w>
वस्तु गत</w>
प्रि न्ट</w>
पाइ एन</w>
गाय त्री</w>
सहि ष्णु
भ ग्
निर्माण सम्बन्धी</w>
सूची त</w>
हा ई
उत्प त्ति</w>
रेग् मीको</w>
भैरह वामा</w>
आरो पि
हजा रले</w>
म् म</w>
यो चित</w>
मापदण्ड अनुसार</w>
त्यस लगत्तै</w>
लै न
छा ना</w>
पढ े
गर्ने हरु</w>
७ औं</w>
गरा एकी</w>
शृङ्ख ला</w>
लेटि को</w>
क डी</w>
क्वाटर फाइनलमा</w>
जि म</w>
कहिले सम्म</w>
उजु रीमा</w>
वृद्ध वृद्धा
श्रद्धा ञ्जल
केरु ङ</w>
रि याको</w>
एक्स टेन्सन</w>
बे वारिसे</w>
खा ए</w>
मो वाइ
दौड धु
भन् सा
खतिवडा को</w>
जगा उने</w>
टे बुल</w>
म ठ
अभ्या स
द्वन्द् वका</w>
दा ग</w>
सञ्चार कर्म</w>
जस कारण</w>
महिला सहित</w>
धनुष ामा</w>
डो र
सघा उन</w>
शि थि
बाग् लु
स त</w>
सम्वन् धी</w>
टा पु
लु क्
टा लाई</w>
संरचना गत</w>
प्ले यर</w>
ज मी
अ स्वीकृत</w>
भा ष्य</w>
समारोह लाई</w>
पै सामा</w>
आया तित</w>
सी ट</w>
प्रोजे क्
सो चि
पुरा तत्व</w>
गर् यौं</w>
सिर् जित</w>
ट्र पिकल</w>
विमर् श</w>
विश्वस नी
च्चि कै</w>
गरे बापत</w>
मामिला मन्त्री</w>
मो न</w>
ह ट्ने</w>
घे रा</w>
बाइडे न</w>
चिन् ताले</w>
सिम सार</w>
खा णले</w>
संस्था नको</w>
आइसोले शन</w>
भ्रष्टाचा रका</w>
महोत्त रीका</w>
राजेन्द्र प्रसाद</w>
छा पिएको</w>
गर मा</w>
ल्या उँछ</w>
मा ला
दे ऊ</w>
प्र दिप</w>
सप्त रीमा</w>
जु ङ</w>
ट्र मा</w>
कालि कोट</w>
ब् ला
अडा नमा</w>
फ ेस</w>
सी पी</w>
रक् सौ
ज्या दा</w>
पनौ ती</w>
सि गा
तस्क रीको</w>
वैज्ञा नि
प्रतिवेद नका</w>
सीमा न्तकृत</w>
डा रीले</w>
बे नी
शि ल्ड</w>
इन् चार्
शू न्य
अनु प</w>
पोलिट ब्युरो</w>
कैदी बन्दी</w>
वि ल्
उनु स्</w>
था रू
आइ सकेपछि</w>
विषय वस्तुमा</w>
हाँ स्
सन् स</w>
साइ टमा</w>
गन्तव्य को</w>
जाँ गर</w>
झ ू
मू लका</w>
धर्म राज</w>
खाल् डा
मतपे टिका</w>
क टि
सोच ेर</w>
हे क्का</w>
वि न्
निय मा
वि का</w>
जना का</w>
बंगला देशका</w>
हा न्
अर्ब ौं</w>
युव कलाई</w>
पुस् तिका</w>
न्यु नतम</w>
उपमहा नगरपालिकामा</w>
धु न</w>
छु न</w>
सिइ ओ</w>
अपना उनुपर्ने</w>
सर्व साध
दशै ंको</w>
द ्यले</w>
आप्र वासीको</w>
कार्य पत्र</w>
पहिरो बाट</w>
यस सम्बन्धी</w>
गाउँ ले
तो लाको</w>
च्याम्पियनसि पको</w>
उ ड
सुन्द रता</w>
नि लो</w>
र ज</w>
परम्परा को</w>
लक्ष्य को</w>
सांसद हरूको</w>
न्यौपा नेको</w>
रोजगा रको</w>
ल्यान्ड लाई</w>
काठ े
डु ङ्गामा</w>
लय लाई</w>
जोश ीलाई</w>
था ई</w>
मा ता
जला शय
थ मा</w>
सन्तु ष्टि</w>
स्वा मी</w>
इरा नको</w>
मु निको</w>
पुग् नुपर्ने</w>
हा न्ने</w>
लि न्छन्</w>
तो ड्न</w>
सभ्य ताको</w>
लु केर</w>
मजदु रको</w>
वि मानको</w>
महा निरीक्ष
भ ति
स् क्यान</w>
सु सूचीत</w>
विना श</w>
मानि सका</w>
लेन दे
अधिवेश नबाट</w>
कमे डी</w>
ट्रान्स फर्
कप्ता नी</w>
ता नि
बि ग</w>
बे टी</w>
शाखा रहित</w>
पोख्रे लले</w>
बलि या</w>
ता न्न</w>
प्र चारमा</w>
टु ंगोमा</w>
राख् ने
जा ग
ब्य क्त</w>
क्लि नि
सोच े</w>
टा ङ</w>
च्छ िक</w>
प ीलाई</w>
नाति ना</w>
राख ्यो</w>
पर्यटकीय स्थल</w>
पढ ेका</w>
समय लाई</w>
उप लक्ष्यमा</w>
क् वी
मु चुल्
भो कम
बुझ् नु</w>
मा स्यु
बेँ सी
अन्त्ये ष्टि</w>
परिवेश मा</w>
धार् मिक
बाग् लुङ</w>
वडा ले</w>
मार्ग दर्शन</w>
विश्रा म</w>
सर् न</w>
चलचित्र का</w>
राजवि राज
एसए सब
पू जाको</w>
कार्य दलका</w>
आक्रा न्त</w>
प्रदर्शन कारी
हत्या रा</w>
श्रीम ती
संग्रहा लय</w>
वर परका</w>
एपी एफले</w>
य दी</w>
राज नि
अनेक ौं</w>
प्रतिश ो
से नले</w>
उल् ट्या
गर्नु भएका</w>
दिपा यल</w>
भए अनुसार</w>
मर् मतका</w>
पन् त्यौ
स् पाइ
पो ट</w>
दल हरूलाई</w>
भत्का एर</w>
को से
अव हेल
रसि या</w>
पन्त्यौ रो</w>
फैला उन</w>
फोर मका</w>
प म्प
युवा हरुलाई</w>
व्यवसाय ीका</w>
कन्टे नर</w>
मन्त्रि मण्डल</w>
दि एमा</w>
बाहिरि एपछि</w>
एसइ ई</w>
छ ्न</w>
ढो कामा</w>
संगठ नात्मक</w>
ग्याँ स</w>
मा न्छन्</w>
क स्थित</w>
गरि दियो</w>
पत्र लाई</w>
बि दाको</w>
निरन्त रको</w>
आश्र य</w>
देश भरि</w>
लत्ता कपडा</w>
रा केश</w>
घुम् ने</w>
दुव्र्यव हार</w>
उद्य मी
अन्सा री</w>
सान्त्व ना</w>
नृ त्य
रि न</w>
राज दु
अवसर का</w>
सं घा
पु रिएको</w>
नियमाव लीको</w>
फेब्रुअ रीमा</w>
ह सन</w>
पुँ जीको</w>
छुवा छू
गा यन</w>
टि लो</w>
मोबाइ लको</w>
गरि रहनुभएको</w>
फित लो</w>
प्रसा रण
साम ्य
सम्मान जनक</w>
मोर्चा का</w>
चि डिया
मुछि एका</w>
प ट</w>
प्र ु
दश रथ
उप ेन्द्र
विश्वविद्यालय बाट</w>
आँखा ले</w>
नेतृत्व दायी</w>
जोडि एर</w>
प्याले स्टाइ
सूर्य प्रसाद</w>
ता हरु</w>
बि छ्या
आर् थि
चे म्
दश कको</w>
पछाडि को</w>
भा लु
दिन दिनै</w>
लोकतन्त्र का</w>
न रको</w>
ले बना
वे ष्ट</w>
ध ौ</w>
नेपाल तर्फ</w>
अ सहाय</w>
निम्त्या उने</w>
पुछा रमा</w>
काउ ण्
सर को</w>
न्द ामा</w>
आँ प</w>
टे स्
रो ड
मतदान स्थल</w>
अनुगम नको</w>
ओ मान
त्रु टि
चासो का</w>
च री</w>
गु ँ
ढका ललाई</w>
निमन्त्र णामा</w>
डाक् टरको</w>
खेत बारीमा</w>
अशो क
कुकु रको</w>
अ कु
प्रया सले</w>
मच्छि न्द्र
स ञ्</w>
सिमेन् टको</w>
डे की</w>
अ पी
डे भिड</w>
बेलाय त
आँ धी
ख रमा</w>
आरो पी</w>
म्याग् दीमा</w>
दैलेख को</w>
वर् च
एम बीबी
स्वर् ण
शु न्य</w>
ग्रा ही</w>
महा शिव
ङ्ग बाट</w>
बार् गे
खि च्न</w>
मानिस हरुलाई</w>
स ना</w>
खो लेका</w>
ति नाउ</w>
टो क
नु भएन</w>
लगानी बाट</w>
कु लो</w>
हस्त कला</w>
बा बा
दूतावा समा</w>
न् जेल</w>
डु ङ्गा</w>
राशि का</w>
मु ल्या
जे भीले</w>
र भन्दा</w>
पत्रकारि ताको</w>
ता रमा</w>
पार सले</w>
बच् ने</w>
भाज पा</w>
ग्र ीन</w>
हवा इ</w>
से फ्
सी सँग</w>
फा लेर</w>
सहभाग ीले</w>
नि लक
वर्ष मुनिका</w>
कमा ण्ड</w>
टा ढि
वा णिज्य
लकडा उनले</w>
पुर् वा
काग जात
हावाहु री</w>
भा ग्ने</w>
फुर् सद</w>
मुलुक कै</w>
बा लेन्द्र</w>
दश ौँ</w>
समस्या ग्रस्त</w>
प्रजा पतिले</w>
मना ङको</w>
ज न्स</w>
कि रा</w>
हु नुपर्नेछ</w>
दि उसो</w>
शा ला
ह्या न्ड
अनु सूची</w>
समा नताको</w>
साप टी</w>
मार् क्स
यात्रा लाई</w>
उ र्व
र् यौ
सु स्ता</w>
इमान दा
गरि दिएपछि</w>
द रलाई</w>
भोग् दै</w>
गरे का
समस्या हरू</w>
स्या टे
ध्या त्मक</w>
भ जन</w>
लै जानुपर्ने</w>
चिनि न्छ</w>
व्यापा रीलाई</w>
तालिबा नले</w>
भि न्
छा त्र</w>
चेल् सी</w>
टीका राम</w>
कीर्गिस्ता नसँग</w>
भे टर</w>
बाहे कको</w>
हुने लाई</w>
लागि परेका</w>
दि नुपर्नेमा</w>
ब्या क्टे
गजे न्द्र</w>
धा गो</w>
चीन बीच</w>
मु श्
का खमा</w>
सयपत्र ी</w>
पृष्ठ भूमि</w>
इको नो
घर भित्रै</w>
डाय ला
लापर बाह
स्थानीय स्तरमा</w>
ब्रिफि ङ</w>
आय आर्
बोर् डर</w>
अफ्रि कामा</w>
द त्त
गुण स्तरको</w>
ओग टेको</w>
सीसी टीभी</w>
न भएकोले</w>
दि न्छौं</w>
नगरे सम्म</w>
ी हरुलाई</w>
किशो रीको</w>
आशी र्वाद</w>
राम जी</w>
पू र</w>
मो डेल</w>
पाकिस्ता नसँग</w>
क्स नले</w>
ह स</w>
सदस्य बाट</w>
सन राइज</w>
लगा यो</w>
वागम ती</w>
सं गीतमा</w>
ङ्ग्र े</w>
हँु दै</w>
र की</w>
सेन् टरको</w>
एयर पोर्
ब द्
ऐ नअनुसार</w>
पाण्डे यले</w>
ह ौ</w>
गा जामा</w>
सर ले</w>
न्या योचित</w>
प्रि न्स</w>
को का</w>
बस न्त
निरं कुश</w>
ओ झाले</w>
दबा ब
चलचित्र ले</w>
जन ताबाट</w>
नक् सामा</w>
पञ्चा य
ल ताको</w>
बाल कलाई</w>
म नी
बा राका</w>
दि व्य
इजराय लको</w>
गाउँपालि काबाट</w>
व्यक्ति हरुले</w>
स्म रणीय</w>
पाल नमा</w>
काम का
भना इमा</w>
मनो बलमा</w>
रुपियाँ को</w>
सर्ला हीमा</w>
ल मै</w>
बहि र्
कर्मचा रीमा</w>
आपत्ति जनक</w>
ए से
सा रेर</w>
डे स्क</w>
समा ति
निषेधाज्ञा को</w>
क्रियाकला प
स्मृ तिमा</w>
रा ङ</w>
बना उनुपर्नेमा</w>
सरो वर</w>
समि ट</w>
सञ् जीव</w>
म ट्टि
फार् मेसी</w>
दु रूप
सांसद ्</w>
सुत् न</w>
सू र्या
छुवा छु
स पे
नगद सहित</w>
ट् सले</w>
अन्य त्र
हा म</w>
उदा र
ताप्लेजु ङमा</w>
पौरा णिक</w>
म्या ट</w>
संञ् चालनमा</w>
प्रिन् सि
ल डेको</w>
रो पन
ङ की</w>
पद पूर्ति</w>
के श्वर</w>
दीर् घ</w>
या उनु</w>
अधिकां शले</w>
ड् डी</w>
पौ ष</w>
माग सहित</w>
प्रती क्षा</w>
शताब् दी</w>
मित व्य
गु र</w>
चु ङ</w>
चेल् सीले</w>
खोज तलास</w>
ब्वाइ ज</w>
लि स्ट</w>
प्रे ष
रण नीतिमा</w>
शनि बारको</w>
ध ना
रक्ष ाको</w>
साध ना</w>
यूएई माथि</w>
गौ री</w>
इन्फो सिस</w>
सेवा हरू</w>
ज म्म
ने य
ने वा
चीन सँगको</w>
मोह नबहादुर</w>
रोकि एपछि</w>
समूह गत</w>
था लियो</w>
व्यवहा रले</w>
ता सम्बन्धी</w>
डि सी</w>
बस्त ीको</w>
बेच ेको</w>
गि रीलाई</w>
सङ्गठ नले</w>
प ग्
छो डेका</w>
फि न</w>
ते लले</w>
बोल् दा</w>
दार्चु लाको</w>
समय भन्दा</w>
जी वा
जिम्मेवा रीबाट</w>
वार् डमा</w>
राम कुमारी</w>
हा म्
पाइ एमा</w>
गरे अनुसार</w>
स्वाभि मान</w>
सरोकारवा लाको</w>
समि क्षा</w>
सु नेका</w>
खु सी
वि भू
ता न्त</w>
लाइ नबाट</w>
वि च्छे
पोखरे ल
मले शि
भ रेर</w>
कट् ठा</w>
बिता उन</w>
सर्वोच्च का</w>
वरि यतामा</w>
त मोर</w>
लगाइ एका</w>
वरि ष्ठ
लक्ष्मी प्रसाद</w>
खानपा न</w>
सहि द
वे ल
सत्य ता</w>
दो रहेछ</w>
कि ंग्
मनो विज्ञान</w>
प्रधानन्यायाधीश को</w>
र ङको</w>
व्यवसायी हरुको</w>
अनलाइ नमार्फत</w>
आँ च</w>
शताब् दीमा</w>
अलै ं
दोस्रो मा</w>
भ्या न</w>
आग न्त
बाँ चि
श लाई</w>
जो डेका</w>
पर् ख
सबै जना</w>
ब बर
शो भा
कु ण्ड
निमन्त्र णा</w>
ई ं</w>
धा राको</w>
बि त्यो</w>
हि र्
गरा उँ
सु ट
पाइ न्</w>
मना ङमा</w>
निरंकुश ताको</w>
सं गको</w>
हाल सम्मको</w>
गर्ने छौँ</w>
यता कै</w>
गृह जिल्ला</w>
परमा णु</w>
छ लेर</w>
गार्ह स्थ्य</w>
छि र्न</w>
जन् मज
गरि रहनु</w>
बहु मत
भान् सामा</w>
घाई ते</w>
के न्या
भन् नाले</w>
सेके न्डमा</w>
काउ ली</w>
ह त्
सुधा रमा</w>
द म्बुलामा</w>
लि फ्ट</w>
बन्द को</w>
एच डी</w>
सिद्धान्त को</w>
मे यर
सक् दैनौं</w>
आग्रह मा</w>
उपलब्ध ता</w>
निक टका</w>
गाउँ कै</w>
डिफे न्डर</w>
म्या सेज</w>
फिल् डमा</w>
तीन कु
शा ली
फाँ ट</w>
मल् ल
माग े</w>
१० ५</w>
च नको</w>
हिं सामा</w>
बसा इ</w>
जन युद्ध
श् वर्
नि वास
क न्द
सो ल्
चन्द्र माको</w>
तृष् णा</w>
मि यो
हङक ङमा</w>
यु मा</w>
दाम्प त्य</w>
आँ ध
प्रधानमन्त्री समेत</w>
इ ज</w>
राउ तको</w>
दैन थे</w>
भे रो
रा म्
चि नीको</w>
झ्या ल</w>
सरकार द्वारा</w>
गल ौ
भग् नाव
कपि ल</w>
समी क्षा
अ मन
श्व री
वर्ष लाई</w>
देखि न्न</w>
भेटि यो</w>
न राज</w>
चार् टर</w>
मन ग्य</w>
देश भक्त</w>
हर्ष ित</w>
घट् दा</w>
गोरखा मा</w>
घर बाटै</w>
२०० २</w>
स्त म्भ
करा ते</w>
मावि का</w>
कारु पमा</w>
क्षय रोग</w>
रेख देख</w>
बानियाँ ले</w>
सु रा
नुपर् ने
हि द</w>
र् त</w>
कार्य हरू</w>
तस्क रीमा</w>
प्रान्त ीय</w>
भोग् नुपरेको</w>
हि लो</w>
देखि नु</w>
गरे को
संस्था सँग</w>
१० २</w>
ग्र ेस</w>
२०६ १</w>
लडाइ ँमा</w>
ल क्की</w>
गिरि राज
उन काे</w>
टि क्न</w>
निय त
ण्ड ी
बा रामा</w>
मन्त्री हरुले</w>
वाइ ड</w>
रौ नक</w>
हो ल्ड</w>
ओहो र
उत् प्रेरित</w>
नजि कै
लग े</w>
खाल्डा खुल्
घो डे
सी पी
प्रहा रबाट</w>
मन कारी</w>
कु सु
प्प ु</w>
मा पक</w>
दा वा</w>
सम्झ ेर</w>
भैर व
घट ्यो</w>
मन्त्री हरूले</w>
बग ेको</w>
हुनु परेको</w>
आर ती</w>
उहाँ हरुलाई</w>
स्वर्णि म</w>
न पुगेका</w>
खुला एको</w>
नगर बाट</w>
प हल
मिटर ब्याज</w>
रे सले</w>
प्रवर्द्ध नका</w>
पु लबाट</w>
हिँड डुल</w>
रि याले</w>
२०० ५</w>
न जरमा</w>
परामर्श दाता</w>
प्ला ष्टि
मञ्च को</w>
न्याय पालिका</w>
एका प
सुविधा मा</w>
सिद्धा र्थ
२०० १</w>
वर्ष सम्मका</w>
बिष य</w>
पु जा</w>
हि तलाई</w>
पन का</w>
ष्ट ता</w>
खरि दको</w>
पाठे घरको</w>
मोह मद</w>
बा रीको</w>
गरा उने
दर बारमा</w>
धुर् मु
स च्चि
केही बे
स्प ेस
बह ु</w>
ँ ै</w>
बु वाले</w>
[...]
